{
  "version": "1.0",
  "truncation": null,
  "padding": null,
  "added_tokens": [
    {
      "id": 0,
      "content": "<|u|>",
      "single_word": false,
      "lstrip": false,
      "rstrip": false,
      "normalized": false,
      "special": true
    },
    {
      "id": 1,
      "content": "<|b|>",
      "single_word": false,
      "lstrip": false,
      "rstrip": false,
      "normalized": false,
      "special": true
    },
    {
      "id": 2,
      "content": "<|endofdialog|>",
      "single_word": false,
      "lstrip": false,
      "rstrip": false,
      "normalized": false,
      "special": true
    },
    {
      "id": 3,
      "content": "<|pad|>",
      "single_word": false,
      "lstrip": false,
      "rstrip": false,
      "normalized": false,
      "special": true
    },
    {
      "id": 4,
      "content": "<|think|>",
      "single_word": false,
      "lstrip": false,
      "rstrip": false,
      "normalized": false,
      "special": true
    },
    {
      "id": 5,
      "content": "<|/think|>",
      "single_word": false,
      "lstrip": false,
      "rstrip": false,
      "normalized": false,
      "special": true
    }
  ],
  "normalizer": null,
  "pre_tokenizer": {
    "type": "ByteLevel",
    "add_prefix_space": false,
    "trim_offsets": true,
    "use_regex": true
  },
  "post_processor": null,
  "decoder": {
    "type": "ByteLevel",
    "add_prefix_space": true,
    "trim_offsets": true,
    "use_regex": true
  },
  "model": {
    "type": "BPE",
    "dropout": null,
    "unk_token": null,
    "continuing_subword_prefix": null,
    "end_of_word_suffix": null,
    "fuse_unk": false,
    "byte_fallback": false,
    "ignore_merges": false,
    "vocab": {
      "<|u|>": 0,
      "<|b|>": 1,
      "<|endofdialog|>": 2,
      "<|pad|>": 3,
      "<|think|>": 4,
      "<|/think|>": 5,
      "!": 6,
      "\"": 7,
      "#": 8,
      "$": 9,
      "%": 10,
      "&": 11,
      "'": 12,
      "(": 13,
      ")": 14,
      "*": 15,
      "+": 16,
      ",": 17,
      "-": 18,
      ".": 19,
      "/": 20,
      "0": 21,
      "1": 22,
      "2": 23,
      "3": 24,
      "4": 25,
      "5": 26,
      "6": 27,
      "7": 28,
      "8": 29,
      "9": 30,
      ":": 31,
      ";": 32,
      "<": 33,
      "=": 34,
      ">": 35,
      "?": 36,
      "@": 37,
      "A": 38,
      "B": 39,
      "C": 40,
      "D": 41,
      "E": 42,
      "F": 43,
      "G": 44,
      "H": 45,
      "I": 46,
      "J": 47,
      "K": 48,
      "L": 49,
      "M": 50,
      "N": 51,
      "O": 52,
      "P": 53,
      "Q": 54,
      "R": 55,
      "S": 56,
      "T": 57,
      "U": 58,
      "V": 59,
      "W": 60,
      "X": 61,
      "Y": 62,
      "Z": 63,
      "[": 64,
      "\\": 65,
      "]": 66,
      "^": 67,
      "_": 68,
      "`": 69,
      "a": 70,
      "b": 71,
      "c": 72,
      "d": 73,
      "e": 74,
      "f": 75,
      "g": 76,
      "h": 77,
      "i": 78,
      "j": 79,
      "k": 80,
      "l": 81,
      "m": 82,
      "n": 83,
      "o": 84,
      "p": 85,
      "q": 86,
      "r": 87,
      "s": 88,
      "t": 89,
      "u": 90,
      "v": 91,
      "w": 92,
      "x": 93,
      "y": 94,
      "z": 95,
      "{": 96,
      "|": 97,
      "}": 98,
      "~": 99,
      "¡": 100,
      "¢": 101,
      "£": 102,
      "¤": 103,
      "¥": 104,
      "¦": 105,
      "§": 106,
      "¨": 107,
      "©": 108,
      "ª": 109,
      "«": 110,
      "¬": 111,
      "®": 112,
      "¯": 113,
      "°": 114,
      "±": 115,
      "²": 116,
      "³": 117,
      "´": 118,
      "µ": 119,
      "¶": 120,
      "·": 121,
      "¸": 122,
      "¹": 123,
      "º": 124,
      "»": 125,
      "¼": 126,
      "½": 127,
      "¾": 128,
      "¿": 129,
      "À": 130,
      "Á": 131,
      "Â": 132,
      "Ã": 133,
      "Ä": 134,
      "Å": 135,
      "Æ": 136,
      "Ç": 137,
      "È": 138,
      "É": 139,
      "Ê": 140,
      "Ë": 141,
      "Ì": 142,
      "Í": 143,
      "Î": 144,
      "Ï": 145,
      "Ð": 146,
      "Ñ": 147,
      "Ò": 148,
      "Ó": 149,
      "Ô": 150,
      "Õ": 151,
      "Ö": 152,
      "×": 153,
      "Ø": 154,
      "Ù": 155,
      "Ú": 156,
      "Û": 157,
      "Ü": 158,
      "Ý": 159,
      "Þ": 160,
      "ß": 161,
      "à": 162,
      "á": 163,
      "â": 164,
      "ã": 165,
      "ä": 166,
      "å": 167,
      "æ": 168,
      "ç": 169,
      "è": 170,
      "é": 171,
      "ê": 172,
      "ë": 173,
      "ì": 174,
      "í": 175,
      "î": 176,
      "ï": 177,
      "ð": 178,
      "ñ": 179,
      "ò": 180,
      "ó": 181,
      "ô": 182,
      "õ": 183,
      "ö": 184,
      "÷": 185,
      "ø": 186,
      "ù": 187,
      "ú": 188,
      "û": 189,
      "ü": 190,
      "ý": 191,
      "þ": 192,
      "ÿ": 193,
      "Ā": 194,
      "ā": 195,
      "Ă": 196,
      "ă": 197,
      "Ą": 198,
      "ą": 199,
      "Ć": 200,
      "ć": 201,
      "Ĉ": 202,
      "ĉ": 203,
      "Ċ": 204,
      "ċ": 205,
      "Č": 206,
      "č": 207,
      "Ď": 208,
      "ď": 209,
      "Đ": 210,
      "đ": 211,
      "Ē": 212,
      "ē": 213,
      "Ĕ": 214,
      "ĕ": 215,
      "Ė": 216,
      "ė": 217,
      "Ę": 218,
      "ę": 219,
      "Ě": 220,
      "ě": 221,
      "Ĝ": 222,
      "ĝ": 223,
      "Ğ": 224,
      "ğ": 225,
      "Ġ": 226,
      "ġ": 227,
      "Ģ": 228,
      "ģ": 229,
      "Ĥ": 230,
      "ĥ": 231,
      "Ħ": 232,
      "ħ": 233,
      "Ĩ": 234,
      "ĩ": 235,
      "Ī": 236,
      "ī": 237,
      "Ĭ": 238,
      "ĭ": 239,
      "Į": 240,
      "į": 241,
      "İ": 242,
      "ı": 243,
      "Ĳ": 244,
      "ĳ": 245,
      "Ĵ": 246,
      "ĵ": 247,
      "Ķ": 248,
      "ķ": 249,
      "ĸ": 250,
      "Ĺ": 251,
      "ĺ": 252,
      "Ļ": 253,
      "ļ": 254,
      "Ľ": 255,
      "ľ": 256,
      "Ŀ": 257,
      "ŀ": 258,
      "Ł": 259,
      "ł": 260,
      "Ń": 261,
      "ĠÐ": 262,
      "Ð¾": 263,
      "Ðµ": 264,
      "Ð°": 265,
      "Ð¸": 266,
      "ÑĤ": 267,
      "Ð½": 268,
      "Ñģ": 269,
      "ÑĢ": 270,
      "Ð¾Ð": 271,
      "Ð»": 272,
      "Ðº": 273,
      "Ñĥ": 274,
      "Ñı": 275,
      "Ñĭ": 276,
      "Ð²": 277,
      "Ð¼": 278,
      "ĠÐ¿": 279,
      "ÑĮ": 280,
      "Ð´": 281,
      "ÑģÑĤ": 282,
      "ĠÐ²": 283,
      "Ñĩ": 284,
      "ÐµÐ½": 285,
      "ĠÑģ": 286,
      "ÑĢÐ°": 287,
      "čĊ": 288,
      "Ð¾Ð²": 289,
      "ĠÐ¸": 290,
      "Ð·": 291,
      "ĠÐ½": 292,
      "Ñħ": 293,
      "Ð¿": 294,
      "ĠÐ¾": 295,
      "Ð¹": 296,
      "ÑĢÐµ": 297,
      "Ð±": 298,
      "ĠÐº": 299,
      "Ð³": 300,
      "ÐµÑĤ": 301,
      "Ð¾Ð»": 302,
      "Ð½Ð¸": 303,
      "ĠÐ´": 304,
      "Ð¾Ð´": 305,
      "Ñİ": 306,
      "Ð½Ñĭ": 307,
      "Ð¾Ð¼": 308,
      "Ð¾ÑĢ": 309,
      "ÑĤÐµ": 310,
      "Ð»Ð¸": 311,
      "ÑĨ": 312,
      "Ð½Ð¾": 313,
      "ÑĪ": 314,
      "ĠÐ¼": 315,
      "ĠÐ½Ð°": 316,
      "ÑĢÐ¸": 317,
      "Ð¶": 318,
      "Ð¾Ð³": 319,
      "ÑģÐº": 320,
      "Ð½Ð°": 321,
      "Ð»ÑĮ": 322,
      "Ð¾Ð¹": 323,
      "Ð»Ð°": 324,
      "ÐµÐ½Ð¸": 325,
      "ÐµÑĢ": 326,
      "ĠÐ±": 327,
      "ÑĤÐ°": 328,
      "ÑĤÑĮ": 329,
      "Ð¾ÑĤ": 330,
      "Ð²Ð°": 331,
      "ĠÐ·": 332,
      "Ñī": 333,
      "ÑĦ": 334,
      "ÑģÑı": 335,
      "ĠÑĥ": 336,
      "ÐºÐ°": 337,
      "ĠÐ³": 338,
      "ÑĤÐ¾": 339,
      "ÐµÐ¼": 340,
      "ÑĤÐ¸": 341,
      "Ð¾Ñģ": 342,
      "ĠÑĩ": 343,
      "Ð¾Ð³Ð¾": 344,
      "ĠÐ½Ðµ": 345,
      "ÑĨÐ¸": 346,
      "Ð¾Ð½": 347,
      "Ð»Ñı": 348,
      "Ð»Ðµ": 349,
      "ĠÐ¿ÑĢ": 350,
      "Ð¼Ð¸": 351,
      "Ð¾Ð±": 352,
      "Ð´Ð°": 353,
      "ĠÑĢÐ°": 354,
      "Ñį": 355,
      "ĠÐ·Ð°": 356,
      "ÑĢÑĥ": 357,
      "ÑģÑĤÐ°": 358,
      "ÐºÐ¸": 359,
      "ÑģÑĤÐ²": 360,
      "Ð¾Ð²Ð°": 361,
      "ĠÐ°": 362,
      "ĠÑĤ": 363,
      "âĢ": 364,
      "Ð¾Ð¶": 365,
      "ĠÑį": 366,
      "Ð¾Ðº": 367,
      "ÑģÑĤÐ¸": 368,
      "ĠÐ¿Ð¾": 369,
      "ĠÐ¾ÑĤ": 370,
      "ĠÐ»": 371,
      "ÐµÐ¹": 372,
      "ĠÐ¾Ð±": 373,
      "ÑĩÐµ": 374,
      "ĠÐ¿ÑĢÐ¸": 375,
      "Ð¾Ð»ÑĮ": 376,
      "Ð²Ð¸": 377,
      "ĠÐºÐ°": 378,
      "ĠÐĴ": 379,
      "ÑĩÐ¸": 380,
      "Ð´Ðµ": 381,
      "Ġ1": 382,
      "ÑĩÐ°": 383,
      "Ð¼Ð°": 384,
      "Ð¾Ð·": 385,
      "ÑģÐºÐ¸": 386,
      "Ð´Ð¸": 387,
      "ÐµÐ½Ð¸Ñı": 388,
      "Ġ(": 389,
      "Ð½ÑĭÑħ": 390,
      "ĠÐŁ": 391,
      "ĠÐ¡": 392,
      "ÑģÐ¸": 393,
      "âĢĶ": 394,
      "ĠÐ²Ñĭ": 395,
      "ĠÐµ": 396,
      "Ð·Ð°": 397,
      "Ð½Ð¾Ð¹": 398,
      "Ð½ÑĭÐµ": 399,
      "Ð¾Ð¿": 400,
      "ÑĤÐµÐ»ÑĮ": 401,
      "Ð°Ð½": 402,
      "ĠÐ¸Ð·": 403,
      "ÑģÐ¿": 404,
      "Ð³Ð¾": 405,
      "Â«": 406,
      "Â»": 407,
      "ĠÑĢÐµ": 408,
      "Ð½Ðµ": 409,
      "ĠÐļ": 410,
      "ÑģÑĤÑĮ": 411,
      "Ð½Ð¾Ð³Ð¾": 412,
      "ĠÑĦ": 413,
      "ÑĥÑİ": 414,
      "Âł": 415,
      "ÑĪÐ¸": 416,
      "Ð½ÑĭÐ¹": 417,
      "ÑĢÐµÐ´": 418,
      "ĠÂ«": 419,
      "ĠÐ¿ÑĢÐ¾": 420,
      "ĠÐ±Ñĭ": 421,
      "ÐµÐ½Ð¸Ðµ": 422,
      "ÑģÐµ": 423,
      "Ñĳ": 424,
      "ÑīÐ¸": 425,
      "ĠÑģÑĤ": 426,
      "ĠÐ¶": 427,
      "Ð¾Ð´Ð°": 428,
      "ĠÑĤÐ°": 429,
      "ĠÑĤÐµ": 430,
      "Ð¡": 431,
      "ĠÑĩÑĤÐ¾": 432,
      "ĠÐľ": 433,
      "ÑİÑĤ": 434,
      "ÐºÐ¾": 435,
      "Ð¼Ðµ": 436,
      "ĠĠ": 437,
      "ÐµÑĤÑģÑı": 438,
      "Ð¼ÐµÐ½": 439,
      "Ð»Ð¾": 440,
      "Ð³Ð°": 441,
      "ĠÐĿ": 442,
      "Ð²Ðµ": 443,
      "Ġ2": 444,
      "ÐŁ": 445,
      "ÐµÑĢÐµ": 446,
      "ĠÑĢÐ°Ð·": 447,
      "Ð¿Ð°": 448,
      "ĠÑģÐ¾": 449,
      "Ð¶Ðµ": 450,
      "Ð¸ÑĤ": 451,
      "ÑĢÐ¾": 452,
      "ÑģÑĮ": 453,
      "ÐĴ": 454,
      "Ð²Ð¾": 455,
      "ĠÐ¿Ð¾Ð´": 456,
      "ĠÐ´Ð»Ñı": 457,
      "ÐºÑĥ": 458,
      "ĠÐ¼Ð°": 459,
      "ÑģÐ°": 460,
      "ĠÐĲ": 461,
      "ĠÐ¿Ð¾Ð»": 462,
      "Ð½Ð¸Ñı": 463,
      "Ð¾ÑĤÐ¾ÑĢ": 464,
      "ÑĢÑĭ": 465,
      "ĠÐŀ": 466,
      "ÑīÐµ": 467,
      "ÑħÐ¾Ð´": 468,
      "ÐºÑĤ": 469,
      "en": 470,
      "ĠÐł": 471,
      "Ð³Ð¸": 472,
      "Ð°Ð¼": 473,
      "Ð¿Ð¸": 474,
      "Ð´Ñĥ": 475,
      "ÑĨÐ¸Ð¸": 476,
      "ÑģÑĤÐ¾": 477,
      "Ð»Ñĥ": 478,
      "ÑĪÐµ": 479,
      "ĠÐĶ": 480,
      "Ð½Ð¾Ð²": 481,
      "Ð¸Ð·": 482,
      "Ð¸Ð¼": 483,
      "ÑĭÐµ": 484,
      "ÐºÐ¾Ð²": 485,
      "ĠÑı": 486,
      "ĠÐºÐ¾ÑĤÐ¾ÑĢ": 487,
      "al": 488,
      "Ð½Ñı": 489,
      "ÑĢÐ¾Ð²": 490,
      "ĠÑħ": 491,
      "Ð½Ð°Ñı": 492,
      "Ð»ÐµÐ½": 493,
      "ĠÐ¢": 494,
      "Ðŀ": 495,
      "ĠÐ¿ÑĢÐµÐ´": 496,
      "ÑĤÑĭ": 497,
      "ĠÐ¼Ðµ": 498,
      "ĠÐºÐ°Ðº": 499,
      "Ð°ÑĢ": 500,
      "Ð½Ð¸Ðµ": 501,
      "ĠÐ´Ð¾": 502,
      "ĠÐĺ": 503,
      "ĠÐ¸Ð½": 504,
      "Ðļ": 505,
      "ĠÐĳ": 506,
      "Ð¸Ð½": 507,
      "00": 508,
      "ĠÑĤÐ°Ðº": 509,
      "ĠÑģÑĤÐ°": 510,
      "ĠÐ´Ðµ": 511,
      "Ð½Ð¾Ðµ": 512,
      "ÑĨÐµ": 513,
      "ÑĭÑħ": 514,
      "Ð½ÑĭÐ¼": 515,
      "ÑĤÑĥ": 516,
      "ÑģÐºÐ°": 517,
      "Ð»Ð¾Ð²": 518,
      "ÐĿ": 519,
      "di": 520,
      "ĠÐºÐ¾Ð¼": 521,
      "Ð½Ð¾Ð¼": 522,
      "ÐĲ": 523,
      "ÑĤÐ¾Ð¼": 524,
      "ÑĥÑĤ": 525,
      "ÑģÐºÐ¾Ð¹": 526,
      "ÑĢÐ¾Ð²Ð°": 527,
      "ĠÐĵ": 528,
      "ÑģÑĤÐ²ÐµÐ½": 529,
      "of": 530,
      "Ð°Ð»ÑĮ": 531,
      "ÑĭÐ¹": 532,
      "ÑĥÐ´": 533,
      "ÑĢÑı": 534,
      "ĠÐ²ÑģÐµ": 535,
      "Ð·Ð¸": 536,
      "ÑĩÐµÑģÐºÐ¸": 537,
      "Ð½Ð¾ÑģÑĤÑĮ": 538,
      "Ġ-": 539,
      "|>": 540,
      "<|": 541,
      "Ð½Ð¾ÑģÑĤÐ¸": 542,
      "ĠÐ¼Ð¾Ð¶": 543,
      "ÐµÐº": 544,
      "ÑģÑĤÐ²Ð°": 545,
      "Ð²Ð»Ñı": 546,
      "Ð·Ñĭ": 547,
      "ĠÐ»Ð¸": 548,
      "er": 549,
      "ÐµÐ·": 550,
      "in": 551,
      "ÑģÑģ": 552,
      "Ð»Ñİ": 553,
      "ÑĢÐ°Ð½": 554,
      "ĠÐºÐ¾Ð½": 555,
      "Ġ19": 556,
      "Ð¶Ð°": 557,
      "Ð±Ð¾": 558,
      "Ð¾ÑĢÐ¸": 559,
      "Ð¿Ðµ": 560,
      "ÑĤÑĮÑģÑı": 561,
      "ĠÐ¿Ð¾Ñģ": 562,
      "ĠâĢĶ": 563,
      "Ð¾Ð½Ð°": 564,
      "ÐºÐµ": 565,
      "og": 566,
      "Ð²ÐµÑĤ": 567,
      "ÑģÐºÐ¾Ð³Ð¾": 568,
      "Ð¶Ð¸": 569,
      "end": 570,
      "ĠÐ¸Ð»Ð¸": 571,
      "ĠÐ¾Ñģ": 572,
      "ÑĦÐ¸": 573,
      "Ð¾Ð´Ñĥ": 574,
      "ÐµÐ½ÑĤ": 575,
      "Ð°Ðº": 576,
      "Ð²ÐµÑĢ": 577,
      "ĠÐ¿ÑĢÐµ": 578,
      "Ðĺ": 579,
      "ÑĢÐ°Ð²": 580,
      "ÐµÐ½ÑĮ": 581,
      "Ðł": 582,
      "alog": 583,
      "dialog": 584,
      "Ð¾Ðµ": 585,
      "ĠâĢ": 586,
      "endof": 587,
      "endofdialog": 588,
      "ĠÐ²Ð¾Ð·": 589,
      "ÑĪÐ°": 590,
      "ĠÑģÐ²Ð¾": 591,
      "ĠÐ¿ÐµÑĢÐµ": 592,
      "Ð¾Ð³Ð¸": 593,
      "ÑģÑĤÐ²Ð¾": 594,
      "on": 595,
      "ĠÐ²Ðµ": 596,
      "ÑĢÐ°Ð·": 597,
      "ĠÑįÑĤÐ¾": 598,
      "ÐĶ": 599,
      "ÑıÑĤ": 600,
      "ĠčĊ": 601,
      "Ð¸Ð»": 602,
      "ĠÑĢ": 603,
      "Ð¾Ð»Ðµ": 604,
      "ÑĥÑĢ": 605,
      "ĠÑģÐµ": 606,
      "Ð¢": 607,
      "ÑģÐºÐ¸Ð¹": 608,
      "Ðľ": 609,
      "ĠÐ½Ð¾": 610,
      "ĠÑĤÐ¾": 611,
      "Ð»ÐµÐ´": 612,
      "Ð¾Ð»ÑĮÐ·": 613,
      "Ð¾Ð»ÑĮÐºÐ¾": 614,
      "an": 615,
      "ÑīÐ°": 616,
      "ĠÐĽ": 617,
      "ĠâĢĵ": 618,
      "ĠÐ²Ð°": 619,
      "ĠÐµÐ³Ð¾": 620,
      "ÑĢÐµÐ¼": 621,
      "ĠÑĨ": 622,
      "ĠÑĩÐ°": 623,
      "ÑĤÐ¾ÑĢ": 624,
      "Ð±Ð¸": 625,
      "Ð½Ñĥ": 626,
      "ÑģÐ»Ð¸": 627,
      "ÑĨÐ¸Ñı": 628,
      "Ð½ÑĥÑİ": 629,
      "Ð¼ÐµÑĢ": 630,
      "ĠÑĢÑĥ": 631,
      "ĠÐ¶Ðµ": 632,
      "ĠÐ¸ÑģÐ¿": 633,
      ").": 634,
      "es": 635,
      "ĠÐ¾Ð¿": 636,
      "ĠÐ´Ð°": 637,
      "ĠÐ³Ð¾Ð´Ð°": 638,
      "ĠÐ²Ð¸": 639,
      "ÐºÐ¾Ð¼": 640,
      "ĠÐ£": 641,
      "Ð»ÐµÐ½Ð¸Ñı": 642,
      "ĠÐ´ÑĢÑĥ": 643,
      "ÑĨÐ°": 644,
      "ĠÐ½Ð¸": 645,
      "ĠÑģÐ¸": 646,
      "ÑĤÐ¸Ð²": 647,
      "Ð¼Ñĥ": 648,
      "Ð¾Ð»Ð¸": 649,
      "ĠÐ»Ñİ": 650,
      "or": 651,
      "Ð½Ð¸Ð¸": 652,
      "ĠÐķ": 653,
      "Ð²Ð¾Ð´": 654,
      "Ð°Ð¹": 655,
      "Ð¶Ð´": 656,
      "ĠÑģÐ°Ð¼": 657,
      "Ð»ÐµÐ¹": 658,
      "ÑĢÐ¾Ñģ": 659,
      "ĠÑģÑĥ": 660,
      "Ð¾Ð±Ñĭ": 661,
      "ÑģÑĤÐ²Ð¸": 662,
      "Ġ3": 663,
      "Ð±Ð¾ÑĤ": 664,
      "ĠÑģÐ¿": 665,
      "ĠÐ¾Ð´": 666,
      "ĠÐ¼Ð¸": 667,
      "Ð°Ð»": 668,
      "Ġt": 669,
      "Ð½Ð¸Ð¼Ð°": 670,
      "ĠÐ²Ð¾": 671,
      "ĠÐŃ": 672,
      "Ð¾ÐºÐ°": 673,
      "ĠÐĹ": 674,
      "Ð±Ðµ": 675,
      "ĠÐ¾Ð½": 676,
      "ÑĥÑĩ": 677,
      "01": 678,
      "ĠÐ¿ÐµÑĢ": 679,
      "ĠÐ¤": 680,
      "ÑĬ": 681,
      "at": 682,
      "ÑİÑĤÑģÑı": 683,
      "ÐµÐ½Ð¸Ð¸": 684,
      "ĠÑįÑĤ": 685,
      "ÐµÑĤÐµ": 686,
      "ĠÑĪ": 687,
      "Ð½ÑĭÐ¼Ð¸": 688,
      "ĠÐ²ÑĢÐµÐ¼": 689,
      "ĠÐ³Ð¾ÑĢ": 690,
      "ĠÐĿÐ°": 691,
      "Ð¾ÑģÑģÐ¸": 692,
      "Ð¸Ñģ": 693,
      "Ġ\"": 694,
      "ÐºÐ¾Ð½": 695,
      "ÑİÑīÐ¸": 696,
      "ĠÐ±Ð¾Ð»ÑĮ": 697,
      "Ð¼Ñĭ": 698,
      "ÑģÑĤÐ¾Ñı": 699,
      "ĠÐ¿ÑĢÐ°": 700,
      "ĠÑģÐ²": 701,
      "ÑĥÐ¶": 702,
      "ĠÐ·Ð½Ð°": 703,
      "ar": 704,
      "ÑģÑĤÐ°Ð²": 705,
      "ĠÐ¿Ðµ": 706,
      "ĠÐ¿Ð¾Ð¼": 707,
      "ÑģÑĤÑĥ": 708,
      "Ð¾Ð³Ð´Ð°": 709,
      "Ð±Ð°": 710,
      "),": 711,
      "ĠÑģÐ¾Ð²": 712,
      "ÑĦÐ¾ÑĢ": 713,
      "Ð¾Ñĩ": 714,
      "ÐµÐ²": 715,
      "ĠÑĩÐµ": 716,
      "ĠĠĠĠ": 717,
      "ĠÐ¿Ð°": 718,
      "ĠÐ´Ð¸": 719,
      "ÑĢÐ¾Ð¼": 720,
      "ĠÐ´Ð¾Ð»": 721,
      "ÑĥÐ»ÑĮ": 722,
      "Ðĳ": 723,
      "ÐµÑĤÐ°": 724,
      "ĠÑĤÐ°ÐºÐ¶Ðµ": 725,
      "ÐµÐ½Ð°": 726,
      "ÑĥÑģ": 727,
      "Ð»ÑģÑı": 728,
      "Ð²Ñĭ": 729,
      "Ð¸ÑĤÐµ": 730,
      "Ð³ÑĢÐ°": 731,
      "Ð¾ÑĢÐ¾": 732,
      "ÐµÐ´": 733,
      "ĠÐ°Ð²": 734,
      "ÐµÐ½Ð¸Ð¹": 735,
      "Ð¾Ð»ÑĮÐ·Ð¾Ð²Ð°": 736,
      "Ð½Ð¸ÐºÐ°": 737,
      "Ðķ": 738,
      "Ðĵ": 739,
      "Â».": 740,
      "ÑģÐºÐ°Ñı": 741,
      "Ð¾Ð³ÑĢÐ°": 742,
      "Ð¼Ð¾Ð¶": 743,
      "ÑĤÐ¾Ð²": 744,
      "Ð»Ð¾Ð¶": 745,
      "ÑĤÐµÑĢ": 746,
      "Ð¿ÑĢÐ¸": 747,
      "Ð½Ð¸Ðº": 748,
      "ĠÑģÐ»Ñĥ": 749,
      "Ð»ÐµÐ¼": 750,
      "ĠÐ³Ð¾Ð´Ñĥ": 751,
      "Ð»ÐµÐ½Ð¸Ðµ": 752,
      "ÐºÐ°Ð·Ð°": 753,
      "ĠÐ½Ð¾Ð²": 754,
      "ĠÐ¼Ð¾Ð¶Ð½Ð¾": 755,
      "ÑħÐ°": 756,
      "ĠÑģÐ¾Ð±": 757,
      "Â»,": 758,
      "Ð»Ð¸ÑģÑĮ": 759,
      "Ð¸Ð²": 760,
      "ĠÐ¾ÑĢ": 761,
      "ÑĩÐ½Ð¾": 762,
      "Ð¸ÑĤÑĮ": 763,
      "ĠÐ¿Ð¾Ð»Ñĥ": 764,
      "Ð¾ÑĢÐ°": 765,
      "Ð·ÑĭÐ²Ð°": 766,
      "Ð½Ð¸Ð¹": 767,
      "Ð¸Ð»ÑĮ": 768,
      "ĠÐ¸Ñħ": 769,
      "ĠÐ§": 770,
      "ĠÐ¿Ð»Ð°": 771,
      "st": 772,
      "he": 773,
      "ĠÐ±ÑĭÐ»": 774,
      "Ð¾Ð»ÐµÐµ": 775,
      "ĠÐ²ÑĢÐµÐ¼Ñı": 776,
      "ĠÐ¿ÑĢÐ¾Ð²": 777,
      "Ð·Ð½Ð°": 778,
      "ÑģÐºÐ¾Ð¼": 779,
      "ĠÐ±ÑĥÐ´": 780,
      "Ð³Ñĥ": 781,
      "ĠÑĤÐ¾Ð»ÑĮÐºÐ¾": 782,
      "ĠÐ±ÐµÐ·": 783,
      "ÑģÑĤÑĢÐ°": 784,
      "ÑĤÐ¾Ð±Ñĭ": 785,
      "Ð¿Ñĥ": 786,
      "ÐºÐ¾Ð¹": 787,
      "Ð¾ÑģÑĮ": 788,
      "ÑĤÐµÑĢÐ¸": 789,
      "ĠÐ¿Ð¾Ð²": 790,
      "Ð´Ð¸Ð½": 791,
      "Ð½ÐµÐ¹": 792,
      "Ð£": 793,
      "ÐºÑĢÐ°": 794,
      "ÑģÑĤÐµ": 795,
      "ÑģÑĭ": 796,
      "Ġ5": 797,
      "ÑĥÐ±": 798,
      "Ġ4": 799,
      "..": 800,
      "ĠÐ»Ðµ": 801,
      "ÐĽ": 802,
      "ÑĤÐµÐ»ÑĮÐ½Ð¾": 803,
      "Ð´Ñĭ": 804,
      "ĠÐ±Ñĥ": 805,
      "ĠÐ¿Ð¾Ð·": 806,
      "Ð¤": 807,
      "Ġc": 808,
      "ĠÑģÑĤÑĢÐ°": 809,
      "ĠÐ¼Ð¾Ð¶ÐµÑĤ": 810,
      "ĠÐ¿ÑĢÐ¾Ð¸Ð·": 811,
      "Ð¿Ð¾Ð»": 812,
      "Ð²Ñĥ": 813,
      "Ð¸Ð½Ð°": 814,
      "ĠÐ¼Ñĭ": 815,
      "ĠÑĢÐ°Ð±Ð¾": 816,
      "ÐµÐ½Ðµ": 817,
      "ĠS": 818,
      "ÑĥÐ½": 819,
      "ĠÐ¿Ð¸": 820,
      "ÑĢÐ¾Ð´": 821,
      "ĠÐ¸Ð¼": 822,
      "Ð¾Ð»Ð¾Ð³Ð¸": 823,
      "Ð´ÐµÑĢ": 824,
      "ĠÑĢÐ°Ð±Ð¾ÑĤ": 825,
      "Ð¸Ð¼Ð¾": 826,
      "ĠÐ¥": 827,
      "Ð´Ð¾": 828,
      "ĠÐłÐ¾ÑģÑģÐ¸": 829,
      "ĠÐ±Ðµ": 830,
      "ÐĹ": 831,
      "ÑģÐ¾Ð²": 832,
      "ĠÐºÐ¾ÑĤÐ¾ÑĢÑĭÐµ": 833,
      "Ġ201": 834,
      "ÑĨÐ¸Ð¾Ð½": 835,
      "ÑĭÐ¼": 836,
      "Ð¼Ð¾ÑĤ": 837,
      "ÑģÐºÐ¸Ñħ": 838,
      "Ð»ÐµÐº": 839,
      "re": 840,
      "ÐµÐ½Ð¸Ñİ": 841,
      "Ð²Ð°ÑĤÑĮ": 842,
      "le": 843,
      "ĠÑĢÐ°Ñģ": 844,
      "ĠÑıÐ²Ð»Ñı": 845,
      "Ð´Ð°ÑĢ": 846,
      "it": 847,
      "ÑĢÑĥÐ¿": 848,
      "Ð»Ð°ÑģÑĮ": 849,
      "ĠÐ¿Ð¾ÑĤ": 850,
      "Ð¾ÑĤÐ¾Ð²": 851,
      "ÐµÐ½Ñĭ": 852,
      "ÑĢÐ°Ð¶": 853,
      "ÑĢÐ¾Ðº": 854,
      "ÑĤÑģÑı": 855,
      "19": 856,
      "Ð°Ð»Ð¸": 857,
      "ÑģÐ¿Ðµ": 858,
      "ĠÐºÐ¾ÑĢ": 859,
      "Ð°Ð·": 860,
      "Ġ=": 861,
      "ÑĮÑİ": 862,
      "ÑģÑĤÐ°Ð½Ð¾Ð²": 863,
      "ĠÑĩÑĤÐ¾Ð±Ñĭ": 864,
      "ÑĨÐ¸Ð°Ð»ÑĮ": 865,
      "Ð»Ð°Ð²": 866,
      "Ð±Ñĭ": 867,
      "ĠÑįÑĤÐ¾Ð¼": 868,
      "ĠÐ´Ð°Ð½": 869,
      "ĠÐ±ÑĥÐ´ÐµÑĤ": 870,
      "Ð¼Ð¾": 871,
      "Ð²ÐµÐ´": 872,
      "ĠÐ¸Ð¼Ðµ": 873,
      "Ð»Ð¾ÑģÑĮ": 874,
      "ÐµÐ½Ð¸ÐµÐ¼": 875,
      "ĠÐ¾Ð±ÑĢÐ°Ð·": 876,
      "ÑĢÐµÐ±": 877,
      "ÑĨÑĭ": 878,
      "ĠÐ¾Ð±Ð»Ð°": 879,
      "ÑĳÐ½": 880,
      "ÑģÑĤÐµÐ¼": 881,
      "ĠÐ¾Ð±ÑĬ": 882,
      "ÐºÐ»Ñİ": 883,
      "ĠÐ²ÐµÑĢ": 884,
      "ic": 885,
      "Ð¼ÐµÑĤ": 886,
      "ÑĦÐµ": 887,
      "Ġs": 888,
      "ĠÐ²Ñģ": 889,
      "ÑĤÐ¸Ñı": 890,
      "ÑģÑģÐ¸": 891,
      "Ġp": 892,
      "ÑĨÐ¸Ñİ": 893,
      "ĠÑģÐ¾Ð·": 894,
      "ĠÐ±ÑĭÐ»Ð¾": 895,
      "ÐºÑĢÑĭ": 896,
      "ĠÑĥÑģ": 897,
      "ĠÐ½Ð°ÑĩÐ°": 898,
      "ÐĿÐ°": 899,
      "Ð¾ÐºÑĥ": 900,
      "ĠÑĩÐµÐ»Ð¾Ð²": 901,
      "ĠI": 902,
      "ÑģÑĤÐ°Ð²Ð»Ñı": 903,
      "ĠÐ»ÑİÐ±": 904,
      "ĠÐļÐ°": 905,
      "ĠC": 906,
      "ĠÐ¿Ð¾ÑĢ": 907,
      "ĠÑĤÐ¾Ð¼": 908,
      "ĠÑĦÐ¾ÑĢ": 909,
      "ĠÐºÑĢÐ°": 910,
      "ĠÐ¼Ð¾Ð³": 911,
      "Ð¾Ð½Ðµ": 912,
      "ĠA": 913,
      "ĠÐ¿Ð¾Ð¿": 914,
      "ĠÐµÑģÑĤÑĮ": 915,
      "ĠÐ´Ð¾Ð»Ð¶": 916,
      "ÑĢÐµÐ½": 917,
      "ĠÐ¼Ð½": 918,
      "ĠÑĢÐ°ÑģÐ¿": 919,
      "Ð³Ð°Ð½Ð¸": 920,
      "Ð¾Ð´Ðµ": 921,
      "ĠÐ°Ðº": 922,
      "ĠÐ´ÑĢÑĥÐ³Ð¸": 923,
      "Ð¿ÑĢÐ°Ð²": 924,
      "ĠÑįÐº": 925,
      "ÑģÑĤÐ°Ð²Ð¸": 926,
      "ĠÐ±Ð¾Ð»ÐµÐµ": 927,
      "ĠÐºÑĥ": 928,
      "Ð¹ÑĤÐµ": 929,
      "Ġ200": 930,
      "Ð»Ñĭ": 931,
      "ÑĢÐµÐ¼ÐµÐ½": 932,
      "ÑģÑĤÑĢÐ¾": 933,
      "ÑĩÐµÐ½ÑĮ": 934,
      "ÑħÐ¾Ð´Ð¸ÑĤ": 935,
      "ion": 936,
      "Ð³Ð¾Ð²": 937,
      "ÐºÐ¾Ð»": 938,
      "ĠÑģÑĢÐµÐ´": 939,
      "ĠÐ±ÑĭÑĤÑĮ": 940,
      "ÑīÐµÑģÑĤÐ²": 941,
      "Ġa": 942,
      "ĠÑģÐ¸ÑģÑĤÐµÐ¼": 943,
      "ro": 944,
      "ĠÑĥÑĩÐ°": 945,
      "Ð´Ð¾Ð²": 946,
      "ĠÐµÑģÐ»Ð¸": 947,
      "Ð¾Ð¿ÑĢÐ¾Ñģ": 948,
      "ĠÐŁÑĢÐ¸": 949,
      "Ð±Ð¾ÑĢ": 950,
      "Ð»Ð¸Ñĩ": 951,
      "ÐµÐ¼Ñĥ": 952,
      "Ð¾Ð²Ð°Ð½Ð¸Ñı": 953,
      "Ð°ÑĤ": 954,
      "ĠÐ¿Ð¾ÑģÐ»Ðµ": 955,
      "ÑĢÐµÐ´Ðµ": 956,
      "ĠÐ´Ð¾Ð¼": 957,
      "ĠÐ¼Ð¾": 958,
      "ĠÐ¿ÐµÑĢÐ²": 959,
      "**": 960,
      "ĠÑģÐ²Ñı": 961,
      "ĠÐ»ÐµÑĤ": 962,
      "Ð¸ÑĤÐµÐ»ÑĮ": 963,
      "ĠÐ²Ð¾Ð·Ð¼Ð¾Ð¶": 964,
      "ĠÐ¸Ð³": 965,
      "ĠÑģÐ¿Ðµ": 966,
      "ĠÑĥÐ¶Ðµ": 967,
      "Ð²ÑĪÐ¸": 968,
      "ĠÑĤÐµÑħ": 969,
      "ĠÑģÐ¾Ð·Ð´Ð°": 970,
      "de": 971,
      "ĠÐ¸ÑģÐ¿Ð¾Ð»ÑĮÐ·Ð¾Ð²Ð°": 972,
      "ĠÐºÐ¾Ð¼Ð¿": 973,
      "ÐºÐ¸Ðµ": 974,
      "ĠÐºÐ¾Ð¼Ð¿Ð°": 975,
      "Ð¾ÑģÑĥ": 976,
      "ĠM": 977,
      "Ð¾Ð½Ð°Ð»ÑĮ": 978,
      "ĠÐ¯": 979,
      "Ð²Ð¾Ð»": 980,
      "ĠÐºÐ¾ÑĤÐ¾ÑĢÑĭÐ¹": 981,
      "Ð¶Ð´Ñĥ": 982,
      "ÑģÑĤÑĢ": 983,
      "ÐºÐ¸Ñħ": 984,
      "Ð´ÐµÐ»Ð°": 985,
      "ĠÐĹÐ°": 986,
      "Ġ18": 987,
      "ĠÐ²ÑĭÑģ": 988,
      "Ð½Ð¸ÐºÐ¾Ð²": 989,
      "ĠÑĨÐµ": 990,
      "ĠÐ½ÑĥÐ¶": 991,
      "ĠÐŁÐ¾": 992,
      "ĠÑģÐº": 993,
      "ĠÐ³Ð¾Ð´": 994,
      "ÑĩÐµÑģÐºÐ¸Ñħ": 995,
      "ÐµÐ¹ÑģÑĤÐ²Ð¸": 996,
      "Ð¿ÐµÑĢ": 997,
      "ĠÐ¾Ð½Ð¸": 998,
      "ĠP": 999,
      "ĠÑĤÐ¾Ð³Ð¾": 1000,
      "ÑĤÐµÐ»Ñı": 1001,
      "ÑģÐºÐ¸Ðµ": 1002,
      "Ð²Ð°ÐµÑĤ": 1003,
      "ĠÐ¿ÑĢÐ°Ð²Ð¸": 1004,
      "ĠÑģÐ»ÑĥÑĩÐ°": 1005,
      "Ð½Ð¸ÐºÐ¸": 1006,
      "ÑĢÐµÑģ": 1007,
      "ĠÐ¾ÑĢÐ³Ð°Ð½Ð¸": 1008,
      "Ð¾Ð±ÑħÐ¾Ð´": 1009,
      "ĠĠĠ": 1010,
      "Ġ6": 1011,
      "ĠÑįÑĤÐ¸": 1012,
      "Ð¾ÑģÐ¾Ð±": 1013,
      "Ġf": 1014,
      "Ð½ÐµÐµ": 1015,
      "ĠÐ´ÐµÑĤ": 1016,
      "ÑĢÐ¾Ð¿": 1017,
      "ĠÐ¨": 1018,
      "ÑĩÐµÐ½": 1019,
      "Ð°Ñģ": 1020,
      "ĠÐ¶Ð¸Ð·": 1021,
      "Ð³Ð¾Ð´": 1022,
      "ÐµÐ½ÑĤÐ°": 1023,
      "ĠÐºÐ°ÑĢ": 1024,
      "ĠÑĩÐµÐ¼": 1025,
      "is": 1026,
      "ÐŃ": 1027,
      "ĠÐ°ÑĢ": 1028,
      "ÑģÑĤÐ¾ÑĢÐ¸": 1029,
      "ÑĩÐµÐ½Ð¸Ðµ": 1030,
      "Ð¿ÐµÑĢÐ°": 1031,
      "Ð»Ð¾Ð¼": 1032,
      "Ð¾Ð¶Ðµ": 1033,
      "Ð°ÑĢÐ°": 1034,
      "ĠÐ¿Ð°ÑĢ": 1035,
      "ÑıÑħ": 1036,
      "ÑĦÐ¾ÑĢÐ¼Ð°": 1037,
      "Ð¾ÑĤÐ²ÐµÑĤ": 1038,
      "ĠÐ¾ÑĩÐµÐ½ÑĮ": 1039,
      "ÑĢÐµÐ´Ð¸": 1040,
      "ÑħÐ¸": 1041,
      "ÑĥÑİÑīÐ¸": 1042,
      "ĠT": 1043,
      "ĠÐ¼ÐµÑĤ": 1044,
      "ĠÑįÑĤÐ¾Ð³Ð¾": 1045,
      "ĠÐ¿Ð¾Ð»ÑĥÑĩÐ¸": 1046,
      "Ð¾Ð³Ð°": 1047,
      "ÐºÐ°Ð½": 1048,
      "Ð»ÐµÐºÑĤ": 1049,
      "ĠÐ½ÐµÐ¾Ð±ÑħÐ¾Ð´": 1050,
      "Ð»ÐµÑĤ": 1051,
      "ÑĪÐµÐ½Ð¸Ñı": 1052,
      "ĠÐ¿Ñĥ": 1053,
      "ÑģÑĤÐ²Ðµ": 1054,
      "ĠÑĢÐ°Ð±Ð¾ÑĤÐ°": 1055,
      "Ð½Ð³": 1056,
      "Ð½Ð¾Ð²Ð°": 1057,
      "ĠÑĤÐµÐ¼": 1058,
      "ĠÐ¾Ð±ÑĢÐ°": 1059,
      "ĠÑģÐ²Ð¾Ð¸": 1060,
      "ĠÑĢÐµÐ·": 1061,
      "ÑĩÐ¸ÑĤÐ°": 1062,
      "Ð¾Ð¼Ñĥ": 1063,
      "ÑģÐºÐ¾Ðµ": 1064,
      "Ð§": 1065,
      "ĠÑıÐ²Ð»ÑıÐµÑĤÑģÑı": 1066,
      "Ð¸ÑĤÐ°": 1067,
      "ĠÐ±ÑĭÐ»Ð¸": 1068,
      "as": 1069,
      "ĠÐ¾ÑģÐ½Ð¾Ð²": 1070,
      "ou": 1071,
      "ĠÐ¿ÑĢÐ¾ÑĤ": 1072,
      "ÑĢÐ°Ð»ÑĮ": 1073,
      "ĠÑģÐ°": 1074,
      "ÑĢÐ¾Ð²Ð°Ð½": 1075,
      "ĠÐ¿ÑĢÐ¾Ð¸Ð·Ð²Ð¾Ð´": 1076,
      "Ð±Ñı": 1077,
      "Ð¸Ð»Ð¸": 1078,
      "Ġthe": 1079,
      "ĠÐ¼Ñĥ": 1080,
      "ĠÐ¿Ð¾ÐºÐ°": 1081,
      "Ð»ÑĮÐ½Ð¾": 1082,
      "ĠÐºÐ°ÑĩÐµ": 1083,
      "ÑĢÐ°Ð²Ð¸": 1084,
      "Ð¾ÑģÐº": 1085,
      "ÑĩÐµÐ½Ð¸Ñı": 1086,
      "ĠÐ¾ÑĤÐ½Ð¾": 1087,
      "ÑĥÐ»ÑĮÑĤÐ°": 1088,
      "ĠÐłÐ¾ÑģÑģÐ¸Ð¸": 1089,
      "ÑĩÐµÑģÐºÐ¾Ð¹": 1090,
      "ĠÐĴÑĭ": 1091,
      "ac": 1092,
      "Ġm": 1093,
      "ÑĪÐµÐ¹": 1094,
      "ĠÑģÐ°Ð¹": 1095,
      "ĠÐ²Ð¾Ñģ": 1096,
      "om": 1097,
      "ÑģÑĤÑĥÐ¿": 1098,
      "ÑĮÑı": 1099,
      "ÑĨÐ¸Ð¹": 1100,
      "ÑĥÐµÑĤ": 1101,
      "ĠÑģÑĤÐ¾": 1102,
      "ĠÑĤÐµÑĢ": 1103,
      "ĠÐºÐ°Ð¶Ð´": 1104,
      "ÑĤÑĢÐ°": 1105,
      "ÑĢÑĥÐ´": 1106,
      "ĠÐ±ÑĭÐ»Ð°": 1107,
      "ÐµÐ½Ð½Ð¾": 1108,
      "ÑĩÐµÑģÐºÐ¸Ðµ": 1109,
      "Ġ\\": 1110,
      "et": 1111,
      "ĠÐºÐ¾Ð³Ð´Ð°": 1112,
      "ÐŁÑĢÐ¸": 1113,
      "el": 1114,
      "Ð¾ÑĢÐ¾Ð²": 1115,
      "am": 1116,
      "Ġ7": 1117,
      "Ð¿ÑĢÐµ": 1118,
      "ÑĪÑĮ": 1119,
      "ing": 1120,
      "ĠÐ³Ð´Ðµ": 1121,
      "ĠÑģÐµÑĢ": 1122,
      "Ð¾ÑģÑĥÐ´Ð°ÑĢ": 1123,
      "ĠÐ´ÐµÐ½ÑĮ": 1124,
      "Ð¾Ð³ÑĢÐ°Ð¼": 1125,
      "ÑģÑĤÑĢÑĥ": 1126,
      "ÐºÑĤÐ¸": 1127,
      "ÑĤÐ¾ÑĢÐ¸": 1128,
      "Ð»Ð¸ÑĩÐ¸": 1129,
      "ÑĤÐ¾ÑĢÐ°": 1130,
      "Ð±ÑĢÑı": 1131,
      "ÐºÐ°Ð¼Ð¸": 1132,
      "ĠB": 1133,
      "ĠÑĤÑĭ": 1134,
      "ÐºÐ»Ð°": 1135,
      "ÐºÐ°Ñħ": 1136,
      "Ð½Ð¾Ð¼Ñĥ": 1137,
      "ĠÐ½Ð°Ñģ": 1138,
      "Ð²ÐµÑģÑĤ": 1139,
      "ÑģÑĤÑĢÐµ": 1140,
      "Ð¨": 1141,
      "ent": 1142,
      "ĠÐ¼ÐµÐ¶Ð´Ñĥ": 1143,
      "ĠÐĿÐ¾": 1144,
      "Ð»Ð°Ð½": 1145,
      "ĠÐ²Ð·": 1146,
      "ÑıÑĤÑĮ": 1147,
      "ĠÐ½ÐµÑģÐº": 1148,
      "Ġ10": 1149,
      "Ð¿Ð¾": 1150,
      "ĠÑĢÐ°Ð¹": 1151,
      "Ð³Ðµ": 1152,
      "ĠÐ¼ÐµÐ½": 1153,
      "ĠÐ¾Ð½Ð°": 1154,
      "ĠÑĢÐ°Ð·Ð²Ð¸": 1155,
      "Ġ8": 1156,
      "ĠÐ´ÐµÐ»Ð°": 1157,
      "ÑĪÐ¸Ñħ": 1158,
      "ÑĤÐµÐ»ÐµÐ¹": 1159,
      "ĠÐ¿ÑĢÐ¾ÑĨÐµ": 1160,
      "ÑıÐ½": 1161,
      "ĠÐ²Ð¾Ð´": 1162,
      "||": 1163,
      "ĠÐŃÑĤÐ¾": 1164,
      "Ð½Ð¾ÑģÑĤÑĮÑİ": 1165,
      "ÑĪÐµÐ³Ð¾": 1166,
      "ÑīÐµÐ¹": 1167,
      "ĠÐĿÐµ": 1168,
      "ÑıÐ²": 1169,
      "ĠÐ¾Ð¿ÑĢÐµÐ´Ðµ": 1170,
      "ĠÐ¿Ð¾ÑģÐ»ÐµÐ´": 1171,
      "ĠÐ²Ð¾Ð¿ÑĢÐ¾Ñģ": 1172,
      "ĠÐºÐ¾Ð»": 1173,
      "ĠÑģÐ¿Ð¾ÑģÐ¾Ð±": 1174,
      "ĠÐ³ÑĢÐ°": 1175,
      "ĠÐ±Ð°": 1176,
      "Ð³Ð¾Ð´Ð°": 1177,
      "ÐµÐºÑĤ": 1178,
      "Ð»Ð¾Ð²Ð¸": 1179,
      "ĠÐĴÐ°": 1180,
      "Ð·Ð²Ð°": 1181,
      "ÐµÑĢÐµÐ·": 1182,
      "ĠÐ±ÑĥÐ´Ñĥ": 1183,
      "ÑĩÐµÑģÐºÐ¾Ð³Ð¾": 1184,
      "Ð¸Ð±": 1185,
      "ĠÐ¿ÑĢÐ¾Ð±": 1186,
      "Ð²Ð¾ÑĢ": 1187,
      "Ð¾Ð¶Ð´": 1188,
      "ĠÐ¼Ð¾Ð³ÑĥÑĤ": 1189,
      "Ð½ÐµÑģ": 1190,
      "Ð³Ð¾ÑĤÐ¾Ð²": 1191,
      "ÑĤÑĢÐ¸": 1192,
      "ĠÐ¼Ð°ÑĤÐµÑĢÐ¸": 1193,
      "ĠÐ¿Ð¾Ð¼Ð¾": 1194,
      "ĠÑģÐµÐ¼": 1195,
      "ÑģÑĤÐ¾Ð²": 1196,
      "Ð¿Ð¸ÑģÐ°": 1197,
      "Ð»Ð¸Ñı": 1198,
      "Ġw": 1199,
      "ĠÐºÐ¾": 1200,
      "ÑĪÐµÐ½Ð¸Ðµ": 1201,
      "ĠÐ¾ÑģÑĤÐ°": 1202,
      "ĠÐľÐ°": 1203,
      "ĠD": 1204,
      "Ð½Ð¸Ñİ": 1205,
      "ĠÐ¿Ð¾Ð»Ð¸": 1206,
      "ĠÐµÐµ": 1207,
      "il": 1208,
      "Ð°Ð½Ð´": 1209,
      "ĠÑĩÐ¸Ñģ": 1210,
      "ĠÑģÐ»ÐµÐ´": 1211,
      "ÐµÑĤÑĭ": 1212,
      "Ð¾Ð³Ð¾Ð²": 1213,
      "Ð²Ð°Ñı": 1214,
      "ÑĪÐµÐ½": 1215,
      "Ġb": 1216,
      "ĠÐ´Ñĥ": 1217,
      "ed": 1218,
      "ÑģÑĥ": 1219,
      "ĠÐ²Ð»Ð°": 1220,
      "Ġin": 1221,
      "Ð¸ÑĤÑģÑı": 1222,
      "ÑīÐµÐ³Ð¾": 1223,
      "ĠÐ¿Ð¾Ñĩ": 1224,
      "ĠÐ³Ð¾Ð»": 1225,
      "ĠÐ¦": 1226,
      "ĠÐ¸Ð½ÑĦÐ¾ÑĢÐ¼Ð°": 1227,
      "ĠÐ´Ð¾Ð±": 1228,
      "ĠÐµÑīÐµ": 1229,
      "Ð¾Ð²Ð°ÑĤÑĮ": 1230,
      "ĠÐ¸Ð½ÑĤÐµ": 1231,
      "ÑģÑĤÑĭ": 1232,
      "Ð²Ð°ÐµÑĤÑģÑı": 1233,
      "ĠÐ°Ð²ÑĤÐ¾Ð¼": 1234,
      "ĠÑĥÐ¿": 1235,
      "ĠÐ»ÑĥÑĩ": 1236,
      "Ð½ÐµÑĢ": 1237,
      "ĠÐºÐ»Ð°": 1238,
      "Ġ20": 1239,
      "and": 1240,
      "ÐºÐ¸Ð¼": 1241,
      "ĠÑĤÐ¸": 1242,
      "Ð¾Ð¼Ð¸": 1243,
      "Ð½Ð¸Ð¼": 1244,
      "Ð·Ð°ÑĨÐ¸Ð¸": 1245,
      "Ð±Ñĥ": 1246,
      "ĠÐ²Ð¸Ð´Ðµ": 1247,
      "Ð½ÑĮ": 1248,
      "Ð¾Ð³Ð»Ð°": 1249,
      "Ð¾Ð»Ð¸ÑĩÐµ": 1250,
      "ĠÑİ": 1251,
      "ol": 1252,
      "ĠÐ¿ÑĢÐ¾Ð´": 1253,
      "ÑıÑĤÐ¸": 1254,
      "ÑĨÑĥ": 1255,
      "ÑĩÐµÑģÐºÐ¸Ð¹": 1256,
      "ĠÑĢÑĭ": 1257,
      "Ð´ÐµÑĤ": 1258,
      "ĠÑĢÐ¾Ð´": 1259,
      "ĠR": 1260,
      "ĠÑĦÐ°": 1261,
      "Ð¸ÑĢ": 1262,
      "20": 1263,
      "ĠÐ¾Ð±Ðµ": 1264,
      "ĠÐ¾ÑĤÐºÑĢÑĭ": 1265,
      "ĠÑģÐ¾Ð¾Ð±": 1266,
      "ÑģÑĤÐµÐ¹": 1267,
      "ĠÑģÐ´ÐµÐ»Ð°": 1268,
      "Ð½ÑĥÑĤ": 1269,
      "Ġ9": 1270,
      "ĠÐ¸ÑģÑĤÐ¾ÑĢÐ¸": 1271,
      "Ð»ÐµÐºÑģ": 1272,
      "ÐµÑĤÐ¸": 1273,
      "ĠÐ³Ð¾ÑģÑĥÐ´Ð°ÑĢ": 1274,
      "ÑĤÐµÐ»Ð¸": 1275,
      "ĠÐ³ÑĢÑĥÐ¿": 1276,
      "Ð¼ÐµÐ½ÑĤÐ°": 1277,
      "ĠÐľÐ¾ÑģÐº": 1278,
      "ĠÐ¸ÑģÐº": 1279,
      "ÑıÐ²Ð¸": 1280,
      "ĠÐºÐ¾ÑĤ": 1281,
      "ĠÐ½ÑĥÐ¶Ð½Ð¾": 1282,
      "ĠÐ´Ð°Ð¶Ðµ": 1283,
      "ĠÐ¿ÑĢÐ¾Ð³ÑĢÐ°Ð¼": 1284,
      "Ð±ÑĢÐ°": 1285,
      "ĠÐ¾ÑģÐ¾Ð±": 1286,
      "ÑģÑĤÑĢÐ¾Ð¹": 1287,
      "ĠÐ´ÐµÐ¹ÑģÑĤÐ²Ð¸": 1288,
      "Ð½Ð¸ÐµÐ¼": 1289,
      "Ð½Ð°ÐºÐ¾": 1290,
      "Ð½ÐµÑĤ": 1291,
      "ĠÐ¾Ðº": 1292,
      "Ð»Ð¾Ð²Ð°": 1293,
      "ÑĢÐ¸Ð¸": 1294,
      "ÑĢÐ¾Ð½": 1295,
      "ĠÑĢÑĥÐ±": 1296,
      "ĠÐ²ÑģÐµÑħ": 1297,
      "ĠÑĨÐµÐ½ÑĤ": 1298,
      "ÑĥÐ±Ð»Ð¸": 1299,
      "ĠÐ¾Ð±Ð»Ð°ÑģÑĤÐ¸": 1300,
      "Ġ0": 1301,
      "ÑĩÐµÑĤ": 1302,
      "ĠÐ²Ð¾Ð¹": 1303,
      "Ð¥": 1304,
      "ÑĳÑĤ": 1305,
      "ĠÑģÐµÐ±Ñı": 1306,
      "ĠÐ²ÑģÐµÐ³Ð¾": 1307,
      "Ð²Ð¸Ð¶": 1308,
      "Ġl": 1309,
      "ĠÑĢÐ°Ð±Ð¾ÑĤÑĭ": 1310,
      "ÑıÐ¼": 1311,
      "ÑĢÐ¾Ð²Ð°ÑĤÑĮ": 1312,
      "Ð²Ð°ÑĢ": 1313,
      "ĠÐ´ÑĢÑĥÐ³": 1314,
      "ĠÐ¸ÑģÐ¿Ð¾Ð»ÑĮÐ·": 1315,
      "ÑİÑīÐ¸Ñħ": 1316,
      "ÑĳÐ¼": 1317,
      "ĠÑĢÐµÐ·ÑĥÐ»ÑĮÑĤÐ°": 1318,
      "Ð´Ð°Ð½": 1319,
      "ÑĮÐµ": 1320,
      "ĠL": 1321,
      "ĠÐ³Ð¾ÑĢÐ¾Ð´": 1322,
      "ĠÑĩÐµÑĢÐµÐ·": 1323,
      "ĠG": 1324,
      "ÑĤÐ¾Ð¼Ñĥ": 1325,
      "ÑīÐµÐ½Ð¸Ñı": 1326,
      "ĠÐ¼Ð¾Ð»": 1327,
      "ĠÐķÑģÐ»Ð¸": 1328,
      "Ð¾Ð¿Ð¾Ð»": 1329,
      "ĠW": 1330,
      "ĠF": 1331,
      "ĠÐ½ÐµÐ¼": 1332,
      "ĠÐ¿Ð¾Ðº": 1333,
      "ĠÐ¾ÑĤÐ²ÐµÑĤ": 1334,
      "ÑģÑĤÑĢÐ°Ð½": 1335,
      "ĠÑıÐ·Ñĭ": 1336,
      "Ġ199": 1337,
      "ÑīÐµÐ½": 1338,
      "ĠÑĤÐµÐ»Ðµ": 1339,
      "ÑīÐµÐµ": 1340,
      "Ð¸Ð´": 1341,
      "ÐµÐ»Ð¸": 1342,
      "ÑıÐ·Ð°": 1343,
      "Ð¾Ð´ÐµÑĢ": 1344,
      "ĠÑĢÐµÐ³Ð¸": 1345,
      "Ð¾ÑĢÑĤ": 1346,
      "ĠÐ¼Ð°ÑĢ": 1347,
      "18": 1348,
      "ĠÐ³Ð¾Ð²": 1349,
      "Ð¼ÐµÑĩÐ°": 1350,
      "im": 1351,
      "ĠÑģÐ¾ÑģÑĤÐ¾Ñı": 1352,
      "ÐµÐ»": 1353,
      "Ð´ÐµÐ½": 1354,
      "ÑĥÐ½Ðº": 1355,
      "ĠÑĤÑĢÐ°": 1356,
      "ĠÐºÐ»Ð¸": 1357,
      "ÑįÑĤÐ¾Ð¼Ñĥ": 1358,
      "ĠÐ¿ÑĢÐ°Ð²": 1359,
      "Ð²Ð°Ð½Ð¸Ñı": 1360,
      "ĠÐ¸Ð½ÑĤÐµÑĢ": 1361,
      "un": 1362,
      "ot": 1363,
      "ÑĢÐ¾Ð±": 1364,
      "ĠÐ¢Ð°Ðº": 1365,
      "ĠÐºÐ¾Ð»Ð¸ÑĩÐµ": 1366,
      "ÑĨÐµÐ²": 1367,
      "ĠÑĥÑģÑĤÐ°Ð½Ð¾Ð²": 1368,
      "ĠÐ¿ÑĢÐ¾Ð´Ñĥ": 1369,
      "ÑĨÐµÐ½": 1370,
      "Ġn": 1371,
      "ĠÐ¼Ð½Ð¾Ð³Ð¾": 1372,
      "Ð¾Ð³ÑĢÐ°ÑĦÐ¸": 1373,
      "ĠÑĤÑĢÐµ": 1374,
      "ÑĩÐ¸Ð½Ð°": 1375,
      "ĠÑĩÐµÐ»Ð¾Ð²Ðµ": 1376,
      "ÐºÐ°Ð·": 1377,
      "ĠÑįÐ»ÐµÐºÑĤ": 1378,
      "ĠÐ½ÐµÑĤ": 1379,
      "ĠÐĿÐ¸": 1380,
      "ĠÐ¾Ð´Ð¸Ð½": 1381,
      "ĠÑĤÑĢÐµÐ±": 1382,
      "ĠÐ½Ð¸Ñħ": 1383,
      "ĠÐ±Ð¾Ð»ÑĮÑĪÐµ": 1384,
      "ĠÑĢÐ°ÑģÑģ": 1385,
      "ÑģÑģÐ°": 1386,
      "Ġ15": 1387,
      "Ð¾Ð¶Ð¸": 1388,
      "ĠÑĦÐ¸Ð»ÑĮ": 1389,
      "ÑħÐ¾Ð²": 1390,
      "Ð³Ð¾ÑĢ": 1391,
      "ĠÑģÐ¾Ð¾ÑĤÐ²ÐµÑĤ": 1392,
      "Ð´ÐµÐ»ÑĮ": 1393,
      "Ð´ÐµÐ¹": 1394,
      "Ð²Ð°ÑİÑĤ": 1395,
      "Ð¿ÑĢÐ¸Ð¼ÐµÑĢ": 1396,
      "ĠÑħÐ¾ÑĢÐ¾": 1397,
      "Ð¸Ñĩ": 1398,
      "ĠÐ³Ð»Ð°": 1399,
      "ĠÑĩÐµÐ»Ð¾Ð²ÐµÐº": 1400,
      "Ð¹Ð½": 1401,
      "ÑĥÑİÑĤ": 1402,
      "Ð¿Ñĭ": 1403,
      "ĠE": 1404,
      "us": 1405,
      "Ð²ÑĢÐ°": 1406,
      "ĠÐ½ÐµÑģÐºÐ¾Ð»ÑĮÐºÐ¾": 1407,
      "ĠÐĸ": 1408,
      "ch": 1409,
      "ĠÑĥÑģÐ»Ð¾Ð²Ð¸": 1410,
      "ĠÐ¿Ð¾Ð·Ð²Ð¾Ð»": 1411,
      "ĠÐ½ÐµÐ¾Ð±ÑħÐ¾Ð´Ð¸Ð¼Ð¾": 1412,
      "ĠÐ¶ÐµÐ½": 1413,
      "ĠÐ²ÑĭÑģÐ¾Ðº": 1414,
      "Ð¾ÑĢÐ°Ñı": 1415,
      "ÐºÐ¸Ð¹": 1416,
      "ĠÐ²Ð°Ð¼": 1417,
      "ĠÐ¿ÑĢÐ¾ÑģÑĤÐ¾": 1418,
      "ĠÐ³Ð°": 1419,
      "ĠÐ¿ÑĢÐ¾Ð±Ð»ÐµÐ¼": 1420,
      "Ð²Ð¸ÑģÐ¸": 1421,
      "Ð»Ð¸Ð·": 1422,
      "Ġâ": 1423,
      "ĠÐ°Ð´": 1424,
      "ĠÑĨÐ²ÐµÑĤ": 1425,
      "ĠX": 1426,
      "ÑģÑĤÐµÑĢ": 1427,
      "ĠÐ´Ð²Ñĥ": 1428,
      "ur": 1429,
      "Ð½Ð´": 1430,
      "ĠÐ½Ð°Ð¿": 1431,
      "ĠH": 1432,
      "Ð°Ð²": 1433,
      "ÑģÐºÑĥÑİ": 1434,
      "Ð¾Ð²Ð°Ð½": 1435,
      "ÑĥÐ¼": 1436,
      "ĠÐ¼ÐµÐ½Ñı": 1437,
      "Ð¯": 1438,
      "ĠÑĥÐ´Ð°": 1439,
      "ÑİÑīÐ¸Ðµ": 1440,
      "ÐºÐ»ÑİÑĩÐ°": 1441,
      "Ð´ÑĮ": 1442,
      "ĠÐºÐ¾ÑĤÐ¾ÑĢÐ°Ñı": 1443,
      "ÑģÑĤÐ¾Ñĩ": 1444,
      "ĠÑĢÐ¸": 1445,
      "ĠÐľÐ¸": 1446,
      "ÑıÐ±ÑĢÑı": 1447,
      "ÐµÐ½ÑĤÐ¾Ð²": 1448,
      "ĠÐ²ÑĭÐ¿Ð¾Ð»": 1449,
      "...": 1450,
      "Ð»Ð°ÑĤ": 1451,
      "ÐºÑĤÐ¾ÑĢ": 1452,
      "ĠÑģÑĤÑĢÐ¾": 1453,
      "ĠÑįÑĤÐ¾Ð¹": 1454,
      "ÑģÑĤÐ²Ð¾Ð¼": 1455,
      "ÐµÐ´Ð¸": 1456,
      "Ð¶ÐµÐ½": 1457,
      "ÑīÐ°Ñı": 1458,
      "ĠN": 1459,
      "ĠÐ¶Ð¸Ð·Ð½Ð¸": 1460,
      "Ġ+": 1461,
      "ĠÐ¿Ð»Ð¾": 1462,
      "ĠÑĤÑĥ": 1463,
      "ÑĤÐ°Ð½": 1464,
      "ĠÐ®": 1465,
      "Ð¼ÐµÐ½Ð¸": 1466,
      "ĠÐ½ÐµÐº": 1467,
      "Ð¾ÑģÐ»Ðµ": 1468,
      "Ð»ÐºÐ¸": 1469,
      "Ð»ÑıÑĢ": 1470,
      "ĠÐ½Ð°Ð´": 1471,
      "ÐŁÐ¾": 1472,
      "ÑĦÐ°": 1473,
      "ĠÑĤÐ¾ÑĢ": 1474,
      "ĠÐ³Ð»Ð°Ð²": 1475,
      "ĠÐ·Ð°Ð´Ð°": 1476,
      "ĠÑĥÐ³": 1477,
      "ÐºÑĤÑĥ": 1478,
      "ĠÐ²Ð¾Ð»": 1479,
      "Ð¾Ð´Ð¸": 1480,
      "ĠÐ·Ð°ÐºÐ¾Ð½": 1481,
      "ĠÑģÑĤÐ¸": 1482,
      "ÑĪÐ¸Ðµ": 1483,
      "ĠÑĥÑĢÐ¾Ð²": 1484,
      "Ð¾ÑģÑģÐ¸Ð¹": 1485,
      "ĠÐ½Ð°Ð·Ð²Ð°": 1486,
      "ĠÐºÐ¾ÑĤÐ¾ÑĢÑĭÑħ": 1487,
      "Ġof": 1488,
      "ÑĢÐ¸ÑĤÐ¾ÑĢÐ¸": 1489,
      "ÑĢÑıÐ´": 1490,
      "Ð½Ð¸Ñħ": 1491,
      "ĠÐ¿Ð¾Ð¼Ð¾Ñī": 1492,
      "ÑĨÐ¸Ð¾Ð½Ð°Ð»ÑĮ": 1493,
      "ĠÐ¸Ð·Ð²ÐµÑģÑĤ": 1494,
      "10": 1495,
      "ĠÑģÑĩÐ¸ÑĤÐ°": 1496,
      "Ð¹ÑĤÐ¸": 1497,
      "Ð¾Ð²Ð°Ð½Ð¸Ðµ": 1498,
      "ĠÑģÐ²Ð¾Ðµ": 1499,
      "ĠÐ³Ð¾ÑĢÐ¾Ð´Ð°": 1500,
      "ct": 1501,
      "ĠÑĪÐ¸": 1502,
      "ĠÐ±Ð»Ð°": 1503,
      "ĠÐĺÐ½": 1504,
      "Ð¾ÑģÑĤÐ¸": 1505,
      "ĠÑįÑĤÐ¾ÑĤ": 1506,
      "ĠÐ±ÐµÑģÐ¿": 1507,
      "ÐºÐ¾Ðµ": 1508,
      "Ð²Ð»Ðµ": 1509,
      "ĠÐĶÐ°": 1510,
      "ÑĢÐ°ÑĤ": 1511,
      "ĠÑģÐ²Ð¾Ð¹": 1512,
      "Ð¾ÑĤÐ¸": 1513,
      "ÑıÑĤÐµÐ»ÑĮ": 1514,
      "Ġd": 1515,
      "Ð¾ÑĤÐµ": 1516,
      "ÑĦÑĦ": 1517,
      "ÑĢÐ¸Ð°Ð½": 1518,
      "ĠÑĢÑĥÑģ": 1519,
      "ĠÐļÐ°Ðº": 1520,
      "ĠÑĥÑĩÐ°ÑģÑĤ": 1521,
      "Ð²Ð¾Ð¹": 1522,
      "Ð¼ÐµÑĢÐ¸": 1523,
      "ĠÑĢÐ°Ð·Ð»Ð¸Ñĩ": 1524,
      "ĠÐ¿ÐµÑĢÐ¸": 1525,
      "ÑıÑģ": 1526,
      "ÑĪÐºÐ¸": 1527,
      "ÑĢÐ°Ð±Ð¾ÑĤ": 1528,
      "ÐºÐ¾Ð½Ð¾Ð¼Ð¸": 1529,
      "ÐµÐ»ÑĮ": 1530,
      "ÑĳÑĢ": 1531,
      "ÑĢÐµÐ¹": 1532,
      "Ð´ÐµÑģÑĮ": 1533,
      "Ġ/": 1534,
      "Ð¼ÐµÐ½Ð½Ð¾": 1535,
      "ĠÑĩÑĥ": 1536,
      "ĠÐĶÐ»Ñı": 1537,
      "Ð°ÑĢÐ°Ðº": 1538,
      "ĠÐ¿ÑĢÐ¾ÑĤÐ¸Ð²": 1539,
      "est": 1540,
      "Ġe": 1541,
      "ĠÑĤÐ¾Ð²Ð°": 1542,
      "Ð½Ð¸ÑĤÐµÐ»ÑĮ": 1543,
      "ĠÐ¿ÑĢÐ¸Ð¼ÐµÐ½": 1544,
      "um": 1545,
      "ĠÐ¢Ð°": 1546,
      "qu": 1547,
      "ĠÐµÑĳ": 1548,
      "ÐºÐ°Ñı": 1549,
      "ĠÐ´ÑĢÑĥÐ³Ð¸Ñħ": 1550,
      "ÑĨÐ¸Ð°Ð»Ð¸": 1551,
      "ĠÑĥÑĩ": 1552,
      "ÑĢÑĥÐ³": 1553,
      "ĠÑģÐ»ÑĥÑĩÐ°Ðµ": 1554,
      "Ġ12": 1555,
      "ra": 1556,
      "ÑģÐ½Ð¾": 1557,
      "ÑĥÐ°": 1558,
      "ĠÐ¿Ð¾Ð´Ð´ÐµÑĢ": 1559,
      "Ð°ÑĤÐ¸": 1560,
      "ĠÐ±Ð¾Ð»ÑĮÑĪ": 1561,
      "ÐµÐºÑĤÐ¸Ð²": 1562,
      "ĠÐºÐ¾Ð¼Ð¿Ð°Ð½Ð¸Ð¸": 1563,
      "ĠÐ´Ð¾ÑĢ": 1564,
      "ÑģÐºÐ¸Ð¼": 1565,
      "ÑģÑĤÐ²ÐµÐ½Ð½Ð¾": 1566,
      "Ð½ÐµÐ³Ð¾": 1567,
      "ĠÐ½ÐµÐ¿": 1568,
      "ĠÐ²ÑĤÐ¾ÑĢ": 1569,
      "ÑĤÐµÐ¼": 1570,
      "ĠÐ±Ð°Ð½": 1571,
      "ĠÐ¾Ð±ÐµÑģÐ¿Ðµ": 1572,
      "Ð»Ð¸Ð½": 1573,
      "ĠV": 1574,
      "Ð¾ÑĢÐµ": 1575,
      "ĠÑģÐ¾ÑĤ": 1576,
      "ĠÐłÐµ": 1577,
      "ÐĹÐ°": 1578,
      "ĠÐŀÐ½": 1579,
      "Ð½ÐµÐ½Ð¸Ñı": 1580,
      "ĠÐ¼Ð¸Ð½": 1581,
      "Ìģ": 1582,
      "Ð²Ð°Ð»Ð¸": 1583,
      "Ġ,": 1584,
      "ĠÐ¿ÑĢÐ¸Ð½Ñı": 1585,
      "ÑĤÑĥÑĢ": 1586,
      "ÐºÑĢÐµ": 1587,
      "Ð³Ð´Ð°": 1588,
      "ÐµÑĢÐ°": 1589,
      "Ġh": 1590,
      "ÐµÐºÑĤÐ°": 1591,
      "ÑıÐ¼Ð¸": 1592,
      "Ð¶Ð´Ð°": 1593,
      "ÑĩÑĮ": 1594,
      "Ð»ÑĮÐ½ÑĭÐ¹": 1595,
      "ÑģÐ»Ñĥ": 1596,
      "ĠÐŀÐ´": 1597,
      "ĠÐ½ÐµÐºÐ¾ÑĤÐ¾ÑĢ": 1598,
      "ĠÐ¿ÐµÑĢÐµÐ´": 1599,
      "ĠÑĤÐµÑĢÑĢÐ¸ÑĤÐ¾ÑĢÐ¸": 1600,
      "ĠÑģÑĭ": 1601,
      "ĠÐ´Ð²Ð°": 1602,
      "Ð³Ð¾Ð´Ð½Ñı": 1603,
      "ig": 1604,
      "Ð¾Ð½Ð¾Ð²": 1605,
      "ĠÐ·Ð°ÑīÐ¸": 1606,
      "ĠÐ²Ð°Ð¶": 1607,
      "ÑĤÑĢ": 1608,
      "ĠÐ¶Ð¸Ð²": 1609,
      "ĠÑģÐ¼": 1610,
      "ĠÐ¿Ð¾Ð±": 1611,
      "ĠÐ°Ð½Ð°": 1612,
      "ĠÐ¿Ð¾Ð½": 1613,
      "Ð²Ð½Ð¾": 1614,
      "ĠÑĦÐ¾ÑĤ": 1615,
      "Ð³Ð°Ð½": 1616,
      "ĠÐ´Ð¾Ð¼Ð°": 1617,
      "Ð½Ð¸ÑĤÑĮ": 1618,
      "ĠÐºÐ½Ð¸": 1619,
      "ĠÐºÐ¸": 1620,
      "ĠÑĨÐ¸": 1621,
      "ÑīÐµÐ½Ð¸Ðµ": 1622,
      "ĠÐ¿ÑĢÐ¾Ð´Ð°": 1623,
      "ĠÐ´Ð¾ÐºÑĥ": 1624,
      "201": 1625,
      "ĠÑģÑĤÐ°ÑĤÑĮ": 1626,
      "\",": 1627,
      "ĠÑĤÑĢÑĥ": 1628,
      "ĠÐŀÑĤ": 1629,
      "ĠÐ²Ð½Ðµ": 1630,
      "ĠÐ¸Ñİ": 1631,
      "ÑĢÐ¸Ñı": 1632,
      "Ð»Ð¾Ðº": 1633,
      "ÑħÑĢÐ°": 1634,
      "Ġ17": 1635,
      "Ð²Ð¾Ð·": 1636,
      "ĠÑĦÑĥÐ½Ðº": 1637,
      "ÑģÑĤÐ°Ð²Ð»ÑıÐµÑĤ": 1638,
      "ĠÑĤÑĢÐ°Ð½": 1639,
      "ĠÑģÐ¾Ð´ÐµÑĢ": 1640,
      "ÑĥÐµÑĤÑģÑı": 1641,
      "ĠÐ¾Ð±Ñĭ": 1642,
      "ĠÐ¼ÐµÑģÑĤ": 1643,
      "ÑĪÐ°Ñı": 1644,
      "ĠÐ²ÑĢÐµÐ¼ÐµÐ½Ð¸": 1645,
      "ĠÐ²Ð¼Ðµ": 1646,
      "ĠÐ·Ð½Ð°ÑĩÐ¸": 1647,
      "000": 1648,
      "ĠÐ¾Ð±ÑīÐµ": 1649,
      "ĠÐ±Ð¸Ð·": 1650,
      "ĠÐ´ÐµÑıÑĤÐµÐ»ÑĮ": 1651,
      "ĠÐ¿ÑĢÐµÐ´Ð¿ÑĢÐ¸": 1652,
      "ĠÐ¸Ð¼ÐµÐµÑĤ": 1653,
      "ĠÑĢÐ°ÑģÐ¿Ð¾Ð»": 1654,
      "os": 1655,
      "ĠÐ»ÐµÐ³": 1656,
      "ÑĪÐ¸Ð½": 1657,
      "ĠÑĩÐ°ÑģÑĤÑĮ": 1658,
      "ĠÑĩÐ°ÑģÑĤÐ¸": 1659,
      "Ð¾ÑĢÐ¾Ð½": 1660,
      "ĠÐŀÐ±": 1661,
      "ÑĤÐµÑĢÐ°": 1662,
      "ÑģÑĤÐ¾Ð¹": 1663,
      "ĠÑħÐ°ÑĢÐ°Ðº": 1664,
      "ut": 1665,
      "ÑģÑģÐ»ÐµÐ´": 1666,
      "ĠÐ¾Ð±ÑıÐ·Ð°": 1667,
      "ÐµÐ´Ðµ": 1668,
      "ĠÑĥÐ½Ð¸": 1669,
      "ÑģÑĤÐ°Ð½": 1670,
      "ÑģÑĤÐ°Ð²Ð»ÐµÐ½": 1671,
      "ÑĤÐ²ÐµÑĢ": 1672,
      "Ð»Ð°Ð³Ð°": 1673,
      "ĠÐ¾ÑĦÐ¸": 1674,
      "ĠÑĤÑĢÐ¸": 1675,
      "ĠÐ¼Ð¾Ð¼": 1676,
      "ĠÐ²ÑģÑĤÑĢÐµ": 1677,
      "Ð²ÐµÑģÑĤÐ¸": 1678,
      "Ð²ÑĭÐµ": 1679,
      "Ð¼Ð°Ð½": 1680,
      "ĠÑģÐ»Ðµ": 1681,
      "ĠĠĠĠĠĠĠ": 1682,
      "ow": 1683,
      "ĠÑģÐ²Ð¾ÐµÐ¹": 1684,
      "ĠÑģÐ¿Ð¸": 1685,
      "Ð¾Ð²Ð°Ñı": 1686,
      "Ð²ÑĢÐ¾Ð¿": 1687,
      "Ð²Ð°ÐµÐ¼": 1688,
      "ĠÐ¿ÑĢÐ¾Ð¸Ñģ": 1689,
      "II": 1690,
      "Ð»Ð¸Ð¹": 1691,
      "ÑĪÐ¸Ð¼": 1692,
      "ÑĪÐ¸Ð¹": 1693,
      "ÑĩÐºÐ¸": 1694,
      "ĠÑģÐ»Ð¾Ð¶": 1695,
      "ĠÐºÑĤÐ¾": 1696,
      "ÑĩÐ½Ð¾Ð¹": 1697,
      "ĠÐ½Ð°ÑĪ": 1698,
      "ĠÑģÐ¾Ð±ÑģÑĤÐ²ÐµÐ½": 1699,
      "ÑĢÐ¾Ð¼Ðµ": 1700,
      "ĠÐ¿ÑĢÐ°ÐºÑĤÐ¸": 1701,
      "Ð¨ÐĲ": 1702,
      "ĠÐ¿Ð¾Ð·Ð²Ð¾Ð»Ñı": 1703,
      "ÑģÑĤÐ²Ñĥ": 1704,
      "ĠÐ¼Ð¾Ð´Ðµ": 1705,
      "ĠÑģÐ»Ð¾Ð²Ð°": 1706,
      "ÑİÑīÐ¸Ð¹": 1707,
      "Ð½ÐµÐ¼": 1708,
      "ĠÐ¿Ð¾Ð´Ð°": 1709,
      "ĠÑįÑĤÐ°": 1710,
      "ÑģÑĥÑĤ": 1711,
      "ĠÑĪÐ°": 1712,
      "âĢ¦": 1713,
      "Ð´Ð¾Ð±": 1714,
      "ÐºÑģÐ¸": 1715,
      "ÑĥÑīÐµÑģÑĤÐ²": 1716,
      "ÑĩÐ°Ñģ": 1717,
      "ĠÐ¸Ð³ÑĢÐ°": 1718,
      "ĠÐ¿ÑĢÐµÐ´Ð»Ð¾Ð¶": 1719,
      "ĠÐ²Ð°Ñģ": 1720,
      "ÑĩÐµÑģÐºÐ°Ñı": 1721,
      "ĠÐ½Ð°ÑħÐ¾Ð´": 1722,
      "ÐµÑĢÐ±": 1723,
      "Ð¸Ð·Ð¸": 1724,
      "ÐºÐ¾Ð²Ð¾Ð´": 1725,
      "ÑĢÐµÐ²": 1726,
      "ĠÐ¾Ð¿ÐµÑĢÐ°": 1727,
      "ĠÐĲÐ»ÐµÐºÑģ": 1728,
      "ĠÑģÐºÐ°Ð·Ð°": 1729,
      "ÑĢÐ¸Ð¹": 1730,
      "ĠÐ¿Ð¾Ð»ÑĥÑĩÐ°": 1731,
      "ĠÐ·Ð°Ð½Ð¸Ð¼Ð°": 1732,
      "ĠÑģÑĤÐ°Ð½": 1733,
      "ĠÐ½Ð°Ð·ÑĭÐ²Ð°": 1734,
      "ÑīÐ¸Ñħ": 1735,
      "ĠÑģÐ¾Ð³Ð»Ð°": 1736,
      "ĠÐ·ÐµÐ¼": 1737,
      "Ð¿Ð»Ð°": 1738,
      "ĠÐ¼Ð½Ð¾Ð³Ð¸": 1739,
      "ĠÐ²Ð½Ð¸Ð¼Ð°": 1740,
      "ad": 1741,
      "ĠÐºÑĢÐ¸": 1742,
      "Ġand": 1743,
      "ĠÑĢÐ°ÑģÑģÐºÐ°": 1744,
      "ÑıÑĤÑģÑı": 1745,
      "ÑıÐ´": 1746,
      "ÑĢÐ¾Ð²Ð°Ð½Ð¸Ñı": 1747,
      "Ġ16": 1748,
      "Ð¿Ð¸ÑĤÑĮ": 1749,
      "ĠÑĢÐ¾ÑģÑģÐ¸Ð¹": 1750,
      "Ġto": 1751,
      "ĠÐ£ÐºÑĢÐ°": 1752,
      "Ġde": 1753,
      "\".": 1754,
      "ĠÑģÐµÐº": 1755,
      "ÑĢÑĥÐ·": 1756,
      "Ð¼Ð¸Ð½Ð¸": 1757,
      "ĠÑģÐ¾Ð²ÐµÑĤ": 1758,
      "ĠÑįÐºÑģÐ¿": 1759,
      "ĠÐ±ÑĥÐ´ÑĥÑĤ": 1760,
      "ÐµÑĨ": 1761,
      "ÑĢÑĮ": 1762,
      "ĠÐ²Ð°ÑĢÐ¸Ð°Ð½": 1763,
      "ĠÐ°Ð½": 1764,
      "ĠÑģÐ²Ð¾Ñİ": 1765,
      "12": 1766,
      "Ð´Ð¶": 1767,
      "id": 1768,
      "ÑģÑĤÑĥÐ¿Ð°": 1769,
      "ĠÐ¸Ð·Ð¼ÐµÐ½": 1770,
      "ĠÐ»Ð°": 1771,
      "ÑĤÐ¸Ð½": 1772,
      "ĠÐĶÐ¶": 1773,
      "ĠÐĺÐ·": 1774,
      "ĠÐ¼Ð½Ðµ": 1775,
      "ÐºÐ°Ð·ÑĭÐ²Ð°": 1776,
      "ĠÑģÐ¾Ð²ÑĢÐµÐ¼ÐµÐ½": 1777,
      "ĠÐ·Ð°Ð±": 1778,
      "ÑĨÐ¸ÐµÐ¹": 1779,
      "ÑĭÐ¼Ð¸": 1780,
      "ĠÑĥÑģÐ»Ñĥ": 1781,
      "ĠÐłÐ°": 1782,
      "Ð¡Ð¡": 1783,
      "ÑĤÐµÐ½": 1784,
      "Ð¦": 1785,
      "ĠÑģÑĥÑīÐµÑģÑĤÐ²": 1786,
      "Ġ**": 1787,
      "ÐµÐ¹ÑĩÐ°Ñģ": 1788,
      "Ð»ÑĮÐ½ÑĭÐµ": 1789,
      "ÑĤÐ°Ð¼Ð¸": 1790,
      "ĠÑģÐ²ÐµÑĤ": 1791,
      "ĠÐ¿ÑĢÐ¾ÑĦÐµ": 1792,
      "ĠÐ¿Ð¾ÐºÑĥ": 1793,
      "ÑģÑĤÐ°ÑĤÐ¾": 1794,
      "Ð³Ð»Ð°": 1795,
      "ĠÐ¸Ð½ÑĤÐµÑĢÐµÑģ": 1796,
      "ĠÐ¡Ð¨ÐĲ": 1797,
      "Ð½Ð¾Ð»Ð¾Ð³Ð¸": 1798,
      "Ð»ÐµÐ½Ð¸Ð¸": 1799,
      "ĠÐ²Ð½ÑĥÑĤ": 1800,
      "ĠÐ¼ÑĥÐ¶": 1801,
      "ĠÐ²ÑģÐµÐ³Ð´Ð°": 1802,
      "ÐµÐ¼Ð¸": 1803,
      "Ð»Ð¾ÑĤ": 1804,
      "ÐµÑĢÑĭ": 1805,
      "ĠÐ¿ÑĢÐ¾Ð´Ð¾Ð»": 1806,
      "ĠÑħÐ¾ÑĤ": 1807,
      "ĠÐĴÑģÐµ": 1808,
      "ÐµÐ½Ð½ÑĭÑħ": 1809,
      "--": 1810,
      "ÑĩÐ½ÑĭÐ¹": 1811,
      "Ġ198": 1812,
      "ĠÑĩÐ°ÑģÑĤ": 1813,
      "Ð·Ð°Ð½": 1814,
      "ĠÐ¼ÐµÑģÑı": 1815,
      "ĠÐ¿ÑĢÐµÐ´ÑģÑĤÐ°Ð²Ð¸": 1816,
      "ÐļÐ°Ðº": 1817,
      "ĠÐ¿Ð¾Ð»ÑĮÐ·Ð¾Ð²Ð°": 1818,
      "Ð±Ð¸ÑĢÐ°": 1819,
      "ĠÑĥÑģÐ¿Ðµ": 1820,
      "ÑĭÑĤÐ°": 1821,
      "ÐºÑĨÐ¸Ð¸": 1822,
      "50": 1823,
      "ĠÐ¼ÐµÑģÑĤÐ¾": 1824,
      "ĠÐ¿Ð¾Ð»Ð¸ÑĤÐ¸": 1825,
      "ĠÐĲÑĢ": 1826,
      "ĠÐºÑĥÑĢ": 1827,
      "ÑĤÐ¸Ðµ": 1828,
      "ĠÐµÐ¼Ñĥ": 1829,
      "Ð½Ð¸ÑĨÐ°": 1830,
      "ĠÐ³Ð¾ÑĤÐ¾Ð²": 1831,
      "Ð¾Ð±ÑĢÐ°Ð·": 1832,
      "ĠÑģÐ¾Ð²ÐµÑĢ": 1833,
      "ĠÐĿÐ¾Ð²": 1834,
      "ĠÐ´Ð²ÑĥÑħ": 1835,
      "ĠÐºÐ¾ÑĤÐ¾ÑĢÐ¾Ð¹": 1836,
      "ĠÑįÐºÐ¾Ð½Ð¾Ð¼Ð¸": 1837,
      "ĠÑĩÐ¸": 1838,
      "Ð±Ð¾Ð»ÑĮ": 1839,
      "Ð´Ð¾ÑĢÐ¾Ð²": 1840,
      "ĠÑģÐ¿ÐµÑĨÐ¸Ð°Ð»ÑĮ": 1841,
      "ĠÐ¿ÑĢÐµÐ´Ð¾": 1842,
      "ĠÐ°Ð²ÑĤÐ¾Ð¼Ð¾Ð±": 1843,
      "ÑģÐ¸ÑĤ": 1844,
      "Ð²Ñı": 1845,
      "ÑĤÑĥÑĢÐ°": 1846,
      "Ð²Ð¸Ð´": 1847,
      "Ð¿ÐµÑĢÑĮ": 1848,
      "ÑĩÐ½ÑĭÑħ": 1849,
      "ĠÐ¿ÑĢÐ¾Ñģ": 1850,
      "ĠÐ¾Ð³": 1851,
      "Ð½Ð°ÑĩÐ°": 1852,
      "ĠÐ²ÑĢÐ°": 1853,
      "ĠÐ³Ð¾Ð²Ð¾ÑĢ": 1854,
      "ĠÐ¿Ð¾ÐºÐ°Ð·Ð°": 1855,
      "Ð»Ð°Ð¹Ð½": 1856,
      "iv": 1857,
      "ÐºÐ¾Ð³Ð¾": 1858,
      "ĠÐºÑĢÑĥÐ¿": 1859,
      "ĠÑĢÐµÐ±": 1860,
      "ĠÑģÐµÐ±Ðµ": 1861,
      "Ð¾Ð±ÑĢÐ°": 1862,
      "ÑģÑĤÐ²ÐµÐ½Ð½Ð¾Ð¹": 1863,
      "ĠÐ¾Ð±ÑĢÐ°Ð·Ð¾Ð¼": 1864,
      "ru": 1865,
      "Ð°Ð»Ð°": 1866,
      "ĠÐ´ÐµÑĢÐµ": 1867,
      "ÑīÐ¸Ð¹": 1868,
      "ĠÐ»ÑİÐ´ÐµÐ¹": 1869,
      "ĠÑĩÐµÐ»Ð¾Ð²ÐµÐºÐ°": 1870,
      "ĠÑģÑĥÐ´": 1871,
      "Ħĸ": 1872,
      "ĠÐºÑĥÐ»ÑĮ": 1873,
      "Ð»Ð°Ð´Ð¸": 1874,
      "ĠÑģÐ¾ÑĤÑĢÑĥÐ´": 1875,
      "ĠÐ½Ð°Ð¿ÑĢÐ°Ð²": 1876,
      "ĠÑĥÐ¿ÑĢÐ°Ð²": 1877,
      "ĠÐºÑĢÐµ": 1878,
      "Ð²Ð°Ð½Ð¸Ðµ": 1879,
      "ĠÐ½ÐµÐ³Ð¾": 1880,
      "ĠÐ¿Ð¾Ð»Ð¾Ð¶": 1881,
      "ĠÐ¶ÐµÐ½ÑīÐ¸": 1882,
      "ĠÐ°ÐºÑĤÐ¸Ð²": 1883,
      "ĠÐ´Ð¾Ð¿Ð¾Ð»": 1884,
      "ÐµÑĢÑĤ": 1885,
      "Ð¼Ð¾ÑĤÑĢÐµ": 1886,
      "ag": 1887,
      "ÑĩÑĥ": 1888,
      "ĠÐ±ÑĢÐ°": 1889,
      "ÑĩÐ½ÑĭÐµ": 1890,
      ".,": 1891,
      "ÑĳÐ»": 1892,
      "Ð±Ð¾ÑĤÐ°": 1893,
      "ĠÐ½Ð°ÑģÑĤÐ¾Ñı": 1894,
      "ĠÐ´Ð¾Ð²": 1895,
      "Ðĸ": 1896,
      "ÑĩÐµÑĢ": 1897,
      "ÑĢÐ°Ð²Ð»Ñı": 1898,
      "ĠÐ¸ÑģÑģÐ»ÐµÐ´": 1899,
      "Ð¾Ð¼Ð¸Ð½Ð°": 1900,
      "ÑĦÐ¸ÐºÐ°": 1901,
      "ÑģÑĤÐ²ÑĥÐµÑĤ": 1902,
      "ĠÐ¡Ðµ": 1903,
      "ÐºÐ°Ð¼": 1904,
      "ĠÐ¼Ð¾Ð¶ÐµÑĤÐµ": 1905,
      "Ð³Ð»Ñı": 1906,
      "Ġre": 1907,
      "ĠÑģÑĥÐ¼": 1908,
      "ĠÐĴÐ¾": 1909,
      "ÑĤÐ¸ÑĤÑĮ": 1910,
      "ĠÑĢÐ°Ð·Ð¼Ðµ": 1911,
      "Ð¾ÑĢÐ¾Ð½Ñĭ": 1912,
      "ÐµÐ½Ð½ÑĭÐµ": 1913,
      "ÑĤÑĥÑĢÑĭ": 1914,
      "Ð¾Ð¶Ð°": 1915,
      "Ð»ÑĥÐ±": 1916,
      "ĠÐ¾ÑģÐ½Ð¾Ð²Ð°": 1917,
      "ĠÐ¿ÑĢÐ¾ÑĨÐµÑģÑģ": 1918,
      "ĠÐ´ÑĢÑĥÐ³Ð¸Ðµ": 1919,
      "ĠÑĥÑĩÐ¸": 1920,
      "ĠÐ¿ÑĢÐ¾Ð²Ð¾Ð´": 1921,
      "Ð°Ð³Ð°": 1922,
      "ÑģÑĤÑĢÐ¸": 1923,
      "ĠÐ½Ð°ÑģÐµ": 1924,
      "ĠÑģÐ¸ÑģÑĤÐµÐ¼Ñĭ": 1925,
      "Ð½Ñİ": 1926,
      "ul": 1927,
      "ĠÐŁÐµÑĢ": 1928,
      "ÐºÐ¾Ð»Ð¾": 1929,
      "ĠÐ¡Ð¾": 1930,
      "ÑħÐ¾Ð´Ð¸ÑĤÑģÑı": 1931,
      "ĠÑģÐ¿ÐµÑĨÐ¸Ð°Ð»Ð¸": 1932,
      "ĠÑĢÑĥÐºÐ¾Ð²Ð¾Ð´": 1933,
      "ĠÑĢÑĭÐ½": 1934,
      "ĠÐºÐ¾Ð»Ð¸ÑĩÐµÑģÑĤÐ²Ð¾": 1935,
      "ĠÐļÐ¾Ð½": 1936,
      "ĠÑĦÐ¸Ð½Ð°": 1937,
      "ÐµÑĤÑĮ": 1938,
      "ĠÐ¾ÑĢÐ³Ð°Ð½Ð¸Ð·": 1939,
      "Ð²Ð¾Ðµ": 1940,
      "Ð¾Ð¿Ð°Ñģ": 1941,
      "ĠÐ¿Ð¾Ð»ÑĥÑĩ": 1942,
      "Ð»ÑĮÐ½Ð¾Ð¹": 1943,
      "Ð¾Ð½Ð¸": 1944,
      "ÐµÐ½Ð¾": 1945,
      "Ġ14": 1946,
      "ĠâĦĸ": 1947,
      "ĠÑĥÐ²Ðµ": 1948,
      "Ð»ÑĮÐ½ÑĭÑħ": 1949,
      "th": 1950,
      "ĠÐ·Ð°Ð²Ð¸ÑģÐ¸": 1951,
      "ÑĤÐ¸Ð¹": 1952,
      "ÑĩÐ¸ÑĤÑĮ": 1953,
      "ĠÑģÑĤÐ°Ð»": 1954,
      "ÑīÑĳ": 1955,
      "ÐŀÑĤ": 1956,
      "ĠÐ½Ð°ÑĩÐ¸Ð½Ð°": 1957,
      "ĠÐ²ÑĭÐ¿Ñĥ": 1958,
      "Ð¸ÑĤÑĥÐ°": 1959,
      "ĠÐ¿ÑĢÐ¸Ð·Ð½Ð°": 1960,
      "ĠÐ³ÑĢÐ°Ð¶": 1961,
      "ÐĴÑĭ": 1962,
      "Ð»Ð¾Ð½": 1963,
      "ĠÑĤÑĢ": 1964,
      "ĠÐ¿ÐµÑĢÐµÐ´Ð°": 1965,
      "Ġ30": 1966,
      "ĠÐºÐ¾Ð¼Ð°Ð½": 1967,
      "ÐĿÐµ": 1968,
      "ÑģÑĤÐ¾ÑıÐ½": 1969,
      "Ð¾Ð±ÑĢÐµ": 1970,
      "ĠÐ½Ð°Ð¼": 1971,
      "ĠÐ¼ÐµÐ´Ð¸": 1972,
      "ĠÐ°Ð»": 1973,
      "ĠÐ²Ð¸Ð´": 1974,
      "ir": 1975,
      "ĠÐ¿Ð¾ÑįÑĤÐ¾Ð¼Ñĥ": 1976,
      "Ġ.": 1977,
      "ĠÐŁÐ¾Ð´": 1978,
      "ĠÐ¸Ð¼ÐµÐ½Ð½Ð¾": 1979,
      "Ð±Ð»Ð¸": 1980,
      "ÑĭÑĤ": 1981,
      "Ð¾Ð²Ð°Ð»": 1982,
      "Ð¿Ð°Ð´": 1983,
      "Ð¸ÑĤÐµÐ»ÐµÐ¹": 1984,
      "ÑĩÐµÑģÐºÐ¾Ðµ": 1985,
      "ĠÐ³ÐµÑĢ": 1986,
      "ĠÐĲÐ»ÐµÐºÑģÐ°Ð½Ð´": 1987,
      "Ð¼ÐµÐ½ÑĤ": 1988,
      "Ð¾Ð·Ð°": 1989,
      "te": 1990,
      "Ġg": 1991,
      "Ð¾Ð²Ð¾Ð¹": 1992,
      "ĠÐ²ÐºÐ»ÑİÑĩÐ°": 1993,
      "Ð²Ð°Ð»": 1994,
      "ĠÐ¼ÑĥÐ·Ñĭ": 1995,
      "ÑĩÐ°ÑĤÑĮ": 1996,
      "17": 1997,
      "Ð½Ð°Ñħ": 1998,
      "ĠÐŁÐ°": 1999,
      "ĠÐ½Ð¾ÑĢ": 2000,
      "ÐļÐ°": 2001,
      "ĠÐ¾ÑĩÐµ": 2002,
      "Ð¼ÐµÑĢÐ¸ÐºÐ°Ð½": 2003,
      "ÑģÑĤÐ²Ð¸Ðµ": 2004,
      "Ð´ÑĥÐµÑĤ": 2005,
      "ÑīÐ¸Ðµ": 2006,
      "ter": 2007,
      ");": 2008,
      "Ð´ÐµÐ»Ð¸": 2009,
      "ĠÑģÐ²Ð¾Ð¸Ñħ": 2010,
      "ÑĩÐ½Ð¾Ð³Ð¾": 2011,
      "Ð¼Ð¸Ð½Ð¸ÑģÑĤÑĢÐ°": 2012,
      "Ð½Ð°Ð¼Ð¸": 2013,
      "ĠÐ´Ð¾ÑģÑĤÐ¸": 2014,
      "ÑģÐ¸Ð¸": 2015,
      "ĠÐ¸Ð´Ðµ": 2016,
      "ÑĪÐ¾": 2017,
      "ĠÐ¼Ð¾ÑĢ": 2018,
      "Ġ197": 2019,
      "ĠÐ¿ÑĢÐ¾ÑĪ": 2020,
      "ÐºÑĤÑĭ": 2021,
      "ĠÑģÐ´ÐµÐ»Ð°ÑĤÑĮ": 2022,
      "ĠÐ¿Ð»Ð¾ÑīÐ°": 2023,
      "ÑĢÑĥÐµÑĤ": 2024,
      "ĠÑģÐ¸ÑĤÑĥÐ°": 2025,
      "ĠÐ¸ÑģÐ¿Ð¾Ð»": 2026,
      "Ð½Ð°ÑĢÐ¾Ð´": 2027,
      "ĠÑģÐ¸Ð¼": 2028,
      "ĠÐ¿ÑĢÐ¾Ð²ÐµÐ´": 2029,
      "Ð¼Ð°ÑĤÐ¸": 2030,
      "ĠÐ¢Ðµ": 2031,
      "30": 2032,
      "ÑĩÐ¸Ñģ": 2033,
      "ÑģÐ¾Ð¼": 2034,
      "ĠÑĢÐ°ÑģÐ¿Ð¾Ð»Ð¾Ð¶": 2035,
      "ĠÐļÐ¸": 2036,
      "ÑĩÐ°ÑĤ": 2037,
      "Ð½Ð¸ÑĨÑĭ": 2038,
      "ĠÐ·Ð´ÐµÑģÑĮ": 2039,
      "ĠÐ¿Ð¾Ð²Ñĭ": 2040,
      "Ġy": 2041,
      "Ð¶Ð°ÑĤÑĮ": 2042,
      "Ð´ÐµÐ»": 2043,
      "ÑīÐµÐ¼": 2044,
      "ation": 2045,
      "Ð¾Ð¿Ð¸": 2046,
      "ĠÐ¶ÐµÐ»Ð°": 2047,
      "ĠÐ¡Ð°": 2048,
      "ÑĤÐµÐ»ÑĮÑģÑĤÐ²Ð°": 2049,
      "ĠO": 2050,
      "Ð¸Ñħ": 2051,
      "Ð¾Ð»Ñı": 2052,
      "ĠÑģÐ°Ð¼Ð¾": 2053,
      "ÑĪÐºÐ°": 2054,
      "ĠÐ²Ð¾Ð·Ð¼Ð¾Ð¶Ð½Ð¾ÑģÑĤÑĮ": 2055,
      "ĠÐ¾ÐºÑĢÑĥ": 2056,
      "15": 2057,
      "Ð¾Ð´Ñĭ": 2058,
      "ĠÐ¿Ð¾Ð¿Ñĥ": 2059,
      "ĠÐ¾ÐºÐ¾Ð»Ð¾": 2060,
      "ÑģÑĤÐ¸ÑĤÑĥ": 2061,
      "Ð¶ÐµÐ½Ð¸Ñı": 2062,
      "ĠÐ»Ð¸ÑĪÑĮ": 2063,
      "ĠÐ´Ð²Ð¸Ð¶": 2064,
      "ÐķÑģÐ»Ð¸": 2065,
      "ĠÐŀÐ´Ð½Ð°ÐºÐ¾": 2066,
      "ĠÐ¿ÑĢÐ¾Ð¼": 2067,
      "ĠÐ¿Ð¾Ð¼Ðµ": 2068,
      "ĠÐ¿ÑĢÐ¾ÐµÐºÑĤ": 2069,
      "ĠÐ¿ÑĢÐ¸Ð¼ÐµÑĢ": 2070,
      "ĠÑĩÐ°ÑģÑĤÐ¾": 2071,
      "ÑģÐºÐµ": 2072,
      "ĠÑĥÑĩÐ°ÑģÑĤÐ¸": 2073,
      "ÑĤÐ¸Ð¸": 2074,
      "ĠÐ¾Ð±Ð¾ÑĢ": 2075,
      "ĠÐ¾Ð½Ð»Ð°Ð¹Ð½": 2076,
      "ĠÐ¿Ð¾Ð¼Ð¾ÑīÑĮÑİ": 2077,
      "Ð¸Ð»Ð°": 2078,
      "ĠÑģÑĤÐ¾Ð¸ÑĤ": 2079,
      "ĠÑģÑĤÑĢÐ¾Ð¸ÑĤÐµÐ»ÑĮ": 2080,
      "ĠÐ³Ð¸": 2081,
      "ÑĢÐ°Ð·Ñĥ": 2082,
      "ĠÐ±ÐµÑģÐ¿Ð»Ð°ÑĤ": 2083,
      "ĠÐºÐ°ÑĩÐµÑģÑĤÐ²Ðµ": 2084,
      "ÑĦÑĦÐµÐºÑĤÐ¸Ð²": 2085,
      "ĠÑĩÐ»ÐµÐ½": 2086,
      "Ð½Ð°Ð´": 2087,
      "Ġ194": 2088,
      "Ð²Ð¸Ð³Ð°": 2089,
      "ÐºÑĤÐ¾Ð²": 2090,
      "ÑħÐ¾Ð´Ñı": 2091,
      "16": 2092,
      "ĠÑģÐ¾Ð±Ð¾Ð¹": 2093,
      "Ġ196": 2094,
      "Ð¸Ð¼Ð¾ÑģÑĤÑĮ": 2095,
      "Ð¾Ð»Ð¾Ð²": 2096,
      "Ð¾Ð¿Ñĥ": 2097,
      "ĠÐ·Ð°Ð½Ñı": 2098,
      "Ð½ÑĥÑĤÑĮ": 2099,
      "ĠÐ½ÐµÐ¹": 2100,
      "ÐµÐ½ÑĤÑĭ": 2101,
      "ĠÐ¼Ð¸Ð½Ð¸": 2102,
      "ĠÐ½Ð°ÑĢÑĥ": 2103,
      "ĠÑĤÑĭÑģÑı": 2104,
      "ĠÑģÐ»Ð¾Ð²": 2105,
      "ĠÐŁÑĢÐ¾": 2106,
      "ĠÐºÐ¾ÑĤÐ¾ÑĢÐ¾Ð³Ð¾": 2107,
      "ÑĦÐµÑĢ": 2108,
      "ÑģÐºÐ¾": 2109,
      "ĠÑģÐ°Ð¹ÑĤÐµ": 2110,
      "Ð´Ð¸Ð¸": 2111,
      "Ð´Ð°ÑĤÑĮ": 2112,
      "ĠÑģÐºÐ°": 2113,
      "ÑģÑĤÐ²ÐµÐ½Ð½Ð¾Ð³Ð¾": 2114,
      "Ð»Ð°Ð´": 2115,
      "ĠÑĢÐµÑĪÐ¸": 2116,
      "if": 2117,
      "Ð½ÑıÑı": 2118,
      "ers": 2119,
      "ÑĢÐ¾Ð²Ð°Ð½Ð¸Ðµ": 2120,
      "ĠÑģÐ²Ð¾ÐµÐ³Ð¾": 2121,
      "em": 2122,
      "ĠÑĤÐµÑħÐ½Ð¾Ð»Ð¾Ð³Ð¸": 2123,
      "Ġv": 2124,
      "ĠÐ½Ð°Ñĥ": 2125,
      "Ð´Ð°ÐµÑĤ": 2126,
      "Ð²Ð°ÑİÑĤÑģÑı": 2127,
      "ĠÐľÑĭ": 2128,
      "ĠÐ¿ÑĢÐ¾ÑĦÐµÑģÑģÐ¸": 2129,
      "ÑħÐ¾Ð´Ð°": 2130,
      "ĠÐ½ÐµÐ·Ð°": 2131,
      "Ð¿ÑĢÐ¾": 2132,
      "ĠÑģÐµÐ³Ð¾Ð´Ð½Ñı": 2133,
      "Ð»ÑĮÐ½Ð¾Ð³Ð¾": 2134,
      "ĠÐ¿Ð¾ÑģÑĤÐ¾ÑıÐ½": 2135,
      "ÐŀÐ±": 2136,
      "ÑģÑĤÐ²ÐµÐ½Ð½ÑĭÐ¹": 2137,
      "ĠÐ¿ÑĢÐµÐ´Ð»Ð°Ð³Ð°": 2138,
      "ĠÐ´ÐµÑĤÐµÐ¹": 2139,
      "ÑıÐ²Ð»Ñı": 2140,
      "ĠÐ£ÐºÑĢÐ°Ð¸": 2141,
      "ÑĢÐ°Ñģ": 2142,
      "ĠÐºÐ²Ð°ÑĢ": 2143,
      "ĠÐŁÐ¾ÑģÐ»Ðµ": 2144,
      "Ð½ÐµÐ½Ð¸Ðµ": 2145,
      "op": 2146,
      "ĠÑįÐ»ÐµÐ¼": 2147,
      "Ð¿Ð°ÑĢÐ°": 2148,
      "ĠÐ¡Ð¾Ð²": 2149,
      "Ð¾Ð·Ñı": 2150,
      "ÐºÑģ": 2151,
      "``": 2152,
      "ÑģÐ¾Ðº": 2153,
      "ĠÑĪÐµ": 2154,
      "ĠÐ¿Ð°ÑĢÐ°": 2155,
      "Ð·Ð°ÑĨÐ¸Ñı": 2156,
      "ÑģÑĤÐ²Ð¸Ð¸": 2157,
      "Ð»Ð¸Ð¸": 2158,
      "ÐĶÐ»Ñı": 2159,
      "Ð¼Ð¾Ð²": 2160,
      "ĠÐ¾ÐºÐ°Ð·Ð°": 2161,
      "ÑıÐ¶": 2162,
      "ĠÑĤÐ°ÐºÐ¾Ð¹": 2163,
      "ĠÑģÐ¼Ðµ": 2164,
      "ay": 2165,
      "ĠÑģÑĤÐµ": 2166,
      "Ð¾Ð·Ð½Ð°": 2167,
      "ĠÑĢÑĥÐ±Ð»ÐµÐ¹": 2168,
      "ÑģÑĤÐ°ÑĤÐ¾ÑĩÐ½Ð¾": 2169,
      "ÑģÑĤÐ²ÐµÐ½Ð½ÑĭÑħ": 2170,
      "Ð²Ð°ÑĤÑĮÑģÑı": 2171,
      "ÑģÐºÐ¾Ð²": 2172,
      "Ð·Ð¸Ð´": 2173,
      "ĠÐºÐ¾Ð½ÑĤÑĢ": 2174,
      "ÐµÐ¼Ð°": 2175,
      "ĠÐ±ÐµÐ·Ð¾Ð¿Ð°Ñģ": 2176,
      "ĠÐ´Ð¾ÑģÑĤÑĥÐ¿": 2177,
      "ÑģÐ¾": 2178,
      "ĠÐ¾Ð´Ð½Ð¾Ð¹": 2179,
      "ĠÑĥÐºÐ°Ð·Ð°": 2180,
      "Ð¾ÑĢÑĤÐ°": 2181,
      "ĠÑĥÐºÑĢÐ°": 2182,
      "ĠÑĥÐ½Ð¸Ð²ÐµÑĢ": 2183,
      "ÑĩÐµÐ³Ð¾": 2184,
      "ĠÑģÐ¾Ð¿": 2185,
      "ĠÐļÑĥ": 2186,
      "ĠÐłÐ¤": 2187,
      "ĠÐ»ÑĥÑĩÑĪÐµ": 2188,
      "ĠÑģÐ»ÐµÐ´ÑĥÑİÑīÐ¸": 2189,
      "ĠÐĲÐ½": 2190,
      "ÑĩÐµÐ¹": 2191,
      "ÑĢÐ°ÑĨÐ¸Ð¸": 2192,
      "ĠÑħÐ¾Ð´": 2193,
      "Ð´Ð¸Ð²Ð¸": 2194,
      "Ð¡Ð¡Ðł": 2195,
      "ĠÐ¸ÑģÐ¿Ð¾Ð»ÑĮÐ·Ð¾Ð²Ð°ÑĤÑĮ": 2196,
      "Ð¾Ð¼Ð°": 2197,
      "Ð¸Ð±Ð¾Ð»ÐµÐµ": 2198,
      "ĠÑĤÐµÑĢÑĢÐ¸ÑĤÐ¾ÑĢÐ¸Ð¸": 2199,
      "Ġ13": 2200,
      "Ð²Ð°Ð½": 2201,
      "ĠÐ¾ÑģÑĤ": 2202,
      "ĠÑģÐ¿Ð°": 2203,
      "Ð³ÑĢÐ°Ð½Ð¸": 2204,
      "ĠÐ¡ÑĤÐ°": 2205,
      "ĠÑįÑĤÐ¸Ñħ": 2206,
      "ĠÑĤÐ°Ð¼": 2207,
      "ĠÐ´Ð»Ð¸": 2208,
      "ĠÑģÐ¾ÑģÑĤÐ°Ð²": 2209,
      "ĠÐ¾ÑģÑĥÑīÐµÑģÑĤÐ²": 2210,
      "ÑĥÑĢÐ½Ð°": 2211,
      "ĠÐľÐµ": 2212,
      "ĠÐ²Ð¾ÑĤ": 2213,
      "ĠÐ±ÐµÑĢÐµ": 2214,
      "200": 2215,
      "ĠÑģÐ»ÑĥÐ¶": 2216,
      "ce": 2217,
      "ĠÐ¼Ð°Ð³Ð°": 2218,
      "ĠÑģÐ²ÑıÐ·Ð¸": 2219,
      "ĠÐ·Ð°Ð¿": 2220,
      "ĠÑĥÐ´Ð¾Ð±": 2221,
      "Ð±Ð¾ÑĢÐ°": 2222,
      "ĠÑĦÐ¸Ð·Ð¸": 2223,
      "ÑīÐµÑģÑĤÐ²Ð°": 2224,
      "ÐµÑĢÐ¾Ð²": 2225,
      "ÐµÐ½Ð½ÑĭÐ¹": 2226,
      "ĠÐ´Ð¾Ð»Ð¶ÐµÐ½": 2227,
      "ĠÐ¸Ñģ": 2228,
      "Ð¾Ð¶Ð´ÐµÐ½Ð¸Ñı": 2229,
      "ĠÐŀÑģ": 2230,
      "ĠÑĪÐºÐ¾Ð»": 2231,
      "ĠÐĵÐµÑĢ": 2232,
      "ĠÐ¿ÑĢÐ¸Ð½Ð¸Ð¼Ð°": 2233,
      "ÑģÐ¿ÑĥÐ±Ð»Ð¸": 2234,
      "Ð²ÑĪÐ¸Ð¹": 2235,
      "ÑģÐºÐ¾Ð¼Ñĥ": 2236,
      "ÑĥÐ¼Ð°": 2237,
      "Ð¸ÑĤÑĮÑģÑı": 2238,
      "Ġ100": 2239,
      "ĠÐ´Ð¸Ð°": 2240,
      "ÐºÐ¾Ð¼ÐµÐ½": 2241,
      "ĠÑĢÐ°Ð²": 2242,
      "Ð¹ÑģÐºÐ¾Ð¹": 2243,
      "ĠÑĤÐ°ÐºÐ¸Ñħ": 2244,
      "Ð¼Ð¾Ð½": 2245,
      "Ð¸ÑĤÐµÐ»Ñı": 2246,
      "Ð¿Ð¸ÑĤÐ°": 2247,
      "ÑĩÐµÐ¼": 2248,
      "ĠÐ²ÑģÑĳ": 2249,
      "ĠÐ²Ð¾Ð·ÑĢÐ°": 2250,
      "Ð¾Ð·Ð¸": 2251,
      "ĠÐµÑīÑĳ": 2252,
      "ĠÑģÑĤÐ°ÑĢ": 2253,
      "):": 2254,
      "ĠÐ¡ÐµÑĢ": 2255,
      "ĠÐ·Ð´Ð¾ÑĢÐ¾Ð²": 2256,
      "Ð·Ðµ": 2257,
      "Ð°Ð´": 2258,
      "ĠÐ´Ð¾Ð³Ð¾Ð²": 2259,
      "ĠÐ¿ÐµÑĢÐ¸Ð¾Ð´": 2260,
      "Ð»Ð¸ÑĩÐ°": 2261,
      "ĠÑĦÐ¸": 2262,
      "ĠÐ¿Ð¸ÑģÐ°": 2263,
      "ĠÐ½ÐµÐ¾Ð±ÑħÐ¾Ð´Ð¸Ð¼": 2264,
      "ab": 2265,
      "ĠÐ²ÑģÐµÐ¼": 2266,
      "ÐµÑĢÑħ": 2267,
      "ĠÐĴÐ»Ð°Ð´Ð¸": 2268,
      "ÑĢÐ°Ð·Ð´": 2269,
      "ĠÐ´Ð¾Ð»Ð¶Ð½Ñĭ": 2270,
      "ess": 2271,
      "ĠÑĢÐ¾": 2272,
      "ĠÐ¿Ð°Ð¼": 2273,
      "ĠÐ´Ð°Ð½Ð½ÑĭÑħ": 2274,
      "Ġfor": 2275,
      "ĠÑģÐ¾ÑĨÐ¸Ð°Ð»ÑĮ": 2276,
      "ĠÑĤÐ°ÐºÐ¸Ðµ": 2277,
      "Ð·Ð¾Ð²": 2278,
      "ĠÑĤÐµÐº": 2279,
      "ĠÐ´Ð°Ð»ÑĮ": 2280,
      "Ð½Ð¸ÑĨ": 2281,
      "ĠÑĢÐ°Ð´Ð¸": 2282,
      "ÑĩÐ¸Ð½": 2283,
      "ĠÑĢÐ°ÑģÑĤ": 2284,
      "ĠÐľÐ°ÑĢ": 2285,
      "ĠÐ²ÑĢÐµÐ¼ÐµÐ½": 2286,
      "Ð¾Ð½Ñĭ": 2287,
      "Ð»Ð¾Ð³": 2288,
      "Ġr": 2289,
      "Ð»ÐµÐ½Ð¸ÐµÐ¼": 2290,
      "ĠÐ²ÑĭÑĪÐµ": 2291,
      "ĠÑģÑĤÐ¾ÑĢÐ¾Ð½Ñĭ": 2292,
      "ĠÐĴÐ¸": 2293,
      "ĠÐ¸Ð½ÑģÑĤÑĢÑĥ": 2294,
      "ist": 2295,
      "ĠÑĢÐµÐ±ÐµÐ½": 2296,
      "ĠÑĩÑĥÐ²": 2297,
      "ĠÑĦÐ¸Ð½Ð°Ð½": 2298,
      "ÑĦÐ¾Ð½": 2299,
      "ÑħÐ²Ð°": 2300,
      "ĠÐ¼ÐµÑģÑĤÐ°": 2301,
      "ĠÑĩÐ¸ÑģÐ»Ðµ": 2302,
      "ĠÐ±Ð¾Ð»": 2303,
      "ÑĤÐµÐ»ÑĮÐ½ÑĭÑħ": 2304,
      "ĠÐ±Ð¸Ð·Ð½ÐµÑģ": 2305,
      "ĠÐ²Ð¼ÐµÑģÑĤÐµ": 2306,
      "Ð¶Ð´ÐµÐ½Ð¸Ñı": 2307,
      "ĠÑģÐ¾Ð´ÐµÑĢÐ¶Ð°": 2308,
      "11": 2309,
      "ĠÐ¼Ð°Ñģ": 2310,
      "ĠÑĩÐµÑĢ": 2311,
      "ĠÑģÐ½Ð¸": 2312,
      "ĠU": 2313,
      "ĠÐºÐ°Ð¶Ð´ÑĭÐ¹": 2314,
      "ĠÑĢÐµÐ°Ð»Ð¸": 2315,
      "ĠÑıÐ½": 2316,
      "ĠÑģÐµÐ¹ÑĩÐ°Ñģ": 2317,
      "ĠÑĤÐ¾ÑĢÐ³Ð¾Ð²": 2318,
      "ÑĢÐ¸Ð½": 2319,
      "ÑĢÐ°Ð¼": 2320,
      "ÑĤÐµÐ»ÐµÐ¼": 2321,
      "ĠÐ²Ð¾Ð·Ð¼Ð¾Ð¶Ð½Ð¾": 2322,
      "Ð³Ð¾Ð´Ð°ÑĢÑı": 2323,
      "ÑĩÐµÑģÐºÐ¸Ð¼": 2324,
      "ĠÐ¤ÐµÐ´Ðµ": 2325,
      "ÐºÐ¾Ð²Ð°": 2326,
      "ĠÐ¡Ð¡Ð¡Ðł": 2327,
      "ÑİÑīÐµÐ¹": 2328,
      "ÐºÐ°ÑĢ": 2329,
      "ĠÑĨÐµÐ½": 2330,
      "ĠÐ½Ð°Ð¿ÑĢÐ¸Ð¼ÐµÑĢ": 2331,
      "Ð·Ð¸Ð¸": 2332,
      "ĠÑįÐ½ÐµÑĢ": 2333,
      "ĠÐĽÐ¸": 2334,
      "ĠÐ¼Ð»": 2335,
      "Ð°Ð¼Ð¸": 2336,
      "ĠÐºÐ¾ÑĤÐ¾ÑĢÐ¾Ðµ": 2337,
      "ÑĨÐµÐ½ÑĤ": 2338,
      "Ð³Ð¸Ð¸": 2339,
      "ĠÐ´ÐµÑĢÐµÐ²": 2340,
      "Ð²Ð¸Ñĩ": 2341,
      "ĠÐ¿ÑĢÐµÐºÑĢÐ°": 2342,
      "ĠÑįÑĦÑĦÐµÐºÑĤÐ¸Ð²": 2343,
      "ĠÐ³Ð°Ð·": 2344,
      "ÐµÑĢÐ¸": 2345,
      "ĠÐ½ÐµÐ±Ð¾Ð»ÑĮ": 2346,
      "ÑĪÐµÐ¼": 2347,
      "ÑĤÐµÐ»ÑĮÐ½Ð¾Ð¹": 2348,
      "Ð²ÑĭÑħ": 2349,
      "ĠÐ´Ð²Ðµ": 2350,
      "Ġ25": 2351,
      "ĠÑĢÐ°ÑģÐ¿ÑĢÐ¾": 2352,
      "ÑĤÐ°Ñħ": 2353,
      "ĠK": 2354,
      "ĠÐºÐ¾Ð½ÑĨÐµ": 2355,
      "ate": 2356,
      "Ð½ÑĨÐ¸": 2357,
      "ÑĢÐ¾ÑĤ": 2358,
      "oc": 2359,
      "ÑģÐµÐ¼": 2360,
      "ĠÐ¿Ð¾Ð¿ÑĥÐ»ÑıÑĢ": 2361,
      "ĠÑıÐ²Ð»ÑıÑİÑĤÑģÑı": 2362,
      "Ð½Ð¸ÐºÐ¾Ð¼": 2363,
      "ĠÑĩÐµÐ³Ð¾": 2364,
      "Ð¾ÑģÑĤ": 2365,
      "ĠÐ¿Ð¾Ð·Ð²Ð¾Ð»ÑıÐµÑĤ": 2366,
      "Ð´Ð¸Ð½Ð°": 2367,
      "Ð¸Ð»Ð»Ð¸": 2368,
      "Ð¸ÑĢÐ°": 2369,
      "ĠÑģÑĤÐ¾Ð»": 2370,
      "ĠÐ¿Ð¾Ð»ÑĥÑĩÐ¸ÑĤÑĮ": 2371,
      "ĠÐ»Ð¸Ð±Ð¾": 2372,
      "ht": 2373,
      "ĠÑģÐ¾Ð»": 2374,
      "Ð´Ð°Ð½Ð¸Ñı": 2375,
      "Ð»ÐµÐ½Ð°": 2376,
      "ĠÐĽÐµ": 2377,
      "Ð»ÐµÐ½Ñĭ": 2378,
      "ĠÐ°Ð¼ÐµÑĢÐ¸ÐºÐ°Ð½": 2379,
      "Ġst": 2380,
      "ÐµÐ´Ð¸Ð½": 2381,
      "ĠÐŁÐµÑĤ": 2382,
      "ĠÐ½Ð°Ð¹ÑĤÐ¸": 2383,
      "ĠÑģÑĤÐ°Ð½Ð¾Ð²": 2384,
      "ĠÐ¿Ð¾ÑĢÑıÐ´": 2385,
      "ĠÑĤÑĢÐ°Ð½ÑģÐ¿": 2386,
      "Ð²ÐµÐ´ÐµÐ½Ð¸Ñı": 2387,
      "ÑĭÑĪ": 2388,
      "ÑģÐ¸Ñı": 2389,
      "Ð³Ð¾ÑĢÐ¸": 2390,
      "Ð¾ÑĢÑĭ": 2391,
      "ÑĮÑĤÐµ": 2392,
      "Ð²Ð»Ð¸": 2393,
      "ĠÐ½Ð°ÑĢÐ¾Ð´": 2394,
      "ĠÐ°Ð¿": 2395,
      "Ð²ÑĭÐ¼": 2396,
      "ĠÐ½Ð°Ð´Ðµ": 2397,
      "ĠÐ°Ð»ÑĮ": 2398,
      "Ð³Ð¾Ð´Ñĥ": 2399,
      "ĠÑĢÐ°Ð±Ð¾ÑĤÑĥ": 2400,
      "ÐµÐ½ÐµÐµ": 2401,
      "ĠÐ¼Ð¸ÑĢÐ°": 2402,
      "ĠÐ¿ÑģÐ¸": 2403,
      "ĠÑĤÐµÑĩÐµÐ½Ð¸Ðµ": 2404,
      "ĠÐ²ÐµÐºÐ°": 2405,
      "ĠÐ¼ÐµÑĢ": 2406,
      "ĠÑĥÑģÑĤÑĢÐ¾Ð¹": 2407,
      "ĠÐ¿Ð¾ÑıÐ²Ð¸": 2408,
      "ĠÐ²ÑĭÐ±Ð¾ÑĢ": 2409,
      "ĠÑĢÐµÐºÐ¾Ð¼ÐµÐ½": 2410,
      "ÑĩÐ°ÑģÑĤ": 2411,
      "Ð»ÑıÐµÑĤÑģÑı": 2412,
      "ĠÐ´ÐµÐºÐ°": 2413,
      "Ð²ÐµÐ·": 2414,
      "ĠÐ½Ð°Ð·Ð½Ð°": 2415,
      "Ð¸Ð»ÑģÑı": 2416,
      "ĠÐ³Ð¾Ð»Ð¾Ð²": 2417,
      "ÑĤÐµÐ»ÑĮÐ½ÑĭÐµ": 2418,
      "ÑģÑĤÑĮÑİ": 2419,
      "ĠÑģÐ²Ð¾Ð±": 2420,
      "ĠÐ¿Ð¾Ð¸": 2421,
      "Ð¼Ð¾ÑĤÑĢÐµÑĤÑĮ": 2422,
      "ĠÐ¿ÑĢÐ¸Ð¾Ð±ÑĢÐµ": 2423,
      "Ġ11": 2424,
      "ĠÐ¶Ð¸Ð·Ð½ÑĮ": 2425,
      "Ð¸ÑĤÐµÐ»Ð¸": 2426,
      "ĠÐĳÐ°": 2427,
      "Ð±Ð»Ñİ": 2428,
      "ÑĪÐµÐµ": 2429,
      "ĠÑħÑĥÐ´": 2430,
      "ĠÑĢÑıÐ´": 2431,
      "ĠÐ±Ð¾ÑĢ": 2432,
      "ĠÐļÐ¾Ð¼": 2433,
      "ÑĢÐ¾ÐºÐ¸": 2434,
      "ÑģÑĤÑĥÐ¿Ð¸": 2435,
      "Ð¾ÐºÑĢÐ°": 2436,
      "ĠÐ¼ÐµÐ½ÐµÐµ": 2437,
      "Ð»ÑĥÑĩ": 2438,
      "ĠÐ¸ÑģÐºÑĥÑģ": 2439,
      "Ð¢Ðµ": 2440,
      "ĠÐ¡Ð¸": 2441,
      "Ð»ÑĮÐ½Ð¾Ðµ": 2442,
      "ĠÐ»Ð¸ÑĨ": 2443,
      "ĠÑĤÐ¾Ð¶Ðµ": 2444,
      "ĠÐºÐ¾Ð½ÐºÑĥ": 2445,
      "ĠÐ¾Ð±Ð¾ÑĢÑĥÐ´": 2446,
      "ÑģÑĤÐ°Ð½Ð°": 2447,
      "ĠÐ¸ÑģÐºÐ»Ñİ": 2448,
      "ap": 2449,
      "Ġdi": 2450,
      "ÑģÑģÐµ": 2451,
      "ĠÐ¼Ð°ÑĪÐ¸": 2452,
      "ĠÑĢÐ°Ð·Ð²Ð¸ÑĤÐ¸Ñı": 2453,
      "ĠÐ¿Ð¾Ð´Ð³Ð¾ÑĤÐ¾Ð²": 2454,
      "ĠÐ´ÐµÐ¹": 2455,
      "ĠÑģÑĤÑĢÐ°Ð½Ñĭ": 2456,
      "ĠÐ·Ð°ÑıÐ²": 2457,
      "ri": 2458,
      "Ð»ÐµÑĢ": 2459,
      "ÑĦÐ¸ÑĨÐ¸": 2460,
      "ĠÑĢÐ°Ð¹Ð¾Ð½Ð°": 2461,
      "ĠÐ¼Ð¾Ð½": 2462,
      "ĠÐ¿Ð¾Ð½Ð¸Ð¼Ð°": 2463,
      "ÑĦÐ¾ÑĢÐ¼": 2464,
      "ĠÑģÑĢÐµÐ´ÑģÑĤÐ²Ð°": 2465,
      "Ð¶Ð¸ÑĤ": 2466,
      "ÑĩÐºÐ°": 2467,
      "ÐĺÐ½": 2468,
      "Ð»ÐµÐ·": 2469,
      "ans": 2470,
      "Ð¿Ð¾Ð´": 2471,
      "ĠÐ²Ð½Ð¸Ð¼Ð°Ð½Ð¸Ðµ": 2472,
      "ĠÐ·Ð°Ð±Ð¾Ð»Ðµ": 2473,
      "ÑģÑĤÐ²ÑĥÑİÑīÐ¸": 2474,
      "ĠÐºÑĢÐµÐ´Ð¸": 2475,
      "ÑģÐ¾Ð½Ð°": 2476,
      "ĠÐ½Ð¾Ð¼": 2477,
      "ĠÐºÑĢÐ°Ñģ": 2478,
      "ĠÐ´Ð½ÐµÐ¹": 2479,
      "ĠÐ²Ð¾Ð·Ð´Ñĥ": 2480,
      "ĠÑĢÐµÐ¶Ð¸": 2481,
      "ÑĨÐ¾Ð²": 2482,
      "ĠÐ¾ÑĦÐ¸ÑĨÐ¸Ð°Ð»ÑĮ": 2483,
      "ĠÐ°Ð²ÑĤÐ¾ÑĢ": 2484,
      "âĢĵ": 2485,
      "ĠÐ¾ÐºÐ¾Ð½": 2486,
      "ÑĢÑĥÐ¶Ð¸": 2487,
      "Ð¾Ð±ÑĢÐ°Ð¶": 2488,
      "Ð½ÐµÐ²": 2489,
      "ĠÐłÐ°Ð·": 2490,
      "ĠÑģÑĢÐµÐ´Ð¸": 2491,
      "ĠÑĢÐµÐ°Ð»ÑĮ": 2492,
      "ĠÑģÐ¾Ñģ": 2493,
      "ÐµÐ·Ð´": 2494,
      "ĠÐ¼Ð¾Ð»Ð¾Ð´": 2495,
      "ÑīÐ°ÐµÑĤ": 2496,
      "ĠÐ²Ð»Ð¸Ñı": 2497,
      "ĠÐ»ÑİÐ´Ð¸": 2498,
      "ĠÐ¼Ð¾Ð¼ÐµÐ½ÑĤ": 2499,
      "Ð¼ÐµÑĩÐ°Ð½Ð¸Ñı": 2500,
      "ĠÐ¾ÑĤÐ½Ð¾ÑģÐ¸": 2501,
      "Ġ[": 2502,
      "ĠÐ¶ÑĥÑĢÐ½Ð°": 2503,
      "ĠÐŀÐ½Ð¸": 2504,
      "Ð¿Ð¾Ð²": 2505,
      "ĠÐ¿Ð¾ÑĤÐ¾Ð¼Ñĥ": 2506,
      "ĠÐ¤ÑĢÐ°Ð½": 2507,
      "ÑĤÐµÐ»ÑĮÐ½ÑĭÐ¹": 2508,
      "ĠÐºÐ¾Ñģ": 2509,
      "ÑīÑĥÑİ": 2510,
      "ĠÐŁÐ¾Ð»": 2511,
      "ĠÐ´Ð¾ÐºÑĥÐ¼ÐµÐ½": 2512,
      "25": 2513,
      "Ð¾Ð¿ÑĢÐ¸": 2514,
      "ĠÐ¾Ð³ÑĢÐ°Ð½Ð¸": 2515,
      "Ð¾ÑĤÑĭ": 2516,
      "ĠÐĲÐ²": 2517,
      "Ð·Ð¸Ð½Ð¾": 2518,
      "ĠÐºÑĢÐ¾Ð²": 2519,
      "ĠÐ¾ÑģÐ¾Ð±ÐµÐ½Ð½Ð¾": 2520,
      "Ð¸Ð½Ñĥ": 2521,
      "ÑīÑĥ": 2522,
      "ĠÐķÐ²ÑĢÐ¾Ð¿": 2523,
      "ĠÑģÑĤÑĢÐ°Ð½": 2524,
      "Ð½Ð¸Ð·": 2525,
      "ĠÑģÐºÐ¾ÑĢÐ¾": 2526,
      "ort": 2527,
      "ĠÐ½Ð°ÑħÐ¾Ð´Ð¸ÑĤÑģÑı": 2528,
      "ĠÐ±ÑĭÑģÑĤÑĢÐ¾": 2529,
      "ĠÑıÐ½Ð²Ð°": 2530,
      "ĠÑģÐ»ÐµÐ´ÑĥÐµÑĤ": 2531,
      "Ð¼Ð¾ÑģÑĤÐ¸": 2532,
      "ĠÐ´Ð¾ÑģÑĤÐ°ÑĤÐ¾ÑĩÐ½Ð¾": 2533,
      "ÑĪÑĥ": 2534,
      "ĠÐ°Ð½Ð³": 2535,
      "ÑģÐµÑĢ": 2536,
      "ÑĪÐ»Ð¸": 2537,
      "ĠÐ¾ÑĤÐ¼ÐµÑĤ": 2538,
      "all": 2539,
      "ĠÐ°Ð³": 2540,
      "ĠÐ¾Ð´Ð½Ð¾": 2541,
      "Ð¶Ñĥ": 2542,
      "Ð»ÑĮÐ½Ð°Ñı": 2543,
      "ĠÐĴÐµÐ»Ð¸": 2544,
      "ĠÑĥÐ·Ð½Ð°": 2545,
      "14": 2546,
      "ĠÑĤÐµÑħÐ½Ð¸": 2547,
      "od": 2548,
      "ĠÑģÐ¾ÑħÑĢÐ°": 2549,
      "ĠÑĢÐµÐ³Ñĥ": 2550,
      "Ð»ÑĳÐ½": 2551,
      "Ġth": 2552,
      "ĠÐ¿Ð¾ÑĤÑĢÐµÐ±": 2553,
      "ĠÑĦÐ¾ÑĢÐ¼Ð°": 2554,
      "Ð¶ÐµÐ½Ð¸Ðµ": 2555,
      "ĠÐ¾ÑĩÐµÑĢÐµÐ´": 2556,
      "ÑħÐ¾Ð´ÑıÑĤ": 2557,
      "ĠÐ¿ÐµÑĢÐ²ÑĭÐ¹": 2558,
      "Ð´ÑĥÑĤ": 2559,
      "ĠÐ¿Ð¾Ð´Ð´ÐµÑĢÐ¶": 2560,
      "ĠÐ´Ð¾Ð¿Ð¾Ð»Ð½Ð¸ÑĤÐµÐ»ÑĮ": 2561,
      "ÑĢÐ°Ð¼Ð¸": 2562,
      "ĠÐ°Ð´Ð¼Ð¸Ð½Ð¸ÑģÑĤÑĢÐ°": 2563,
      "ĠÐ´ÐµÑıÑĤÐµÐ»ÑĮÐ½Ð¾ÑģÑĤÐ¸": 2564,
      "ÐŁÑĢÐ¾": 2565,
      "ÑĩÐµÑĤÐ°": 2566,
      "ĠÑģÐ¸Ð»": 2567,
      "ĠÐ·Ð°ÑĤÐµÐ¼": 2568,
      "ĠÐ¸Ð³ÑĢÑĭ": 2569,
      "ĠÑĤÐµÐ¿": 2570,
      "ĠÐ¿ÑĢÐ¾Ð³": 2571,
      "ĠÐ½Ð¸Ðº": 2572,
      "ĠÑģÑĤÑĢÑĥ": 2573,
      "ĠÑĥÐ»Ð¸": 2574,
      "ÐºÐ¾ÑĢ": 2575,
      "ĠÑĤÐ¾Ð³Ð´Ð°": 2576,
      "ÐµÑģÑĤÐ¸": 2577,
      "Ġ50": 2578,
      "ĠÐ²Ð¾Ð¹Ð½Ñĭ": 2579,
      "ÑĤÑĭÐ¹": 2580,
      "ĠÑģÐ¼ÐµÑĢ": 2581,
      "ĠÐ¾ÐºÑĤ": 2582,
      "Ð±ÑĢÐµ": 2583,
      "ĠÑĤÐµÐ¼Ð¿ÐµÑĢÐ°": 2584,
      "ĠÐ³ÑĢÑĥÐ¿Ð¿Ñĭ": 2585,
      "ĠÐĴÐ»Ð°Ð´Ð¸Ð¼Ð¸": 2586,
      "ĠÐ´Ð½Ñı": 2587,
      "ĠÐºÐ²Ð°ÑĢÑĤÐ¸": 2588,
      "ĠÐ½ÐµÐ´": 2589,
      "ĠÐ²Ð½ÐµÑĪ": 2590,
      "ÑģÐµÐ´Ð°": 2591,
      "ĠÑģÑĢÐ°Ð·Ñĥ": 2592,
      "ĠÑĥÐ½Ð¸Ð²ÐµÑĢÑģÐ¸ÑĤ": 2593,
      "ÐŁÑĢÐ¸Ð¼ÐµÑĩÐ°Ð½Ð¸Ñı": 2594,
      "ÑģÑĤÐ²Ð¸Ñı": 2595,
      "ÑĢÐ°Ñħ": 2596,
      "Ġ\\(": 2597,
      "ÑĨÐ¸Ð½": 2598,
      "ĠÐ¿ÑĢÐ¾Ð²ÐµÑĢ": 2599,
      "ÑĤÐ°Ð¼": 2600,
      "ĠÐŁÑĢÐµ": 2601,
      "ĠÐļÐ°ÑĢ": 2602,
      "ĠÐ¾Ð´Ð½Ð¾Ð³Ð¾": 2603,
      "Ð¼Ð¸Ð¸": 2604,
      "ĠÐ¿ÐµÑģ": 2605,
      "ĠÐºÐ¾Ð½Ðµ": 2606,
      "Ð²Ð»ÐµÐºÐ°": 2607,
      "ĠÐ¾ÑĢÐ³Ð°Ð½Ð¸Ð·Ð°ÑĨÐ¸Ð¸": 2608,
      "ĠÐ¾ÑĤÐ¿": 2609,
      "ÐµÐ½Ð½Ð¾Ð¹": 2610,
      "Ð¾Ð»ÑĮÐºÑĥ": 2611,
      "ĠÑģÐµÐ½ÑĤ": 2612,
      "ĠÐ½Ð°Ð»Ð¸ÑĩÐ¸": 2613,
      "Ð»ÐµÐ½Ð½ÑĭÑħ": 2614,
      "ĠÑħÐ¸": 2615,
      "ĠÐ¾Ð´Ð½Ð°ÐºÐ¾": 2616,
      "ĠÐ±ÐµÐ»": 2617,
      "ÐµÑĢÐ±ÑĥÑĢ": 2618,
      "ĠÑģÑĤÐ°Ð»Ð¸": 2619,
      "ĠÑħÐ¾ÑĢÐ¾ÑĪÐ¾": 2620,
      "ov": 2621,
      "ÑģÑıÑĤ": 2622,
      "ÑĮÐµÑĢ": 2623,
      "ĠÑģÐ°Ð¼ÑĭÑħ": 2624,
      "ÑģÑĤÐ°Ð²Ð¸ÑĤÑĮ": 2625,
      "ÑĢÐ°Ð±Ð¾ÑĤÐ°": 2626,
      "ÑĤÐµÐ»ÑĮÐ½Ð¾Ð³Ð¾": 2627,
      "ĠÐºÐ¾ÑĤÐ¾ÑĢÐ¾Ð¼": 2628,
      "ĠÐºÐ¾Ð¼Ð¿Ð°Ð½Ð¸Ñı": 2629,
      "ĠÐ³Ð¾Ð´Ñĭ": 2630,
      "ĠÑģÑĤÐ¾ÑĢÐ¾Ð½": 2631,
      "Ð¼Ð°ÑĤÑĢÐ¸": 2632,
      "ĠJ": 2633,
      "ĠÐ´ÐµÐ½ÑĮÐ³Ð¸": 2634,
      "ĠÐ²Ð¸Ð´ÐµÐ¾": 2635,
      "ÑĤÐµÐ¹": 2636,
      "ĠÐ½Ð°Ð¸Ð±Ð¾Ð»ÐµÐµ": 2637,
      "Ð¼Ð°ÑĢ": 2638,
      "ĠÐ½ÐµÑģ": 2639,
      "ec": 2640,
      "ÑĥÐ´Ð¸": 2641,
      "ĠÐ¼Ñı": 2642,
      "ĠÐµÐ´Ð¸": 2643,
      "av": 2644,
      "Ð¼ÐµÐ½ÑĮ": 2645,
      "ĠÑħÐ¾Ð»": 2646,
      "xt": 2647,
      "ĠÐ°Ð¿ÑĢÐµ": 2648,
      "ÑĩÐµÐ±": 2649,
      "ĠÐĳÐµ": 2650,
      "Ð¾ÑĢÐ¾Ð¶": 2651,
      "ĠÐĽÑİ": 2652,
      "Ð²ÑĪÐ¸Ñħ": 2653,
      "ĠÑĢÐ°Ð·Ð»Ð¸ÑĩÐ½ÑĭÑħ": 2654,
      "Ð½ÑıÑĤÑĮ": 2655,
      "ĠÐ´ÐµÐ½Ðµ": 2656,
      "Ð´ÐµÑĤÑĮ": 2657,
      "ÑģÑĤÐ²Ð¾Ð²Ð°ÑĤÑĮ": 2658,
      "ÑıÑĤÐ½Ð¾": 2659,
      "ĠÑĢÐµÐ·ÑĥÐ»ÑĮÑĤÐ°ÑĤÐµ": 2660,
      "Ð²Ð°Ð¹ÑĤÐµ": 2661,
      "ĠÐ°Ð½ÑĤÐ¸": 2662,
      "ĠÐ´ÐµÐ²Ñĥ": 2663,
      "ĠÐ°Ð±": 2664,
      "ĠÐ³ÑĢÐ°Ð¶Ð´Ð°Ð½": 2665,
      "ĠÐ¿Ð¾ÑĤÐ¾Ð¼": 2666,
      "ÑĥÑİÑĤÑģÑı": 2667,
      "Ð»ÐµÐ½Ð¸Ñİ": 2668,
      "ĠÐ·Ð°Ð¿Ð¸": 2669,
      "Ð¾Ð·ÑıÐ¹": 2670,
      "ĠÐ¼Ð¸Ð»Ð»Ð¸": 2671,
      "ĠÐ¢Ð°ÐºÐ¶Ðµ": 2672,
      "ĠÐ¿Ð¾Ð´Ð¾Ð±": 2673,
      "ÐºÐ¸Ð¼Ð¸": 2674,
      "ĠÐ¡Ð°Ð½": 2675,
      "ĠÑĩÐµÑĤÑĭ": 2676,
      "ÐºÐ²Ð¸": 2677,
      "ĠÐ¸Ð¼ÐµÑİÑĤ": 2678,
      "Ð´ÐµÐ¼Ð¸": 2679,
      "ÑıÑĤÐ¸Ñı": 2680,
      "Ġis": 2681,
      "ĠÐ²Ð½ÑĥÑĤÑĢÐµÐ½": 2682,
      "ĠÐ¸ÑģÑĤÐ¾Ñĩ": 2683,
      "ÑĩÐ½Ð°Ñı": 2684,
      "ĠÐŁÑĥ": 2685,
      "ĠÐłÐ¾ÑģÑģÐ¸Ð¹ÑģÐºÐ¾Ð¹": 2686,
      "ĠÑģÐ±Ð¾ÑĢ": 2687,
      "ĠÐ¿Ð¾Ð²ÐµÑĢÑħ": 2688,
      "Ð¾Ñı": 2689,
      "ĠÐ¸ÑģÑĤÐ¾ÑĢÐ¸Ð¸": 2690,
      "ĠÐ¼Ð°ÐºÑģÐ¸": 2691,
      "ĠÐ¾ÑĤÐ½Ð¾ÑĪ": 2692,
      "ĠÑĢÐ°Ð·Ð¼ÐµÑĢ": 2693,
      "Ġ193": 2694,
      "ĠÑģÑĩÐµÑĤ": 2695,
      "ĠÑĤÑĢÑĥÐ´": 2696,
      "ĠÑģÑĤÑĢÐµ": 2697,
      "ÑĢÐµÐ·": 2698,
      "Ð²ÑĭÐ¹": 2699,
      "ĠÐ³ÐµÐ½Ðµ": 2700,
      "ĠÐ¿Ð¾ÑĩÑĤÐ¸": 2701,
      "ÑĪÐ°ÑĤÑĮ": 2702,
      "ĠÑĢÐ°Ð·ÑĢÐ°Ð±Ð¾ÑĤ": 2703,
      "ĠÐ¾ÑĢÐ¸": 2704,
      "ĠÐ¾ÑĤÐ´Ðµ": 2705,
      "ĠÐ¼ÐµÐ½ÑĮ": 2706,
      "Ġ24": 2707,
      "ĠÐ²Ð¾Ð´Ñĭ": 2708,
      "Ð³Ð¾ÑĢÐ¾Ð´": 2709,
      "ĠÐ¿ÑĢÐ°Ð²Ð¾": 2710,
      "ĠÑĤÐ¾ÑĤ": 2711,
      "ĠÐ¼Ð½Ð¾Ð¶Ðµ": 2712,
      "ĠÐ¿Ð¾Ð³": 2713,
      "Ð¾Ð¿Ð°": 2714,
      "ĠÐ¿Ð¾ÑģÑĤÑĢÐ¾": 2715,
      "ÐµÐ½Ð½Ð¾Ð³Ð¾": 2716,
      "ĠÐ½Ð°Ð´Ð¾": 2717,
      "Ð½Ð¸ÑĨÐ¸": 2718,
      "ĠÐ¿ÑĢÑı": 2719,
      "ĠÐ¿Ð¾Ð»Ð½Ð¾ÑģÑĤÑĮÑİ": 2720,
      "ÐºÐµÑĤ": 2721,
      "ĠÐºÑĥÐ¿Ð¸ÑĤÑĮ": 2722,
      "Ð»ÐµÐ½Ð½ÑĭÐµ": 2723,
      "ĠÑħÐ¾Ñĩ": 2724,
      "**:": 2725,
      "ĠÑģÐ»Ð¸": 2726,
      "ÑģÑĭÐ»ÐºÐ¸": 2727,
      "ĠÐ´Ð¾Ð±Ð°": 2728,
      "ÑĩÐ°ÐµÑĤ": 2729,
      "Ð´Ð¾Ð¼": 2730,
      "ĠÐ¼Ð°ÑĤÐµÑĢÐ¸Ð°Ð»": 2731,
      "ĠÑģÑĤÐµÐ¿": 2732,
      "ia": 2733,
      "ĠÐ¿ÑĢÐ°Ð·Ð´": 2734,
      "ĠÐ·Ð°ÐºÐ°Ð·": 2735,
      "ĠÐ·Ð½Ð°ÐºÐ¾Ð¼": 2736,
      "ĠÑģÐ¾Ð±Ñĭ": 2737,
      "13": 2738,
      "ÑĢÐµÐ½Ð¸Ñı": 2739,
      "ÑĤÐ¾ÑĤ": 2740,
      "Ð»ÐµÐ½ÑĮ": 2741,
      "ÑİÑīÐ¸Ð¼": 2742,
      "ĠÐ²ÐµÑģÑĮ": 2743,
      "ÑģÑĤÐ²ÐµÐ½Ð½ÑĭÐµ": 2744,
      "Ð°ÑĤÐ°": 2745,
      "ÑĢÐ¾Ð²Ð¾Ð¹": 2746,
      "ÐĺÐ·": 2747,
      "ĠÐ½ÐµÐ´Ð¾": 2748,
      "ĠÐ´ÑĢÑĥÐ³Ð¾Ð¹": 2749,
      "ĠÐ¸Ð½ÑĦÐ¾ÑĢÐ¼Ð°ÑĨÐ¸Ð¸": 2750,
      "ÑİÑīÐ°Ñı": 2751,
      "Ð¼Ð¾ÑĤÑĢÐ¸": 2752,
      "ĠÑĤÑĢÐ°Ð´Ð¸": 2753,
      "ÑħÑĥ": 2754,
      "Ġ|": 2755,
      "Ð½Ð¸ÑĤ": 2756,
      "ĠÐ¿ÑĢÐµÐ´ÑģÑĤÐ°Ð²Ð»ÐµÐ½": 2757,
      "ĠÐ½Ð¾Ñģ": 2758,
      "ÑģÑĤÐ²Ð¾Ð²Ð°": 2759,
      "ĠÐ°ÑĢÑħ": 2760,
      "ÑģÐ°Ð½": 2761,
      "Ġ195": 2762,
      "ĠÐ¾Ð±ÑĬÐµÐºÑĤ": 2763,
      "ĠÐ²Ð¾Ð·Ð²ÑĢÐ°": 2764,
      "ĠÐ¿Ð¾Ð»Ð¾Ð²": 2765,
      "ĠÐĶÐµ": 2766,
      "ĠÑģÐ²Ð¾Ð¸Ð¼": 2767,
      "ĠÑĩÐ¸ÑĤÐ°": 2768,
      "ĠÐ¸Ð½ÑĤÐµÑĢÐ½ÐµÑĤ": 2769,
      "ÑĥÐ»": 2770,
      "ĠÐ¿Ð¾Ð·Ð¸": 2771,
      "ĠÑĨÐµÑĢ": 2772,
      "Ð°Ñħ": 2773,
      "ÐŁÐµÑĢ": 2774,
      "Ð»ÐµÐ½Ð¸Ð¹": 2775,
      "ĠÐ±Ð¸": 2776,
      "ĠÐ¼Ð¸Ð½ÑĥÑĤ": 2777,
      "Ñĸ": 2778,
      "ÑĤÐ°Ðº": 2779,
      "ĠÐ½Ð°ÑĥÑĩ": 2780,
      "ĠÐºÐ¾Ð¼Ð¿ÑĮÑİ": 2781,
      "Ð¾Ð¼Ð°Ð½": 2782,
      "ÑıÑģÑĮ": 2783,
      "ĠÐ¾ÑĤÑģÑĥÑĤ": 2784,
      "pl": 2785,
      "ÑĢÑĥÐµÑĤÑģÑı": 2786,
      "ĠÐ½Ð¾ÑĢÐ¼Ð°": 2787,
      "Ð¾ÑģÐ»ÐµÐ´": 2788,
      "ĠÑģÐ¼Ð¾Ð¶": 2789,
      "Ġcon": 2790,
      "Ð¾Ð»Ð¾Ð³Ð¸Ð¸": 2791,
      "ĠÐ¼Ð½Ð¾Ð³": 2792,
      "Ð¿Ð°ÑĢ": 2793,
      "22": 2794,
      "ĠÑĥÐ¿ÑĢÐ°Ð²Ð»ÐµÐ½Ð¸Ñı": 2795,
      "ĠIn": 2796,
      "ĠÑģÑĢÐµÐ´ÑģÑĤÐ²": 2797,
      "ÑĭÑħÐ°": 2798,
      "ĠÐ²ÑĭÑħÐ¾Ð´": 2799,
      "ĠÐºÐ¾Ð½ÑģÑĤÑĢÑĥ": 2800,
      "ĠÐ°Ð²Ð³Ñĥ": 2801,
      "ĠÐ¾Ð·Ð½Ð°": 2802,
      "ĠÑĥÑĤÐ²ÐµÑĢ": 2803,
      "Ð»Ð¾Ð¹": 2804,
      "ĠÐ²ÑĭÐ±ÑĢÐ°": 2805,
      "ÑĤÐ°ÑĢ": 2806,
      "ĠÑĦÐµÐ²": 2807,
      "ĠÐ²Ð·Ð°": 2808,
      "Ð²Ð¾Ð¿ÑĢÐ¾Ñģ": 2809,
      "ĠÑħÐ¾ÑĤÑı": 2810,
      "!!": 2811,
      "ÐłÐµ": 2812,
      "ĠÐ¼Ð°ÑģÑģ": 2813,
      "ĠÑĢÐµÑĪÐµÐ½Ð¸Ðµ": 2814,
      "ÑĦÐ¾ÑĢÐ¼Ð¸": 2815,
      "ĠÐ½Ð°Ð¿Ð¸ÑģÐ°": 2816,
      "ÑĪÐ°ÐµÑĤ": 2817,
      "ĠÑĢÐ°Ð¹Ð¾Ð½Ðµ": 2818,
      "ÑĤÐµÐ³Ð¾ÑĢÐ¸": 2819,
      "ĠÐ´ÐµÐ»Ð°ÑĤÑĮ": 2820,
      "ÑİÑīÐµÐ³Ð¾": 2821,
      "ÑħÐ¾": 2822,
      "ĠÐºÑĢÑĥ": 2823,
      "ĠÐ¾Ð±ÐµÑģÐ¿ÐµÑĩÐ¸": 2824,
      "ĠÐ¼Ð°Ð³Ð°Ð·Ð¸": 2825,
      "ĠÐ¾ÑĤÐ´ÐµÐ»ÑĮ": 2826,
      "ĠÐ·Ð²Ñĥ": 2827,
      "ĠÑįÑĤÐ¸Ð¼": 2828,
      "ĠÐ¸ÑĤ": 2829,
      "ÑĤÐ°Ð»ÑĮ": 2830,
      "ĠÑģÐ°Ð¹ÑĤ": 2831,
      "ĠÐ½Ð°ÑĩÐ°Ð»Ð°": 2832,
      "ĠÐ¿ÑĢÐ°Ð²Ð°": 2833,
      "ĠÑģÑĢÐ°Ð²": 2834,
      "ĠÐŀÐ½Ð°": 2835,
      "ÐŀÑģ": 2836,
      "ĠÐ½Ð¸Ð¼": 2837,
      "ĠÐĿÐ¸ÐºÐ¾Ð»": 2838,
      "ĠÑĦÐ¾Ð½": 2839,
      "ĠÐ´Ð°Ð½Ð½ÑĭÐµ": 2840,
      "ĠÐ¼ÐµÑģÑĤÐµ": 2841,
      "Ð¸Ð¼Ñĥ": 2842,
      "ĠÐ¿Ð¸ÑĤÐ°": 2843,
      "ĠÑĤÑĭÑģÑıÑĩ": 2844,
      "ĠÑĩÐµÑĤ": 2845,
      "ÑĩÐµÐº": 2846,
      "ĠÐºÐ¸Ð½Ð¾": 2847,
      "ĠÐŁÐ¾ÑįÑĤÐ¾Ð¼Ñĥ": 2848,
      "ĠÑĤÑı": 2849,
      "Ð»ÐµÐµ": 2850,
      "se": 2851,
      "ÑģÐºÐ¾Ð»ÑĮÐºÑĥ": 2852,
      "ĠÐ»ÑİÐ±Ð¾Ð¹": 2853,
      "Ð¿Ð°Ñģ": 2854,
      "ĠÑģÐ¾ÑģÑĤÐ°Ð²Ð»ÑıÐµÑĤ": 2855,
      "ĠÐ¼ÐµÑĤÐ°Ð»": 2856,
      "ĠÐ²ÐºÑĥ": 2857,
      "__": 2858,
      "Ð¼Ð¾ÑĤÑĢÑı": 2859,
      "ĠÐ£ÐºÑĢÐ°Ð¸Ð½Ñĭ": 2860,
      "ÐŁÐ¾Ð´": 2861,
      "ÐĻ": 2862,
      "ÑĢÐ¾Ð·": 2863,
      "ĠÑĢÐ°Ð¼": 2864,
      "ĠÐ±Ð¾Ð»ÑĮÑĪÐ¸Ð½": 2865,
      "ĠÐºÑĢÐ°ÑģÐ¸": 2866,
      "ĠÑĢÐµÐ³Ð¸ÑģÑĤÑĢÐ°": 2867,
      "ĠÐ¾ÑĪÐ¸": 2868,
      "ĠÐ¶Ð¸Ð²Ð¾ÑĤ": 2869,
      "Ð»Ð¸ÑĤÑĮ": 2870,
      "ÑĮÐ¸": 2871,
      "Ð±Ð°ÑĤÑĭ": 2872,
      "ÑĤÐ¾Ð¹": 2873,
      "ĠÐ¿Ð¾Ñħ": 2874,
      "ub": 2875,
      "##": 2876,
      "ĠÐ¾Ð´Ð½Ð°": 2877,
      "Ð¾ÑĪ": 2878,
      "Ð¾ÑĢÑĤÐ¸": 2879,
      "ĠÑħÐ°ÑĢÐ°ÐºÑĤÐµÑĢÐ¸": 2880,
      "ĠÐ¼ÐµÐ¶Ð´ÑĥÐ½Ð°ÑĢÐ¾Ð´": 2881,
      "ĠÐ°Ð²ÑĤÐ¾Ð¼Ð¾Ð±Ð¸": 2882,
      "Ð·ÑĭÐ²Ð°ÐµÑĤ": 2883,
      "ĠÑĢÐ°Ð·ÑĢÐµ": 2884,
      "Ð¼ÐµÐ½Ð°": 2885,
      "ĠÑĦÐ¸Ð½Ð°Ð½ÑģÐ¾Ð²": 2886,
      "Ð¼Ð¸Ð½": 2887,
      "Ð½Ð¸ÑĤÐµ": 2888,
      "ĠÐ½Ð°Ð±Ð»Ñİ": 2889,
      "ĠÐ¿Ð¾ÐºÑĥÐ¿Ð°": 2890,
      "ÑĢÐ¾Ð´Ð°": 2891,
      "ĠÐ±Ñİ": 2892,
      "Ð±ÐµÑĢ": 2893,
      "ĠÐ¾Ð¿Ð»Ð°": 2894,
      "Ð³ÑĢÑĥÐ·": 2895,
      "ĠÑĦÐ¾ÑĢÐ¼Ñĥ": 2896,
      "ĠÑıÑĢ": 2897,
      "ÐºÑĨÐ¸Ñı": 2898,
      "ÑĤÐºÐ¸": 2899,
      "ĠÐĴÐ¾Ð·": 2900,
      "ÑĩÐµÑģÐºÑĥÑİ": 2901,
      "Ð¾ÑĢÐ¾Ð´": 2902,
      "ĠÐ½Ð¸Ð·": 2903,
      "Ġ`": 2904,
      "ÑĤÐ¾ÑĢÑĭ": 2905,
      "ĠÐ¼Ð¸Ðº": 2906,
      "ĠÐ³Ðµ": 2907,
      "ĠÐ½Ð°ÑĪÐµÐ¹": 2908,
      "ÑĤÐ¾Ðº": 2909,
      "ÑĪÐµÐ»": 2910,
      "ÑģÑĤÐ¾Ðº": 2911,
      "ĠÑıÐ½Ð²Ð°ÑĢÑı": 2912,
      "ĠÐ»Ð¸ÑĤÐµÑĢÐ°": 2913,
      "Ð´Ð¸ÑĤÐµ": 2914,
      "ĠÐ¿ÑĢÐ¸ÑĢÐ¾Ð´": 2915,
      "ĠÑįÑĤÑĥ": 2916,
      "Ð·Ñı": 2917,
      "Ð¾Ð»ÑĮÐ½Ð¾": 2918,
      "24": 2919,
      "ĠÐ¾Ð±Ð½Ð°": 2920,
      "ĠĠĠĠĠĠĠĠ": 2921,
      "Ð¼Ð¾Ð¶Ð½Ð¾": 2922,
      "ĠÑĤÐ²Ð¾ÑĢ": 2923,
      "ĠÐºÐ°ÐºÐ¾Ð¹": 2924,
      "ĠÐ¼ÐµÑħÐ°": 2925,
      "ÐºÐ»Ð°Ð´": 2926,
      "Ð¾Ð»ÐµÑĤ": 2927,
      "Ð»Ð¾Ð³Ð¾": 2928,
      "ĠÐ½Ð¸ÐºÐ°": 2929,
      "ĠÐ¼Ð½Ð¾Ð³Ð¸Ðµ": 2930,
      "Ð´ÑĢÐ°": 2931,
      "ĠÑĦÑĢÐ°Ð½": 2932,
      "ĠÐ¼Ð¸ÑĢ": 2933,
      "Ð¶Ð´Ñĭ": 2934,
      "ÑĢÐ¾Ð¹": 2935,
      "Ð´Ð°Ð½Ð¸Ðµ": 2936,
      "ĠÑĦÐ¾ÑĤÐ¾": 2937,
      "ĠÐ¼Ð¾Ñī": 2938,
      "Ð¢Ð°Ðº": 2939,
      "ĠÑĦÐµÐ²ÑĢÐ°": 2940,
      "ĠÐ¾ÑĤÐ»Ð¸ÑĩÐ°": 2941,
      "ĠÐ³Ð¾ÑĢÐ¾Ð´Ðµ": 2942,
      "ĠÑĦÑĥÑĤ": 2943,
      "ÑĢÑİ": 2944,
      "are": 2945,
      "ĠÐ±ÑĥÐº": 2946,
      "ĠÐļÑĢÐ¾Ð¼Ðµ": 2947,
      "ĠÐ¼Ð°Ñı": 2948,
      "ÑĤÑı": 2949,
      "ÑĤÐµÐ»ÑĮÐ½Ð¾Ðµ": 2950,
      "Ð³Ð¸Ð½Ð°": 2951,
      "ĠÐ¾Ð´Ð½Ð¸Ð¼": 2952,
      "ĠÑģÐ»Ð°": 2953,
      "ÐľÐ°": 2954,
      "ew": 2955,
      "ÑģÐ»ÑĥÐ¶Ð¸": 2956,
      "ÑĤÐ¾Ð½": 2957,
      "ĠÐ¿ÑĢÐ¸ÑĩÐ¸": 2958,
      "ÐłÐ°": 2959,
      "ĠÑĥÑģÐ¸": 2960,
      "Ð¼ÐµÑģÑĤ": 2961,
      "ĠÐ¾ÑĢÐ³Ð°Ð½Ð¸Ð·Ð°": 2962,
      "ĠThe": 2963,
      "ĠÐ¿Ð»Ð°Ð½Ð¸": 2964,
      "ĠÐ´ÐµÐ¼": 2965,
      "ÑĩÐ½Ð¾Ðµ": 2966,
      "ĠÐĲÐ½Ð´": 2967,
      "ĠÐĴÐ°Ð¼": 2968,
      "ĠÑĢÐ°Ð±Ð¾ÑĤÐµ": 2969,
      "ĠÑĥÐ¼": 2970,
      "ĠÑĢÐµÑĪÐµÐ½Ð¸Ñı": 2971,
      "Ð¿ÑĥÑĤÐ°": 2972,
      "ĠÐ§ÑĤÐ¾": 2973,
      "com": 2974,
      "ĠÐ§Ðµ": 2975,
      "our": 2976,
      "ĠÑģÐµÐ·": 2977,
      "ĠÑģÑĤÐ°Ð½Ð´Ð°ÑĢ": 2978,
      "ĠÐ²ÑĭÑĢÐ°": 2979,
      "ĠÐ¼Ð¸ÑĢÐµ": 2980,
      "ÑĩÐ½ÑĭÐ¼": 2981,
      "ĠÑģÑĤÐ°Ð²": 2982,
      "Ð¸Ð³": 2983,
      "ĠÐ´Ð¸Ð·Ð°": 2984,
      "ĠÐ¿ÑĢÐ¾ÐµÐºÑĤÐ°": 2985,
      "ĠÐ²Ð¾Ð·Ð½Ð¸Ðº": 2986,
      "ĠÐ±Ð»Ð¸Ð·": 2987,
      "Ð²ÑĪÐ¸Ðµ": 2988,
      "ÐºÐ°Ð´ÐµÐ¼Ð¸": 2989,
      "ÑĩÐ¸Ðº": 2990,
      "Ġi": 2991,
      "ĠÐ¿ÑĢÐ¾Ð¸ÑģÑħÐ¾Ð´Ð¸ÑĤ": 2992,
      "ĠÐ·Ð°ÑıÐ²Ð¸": 2993,
      "up": 2994,
      "âĢĿ": 2995,
      "ĠÑģÐµÐ»ÑĮ": 2996,
      "ok": 2997,
      "ĠÐ¿ÑĢÐ¾Ð´Ð¾Ð»Ð¶Ð°": 2998,
      "ĠÐ±Ð¾Ð»ÑĮÑĪÐ¾Ð¹": 2999,
      "ÑħÐ¾ÑĤ": 3000,
      "Ð¾Ð»Ð¾ÑĤ": 3001,
      "ĠÐ¾Ð±ÑĢÐ°Ð·Ð¾Ð²Ð°": 3002,
      "Ð·ÐµÐ¹": 3003,
      "ĠÐ²ÐµÐ»Ð¸": 3004,
      "ÐļÐ¾Ð¼": 3005,
      "ÐµÐ¼ÑĭÑħ": 3006,
      "Ð¾Ð¶ÐµÑĤ": 3007,
      "ĠÐ¼Ð°ÑĢÑĤÐ°": 3008,
      "Ð²Ð¾Ð´Ð°": 3009,
      "ĠÐ½Ð°Ð·Ð²Ð°Ð½Ð¸Ðµ": 3010,
      "ÑģÐºÑĥ": 3011,
      "ĠÐºÐ°Ð½Ð°": 3012,
      "ĠÐĶÐ¸": 3013,
      "Ð¾ÑĢÑĥÐ¶": 3014,
      "art": 3015,
      "ÑĤÑĭÑħ": 3016,
      "ÐµÑĪÑĮ": 3017,
      "ĠÑĢÐµÐ¼Ð¾Ð½": 3018,
      "ĠÐ½Ð¾Ð²ÑĭÑħ": 3019,
      "ĠÑİÑĢÐ¸": 3020,
      "ĠÑĥÐ»ÑĥÑĩ": 3021,
      "Ð¼Ñı": 3022,
      "ĠÐ´ÐµÑĢ": 3023,
      "Ð²Ð¸Ð°": 3024,
      "ĠÑĢÐµÐºÐ»Ð°": 3025,
      "ine": 3026,
      "ÑĥÑĩÐ°": 3027,
      "ĠÑįÐ»ÐµÐºÑĤÑĢÐ¾Ð½": 3028,
      "ĠÐºÐ¾Ð»Ð»ÐµÐº": 3029,
      "ĠÑħÑĢÐ°": 3030,
      "ĠÑĤÐ¾Ð½": 3031,
      "ĠÑĥÑĩÐ°ÑģÑĤÐ¸Ðµ": 3032,
      "ÑħÑĢÐ°Ð½": 3033,
      "ĠÐ¾Ð³ÑĢÐ¾Ð¼": 3034,
      "ĠÑģÐ²ÑıÐ·Ð°Ð½": 3035,
      "ĠÐ½ÐµÑģÐºÐ¾Ð»ÑĮ": 3036,
      "ĠÑĥÐ²Ð¸": 3037,
      "21": 3038,
      "ĠÐ³Ð¾Ð²Ð¾ÑĢÐ¸": 3039,
      "Ð·Ð¸Ð½": 3040,
      "ÐµÐ½ÑĤÐ¸": 3041,
      "ĠÐ²ÐµÐ´ÑĮ": 3042,
      "ÑĢÐ¸Ð½Ð°": 3043,
      "ĠÐ¿ÑĢÐ¾ÑĦÐµÑģÑģÐ¸Ð¾Ð½Ð°Ð»ÑĮ": 3044,
      "ĠÑĤÐ°ÐºÐ¾Ðµ": 3045,
      "ĠÐ¿Ð¾Ð´ÑĤÐ²ÐµÑĢ": 3046,
      "ĠÐ¾Ð±ÑĭÑĩÐ½Ð¾": 3047,
      "ĠÐ¸ÑģÐ¿Ð¾Ð»ÑĮÐ·Ñĥ": 3048,
      "ĠÐ³Ð¾": 3049,
      "ĠÑĢÐ°Ð·Ð½ÑĭÑħ": 3050,
      "ĠÐ¼Ð¾Ð´ÐµÐ»Ð¸": 3051,
      "ĠÑĥÐ²ÐµÐ»Ð¸ÑĩÐ¸": 3052,
      "ĠÑģÐ¾Ð±ÑĢÐ°": 3053,
      "ÑĪÑĥÑİ": 3054,
      "ĠÑĢÐ°ÑģÐ¿ÑĢÐ¾ÑģÑĤÑĢÐ°Ð½": 3055,
      "Ð»ÐµÐ½Ð¾": 3056,
      "ĠÐ¼Ð½Ð¾Ð³Ð¸Ñħ": 3057,
      "ĠÐ¾Ð¶Ð¸": 3058,
      "ĠÐ¿Ð»Ð°Ð½": 3059,
      "ĠÐ¾Ð±ÑĥÑĩ": 3060,
      "ĠÐļÐ¾ÑĢ": 3061,
      "ĠÐ²ÑĤÐ¾ÑĢÐ¾Ð¹": 3062,
      "ĠÐ¿Ð¾ÑģÐµ": 3063,
      "Ġ:": 3064,
      "ĠÑģÑĤÐ°Ð»Ð°": 3065,
      "ÑģÑĤÐ¸ÑĤÑĮ": 3066,
      "ĠÑĢÐ°Ð¹Ð¾Ð½": 3067,
      "ÑĢÐ¸ÑģÑĤÐ¸": 3068,
      "ĠÑģÐ¾ÑģÑĤÐ°": 3069,
      "ĠÐ¿Ð¾Ð¼Ð¾ÑīÐ¸": 3070,
      "ĠÐ½Ð¾Ð²ÑĭÐµ": 3071,
      "ĠÑģÐ¿Ð¾ÑĢ": 3072,
      "ĠÐ¾ÑĨÐµÐ½": 3073,
      "Ð½ÐµÐ½": 3074,
      "ĠÑģÑĢÐ¾Ðº": 3075,
      "ĠÐ·Ð°ÐºÐ»Ñİ": 3076,
      "ĠÐ¾ÑĦÐ¾ÑĢÐ¼": 3077,
      "ĠÐ»ÐµÐ³ÐºÐ¾": 3078,
      "ĠÐ¿ÑĢÐµÐ·Ð¸Ð´": 3079,
      "ĠÐĺÑģÐ¿": 3080,
      "ĠÐľÐ¾ÑģÐºÐ²Ðµ": 3081,
      "ĠÑĩÐ°ÑģÐ¾Ð²": 3082,
      "ĠÐ·Ð°Ð²ÐµÑĢ": 3083,
      "ĠÐºÑĢÑĭ": 3084,
      "Ð¾ÑģÐ¸": 3085,
      "ĠÐ¸Ð½ÑĦ": 3086,
      "int": 3087,
      "Ð¾ÑĤÐ°": 3088,
      "ĠÑĩÐµÐ¼Ð¿Ð¸": 3089,
      "ĠÐ¤ÐµÐ´ÐµÑĢÐ°ÑĨÐ¸Ð¸": 3090,
      "Ð»Ð¸Ð·Ð°": 3091,
      "ĠÐ¿Ð¸ÑģÑĮ": 3092,
      "ĠÐ´ÐµÐºÐ°Ð±ÑĢÑı": 3093,
      "ĠÐ¿Ð¾Ð»ÐµÐ·": 3094,
      "ĠÑĤÐµÐ¿ÐµÑĢÑĮ": 3095,
      "ĠÑģÐ¸Ð½": 3096,
      "Ð±Ð¸ÑĤ": 3097,
      "ĠÑģÐ¾Ð¾Ð±ÑīÐ¸": 3098,
      "ĠÐ¿ÑĢÐ¾ÑģÑĤ": 3099,
      "Ð¾Ð³ÑĢÐ°ÑĦÐ¸Ñı": 3100,
      "ĠÐºÐ¾ÑĤÐ¾ÑĢÑĥÑİ": 3101,
      "ĠÐĽÑĥ": 3102,
      "Ð²Ð°ÑĢÐ¸": 3103,
      "ÐľÑĭ": 3104,
      "Ð´Ð°ÑİÑĤ": 3105,
      "ĠÐ¾ÑĤÐµ": 3106,
      "ĠÑĥÑģÐ»Ð¾Ð²Ð¸ÑıÑħ": 3107,
      "ame": 3108,
      "ĠÐ´Ð¸ÑĢÐµ": 3109,
      "ĠÐ·Ð°ÐºÑĢÑĭ": 3110,
      "Ð½Ð¸Ð½": 3111,
      "ĠÐ´Ð¾Ð»Ð¶Ð½Ð°": 3112,
      "ĠÐºÐ»Ð°ÑģÑģÐ¸": 3113,
      "ĠÐ¿ÑĢÐ¸Ð½ÑĨÐ¸": 3114,
      "Ð°Ð»Ð¾Ð²": 3115,
      "ĠÑĢÐµÑĪ": 3116,
      "ĠÐ¿ÑĢÐ¸Ð¼ÐµÐ½Ñı": 3117,
      "Ð½Ð¾Ðº": 3118,
      "ĠÑĨÐµÐ»ÑĮ": 3119,
      "ĠÐ²Ð¿": 3120,
      "ĠÑĤÑĥÑĢ": 3121,
      "Ð¾Ð³Ðµ": 3122,
      "ĠÐĳÐ¾Ð»ÑĮ": 3123,
      "Ð¾Ð»Ð°": 3124,
      "Ð¶Ð½Ð¾Ð¹": 3125,
      "ĠÐ¾ÑģÐ½Ð¾Ð²Ðµ": 3126,
      "ĠÐ¸Ð¼ÐµÐ½Ð¸": 3127,
      "quest": 3128,
      "ĠÐºÐ¼": 3129,
      "Ð»ÑĮÐ½ÑĭÐ¼": 3130,
      "Ð¼ÑĭÑģ": 3131,
      "ĠÐ²Ð¾Ð¿ÑĢÐ¾ÑģÑĭ": 3132,
      "ĠÐºÐ¾Ð½ÐºÑĥÑĢ": 3133,
      "Ð´Ð¸Ð²Ð¸Ð´Ñĥ": 3134,
      "ĠÐ¼Ð°ÐºÑģÐ¸Ð¼Ð°": 3135,
      "ÑģÑĤÐ²ÑĥÑİÑĤ": 3136,
      "23": 3137,
      "ĠÐºÐ°ÑĤÐ°": 3138,
      "ĠÐ½Ð¾Ð²ÑĭÐ¹": 3139,
      "ĠÑĢÐ¾Ð»ÑĮ": 3140,
      "Ð¾Ð¸": 3141,
      "Ð·Ð°Ð´": 3142,
      "ĠÐ´ÑĥÐ¼Ð°": 3143,
      "Ġ40": 3144,
      "ĠÐ±Ð»Ð¸": 3145,
      "ĠÑģÑĥÐ±": 3146,
      "ĠÐµÐ´Ð¸Ð½": 3147,
      "ĠÐ±Ð°Ð·": 3148,
      "ĠÑģÐ²ÑıÐ·Ð°": 3149,
      "ĠÐŁÑĢÐµÐ´": 3150,
      "ĠÐ³ÑĢÑĥ": 3151,
      "ÑĩÐµÑģÐºÐ¾Ð¼": 3152,
      "ÑģÑĥÑĢ": 3153,
      "Ð»ÑĭÑħ": 3154,
      "ĠÐ½Ð¸ÑĩÐµÐ³Ð¾": 3155,
      "ĠÑģÐ¾ÑģÑĤÐ°Ð²Ð»Ñı": 3156,
      "ĠÐ¸Ð·Ð¾Ð±ÑĢÐ°Ð¶": 3157,
      "Ð»Ð¸Ð½Ð°": 3158,
      "ĠÑĤÐ¾Ð»": 3159,
      "Ð¾Ð±ÑīÐµ": 3160,
      "Ð°Ð½Ð°": 3161,
      "ÑĢÐ´": 3162,
      "ĠÐ¿ÑĢÐ°ÐºÑĤÐ¸ÑĩÐµÑģÐºÐ¸": 3163,
      "40": 3164,
      "ĠÐ¿Ð¾Ð¼Ð¾Ð³Ð°": 3165,
      "Ð³Ð½Ð°": 3166,
      "ĠÑĤÐ¸Ð¿Ð°": 3167,
      "ĠÑĤÐ¾Ð¼Ñĥ": 3168,
      "Ð±Ð¸Ð½": 3169,
      "ĠÑĤÐµÐ°ÑĤ": 3170,
      "ĠÐ´Ð¾Ð»Ð¶Ð½Ð¾": 3171,
      "Ð½Ð¸ÐºÐ°Ð¼Ð¸": 3172,
      "ĠÐ¾ÐºÑĤÑıÐ±ÑĢÑı": 3173,
      "Ð¡ÑģÑĭÐ»ÐºÐ¸": 3174,
      "ĠÐ¿ÑĢÐ¸Ñģ": 3175,
      "ÑĨÐµÐ¿": 3176,
      "Ð½Ð¸ÑĨÑĥ": 3177,
      "199": 3178,
      "ÐºÐ¾Ð»ÑĮ": 3179,
      "ÑĨÐ¸Ð¾Ð½Ð½ÑĭÑħ": 3180,
      "ĠÐ¸ÑģÐ¿Ð¾Ð»ÑĮÐ·Ð¾Ð²Ð°Ð½Ð¸Ñı": 3181,
      "ÐŁÐµÑĤ": 3182,
      "ÑĤÐµÐ»ÑĮÑģÑĤÐ²Ð¾": 3183,
      "ĠÐĳÑĥ": 3184,
      "ĠÐ¿ÑĢÐ¸Ð»Ð¾Ð¶": 3185,
      "ind": 3186,
      "ĠÑĢÐ°Ð·Ð´Ðµ": 3187,
      "ÑĥÑĩÐ¸": 3188,
      "ĠÐ¸Ð·Ð³Ð¾ÑĤÐ¾Ð²": 3189,
      "Ð®": 3190,
      "ĠÐ´ÐµÐ»Ð¾": 3191,
      "ĠÑĥÐ´Ð¾Ð²": 3192,
      "Ġx": 3193,
      "tp": 3194,
      "ĠÑģÐ¸ÑģÑĤÐµÐ¼Ð°": 3195,
      "ĠÑĪÐ¸ÑĢÐ¾Ðº": 3196,
      "ÑģÐºÐ¸Ð¼Ð¸": 3197,
      "ĠÐºÐ»Ñİ": 3198,
      "ĠÐ¡Ð°Ð¼": 3199,
      "ÐºÑĥÐ»ÑĮ": 3200,
      "Ð¶Ð¸Ð¼": 3201,
      "Ð«": 3202,
      "ÐµÐ¼ÑĭÐµ": 3203,
      "ĠÐ²Ð»Ð°ÑģÑĤÐ¸": 3204,
      "ÑĤÑĮÑı": 3205,
      "ĠÐ°ÐºÑĤ": 3206,
      "ĠÐ¡Ñĥ": 3207,
      "ĠÐ°Ð¿ÑĢÐµÐ»Ñı": 3208,
      "iz": 3209,
      "ĠÐ´ÑĢÐµÐ²": 3210,
      "ĠÐ¶ÐµÐ»ÐµÐ·": 3211,
      "ĠÐ¿ÑĢÐ¸Ð±Ñĭ": 3212,
      "ĠÐ¿Ð¾ÐºÑĥÐ¿": 3213,
      "ÐºÑĤÐ°": 3214,
      "ĠÑĪÑĤÐ°": 3215,
      "ĠÐ¿Ð¾Ð»ÑĥÑĩÐ¸Ð»": 3216,
      "ĠÐ¾Ð´Ðµ": 3217,
      "Ġ#": 3218,
      "ĠÑģÐµÐ½ÑĤÑıÐ±ÑĢÑı": 3219,
      "ĠÐ±Ð¾Ð»ÐµÐ·": 3220,
      "ĠÐ´Ð²Ð¸Ð³Ð°": 3221,
      "ĠÐ½Ð°ÑĨÐ¸Ð¾Ð½Ð°Ð»ÑĮ": 3222,
      "Ð¾Ð²ÑĭÑħ": 3223,
      "ĠÐ¸ÑİÐ»Ñı": 3224,
      "ĠÐ½Ð°Ð¹": 3225,
      "ĠÑĥÐ²ÐµÑĢ": 3226,
      "ĠÑģÐµÑĢÐµ": 3227,
      "Ð¸Ð¼Ð¾ÑģÑĤÐ¸": 3228,
      "ÑģÑĤÐ²ÑĥÑİ": 3229,
      "ĠÐ´Ð¾Ð»Ð»Ð°": 3230,
      "ÐµÐ²Ð°": 3231,
      "ĠÐ³ÑĥÐ±": 3232,
      "Ð¡Ð¢": 3233,
      "Ð·ÐµÐ¼": 3234,
      "ÐłÐ°Ð·": 3235,
      "ÐŁÐ¾ÑģÐ»Ðµ": 3236,
      "ÑģÑĤÐ¾Ð¼": 3237,
      "ĠÐ¿ÑĢÐ¾Ð³ÑĢÐ°Ð¼Ð¼Ñĭ": 3238,
      "Ð¾ÐºÐ°Ð·Ð°": 3239,
      "Ð¶Ð½Ð¾": 3240,
      "ĠÐ±Ð»Ð°Ð³Ð¾Ð´Ð°ÑĢÑı": 3241,
      "ĠÑĦÐ°Ð¹": 3242,
      "ĠÑģÐ°Ð¹ÑĤÐ°": 3243,
      "ÑĨÑĥÐ·": 3244,
      "ĠÐ´Ð¾ÑģÑĤÐ°Ð²": 3245,
      "ÑĭÑĪÐ»ÐµÐ½": 3246,
      "ÑĤÐµÐ»ÑĮÐ½ÑĭÐ¼": 3247,
      "ĠÐ¼Ð°ÑĤ": 3248,
      "Ð»ÑıÑĤÑĮ": 3249,
      "ĠÐ¿ÑĢÐ¾Ð¸Ð·Ð²Ð¾Ð´ÑģÑĤÐ²Ð°": 3250,
      "60": 3251,
      "ĠÐ¿Ð¾ÐºÑĢÑĭ": 3252,
      "ĠÐ½Ð°ÑģÐµÐ»ÐµÐ½Ð¸Ñı": 3253,
      "ĠÐ¿Ð¾Ð¶": 3254,
      "Ð»Ð¾Ð¿": 3255,
      "ÐµÐ½Ð½Ð¾ÑģÑĤÐ¸": 3256,
      "80": 3257,
      "ĠÐ´ÐµÐ¹ÑģÑĤÐ²Ð¸Ñı": 3258,
      "ÑįÐ½": 3259,
      "ÐĿÐ¾": 3260,
      "ĠÐ±ÐµÐ·Ð¾Ð¿Ð°ÑģÐ½Ð¾ÑģÑĤÐ¸": 3261,
      "ĠÐ¾Ð¿Ð¸ÑģÐ°": 3262,
      "ĠÐ±ÐµÑģÐ¿Ð»Ð°ÑĤÐ½Ð¾": 3263,
      "Ð·ÑĮ": 3264,
      "ĠÑĦÐ¾ÑĢÐ¼Ð¸": 3265,
      "ÑģÑĤÐ¾ÑĢÐ¸Ñı": 3266,
      "Ð±ÑĥÑĢ": 3267,
      "Ð»Ð¸Ð¼": 3268,
      "ÑĤÐ½Ð¾Ð¹": 3269,
      "ĠÐ²ÑģÑĤÑĢÐµÑĩÐ°": 3270,
      "Ð½Ð¾Ð¿": 3271,
      "ÐĴÑģÐµ": 3272,
      "Ð¿Ð¾Ð½": 3273,
      "Ð½Ð°Ð¼": 3274,
      "ĠÐķÐ³Ð¾": 3275,
      "ĠÐ²Ð·Ð°Ð¸Ð¼": 3276,
      "//": 3277,
      "ĠÑĢÐ°ÑģÑĪÐ¸": 3278,
      "ĠÐ¿ÑĢÐ¾Ð±Ð»ÐµÐ¼Ñĭ": 3279,
      "ĠÐºÐ°ÑĤÐµÐ³Ð¾ÑĢÐ¸": 3280,
      "ÑīÐ¸Ð¼": 3281,
      "ĠâĢľ": 3282,
      "ĠÐµÐ¹": 3283,
      "Ð¶Ð½ÑĭÑħ": 3284,
      "))": 3285,
      "ĠÑģÐ¾ÑģÑĤÐ¾": 3286,
      "ĠÐĺÐ²Ð°": 3287,
      "ĠÐ³Ð°ÑĢÐ°Ð½": 3288,
      "ĠÐ¿ÑĢÐµÐ´Ð¿Ð¾Ð»": 3289,
      "Ð¾ÑĤÑĢÐµÐ±": 3290,
      "ĠÐ¾ÑĤÐ´": 3291,
      "ĠÐ°Ð½Ð³Ð»Ð¸Ð¹": 3292,
      "ĠÐ½Ð°ÑĩÐ°Ð»Ðµ": 3293,
      "ĠÑĢÐ°Ð±Ð¾ÑĤÐ°ÐµÑĤ": 3294,
      "ĠÐ¸ÑģÑģÐ»ÐµÐ´Ð¾Ð²Ð°": 3295,
      "ĠÐ¼ÐµÐ´Ð¸ÑĨÐ¸Ð½": 3296,
      "ĠÑģÑĤÐ¾Ð¸Ð¼Ð¾ÑģÑĤÑĮ": 3297,
      "ĠÐ·Ð°Ð¼ÐµÑĤ": 3298,
      "ĠÑģÐ¼Ð¾Ð³": 3299,
      "Ð½Ð¾ÑģÐ¸": 3300,
      "Ð¶Ð´Ðµ": 3301,
      "ĠÐ¾ÑĪÐ¸Ð±": 3302,
      "ĠÐºÐ°Ð·Ð¸Ð½Ð¾": 3303,
      "ĠÑģÐ°Ð¼Ð¸": 3304,
      "Ð²Ð¾Ð±": 3305,
      "ÑĨÐ¸Ð¾Ð½Ð°": 3306,
      "Ġun": 3307,
      "ĠÐ¸ÑİÐ½Ñı": 3308,
      "ĠÐ½ÐµÐºÐ¾ÑĤÐ¾ÑĢÑĭÐµ": 3309,
      "ĠÑĥÐ·": 3310,
      "ÑĩÐµÑģÑĤÐ²Ð°": 3311,
      "ĠÐ°Ð²ÑĤ": 3312,
      "ĠÐļÐ¾Ð³Ð´Ð°": 3313,
      "ÑĨÐµÐ½Ð¸": 3314,
      "ĠÐ²ÑģÐµÐ¹": 3315,
      "Ð¾Ð¼ÐµÑĤ": 3316,
      "ÑĦÑĦÐµ": 3317,
      "Ð·Ð°Ñħ": 3318,
      "ak": 3319,
      "ÑĤÐ½ÑĭÐµ": 3320,
      "ĠÑĢÐ°Ð±Ð¾ÑĤÐ°ÑĤÑĮ": 3321,
      "ĠÐ¿ÑĭÑĤÐ°": 3322,
      "ĠÐ¾ÑĤÐ½Ð¾ÑĪÐµÐ½Ð¸Ñı": 3323,
      "ĠÐ½Ð°Ð»": 3324,
      "ĠÐ¾Ð¿ÑĭÑĤ": 3325,
      "ÑĨÐ°Ð¼Ð¸": 3326,
      "ĠÐ¾Ð¿ÑĤÐ¸": 3327,
      "ĠÑģÐ²Ðµ": 3328,
      "ĠÐ²Ð¾Ð·Ð¼Ð¾Ð¶Ð½Ð¾ÑģÑĤÐ¸": 3329,
      "ĠÐ¼Ð°Ð»ÐµÐ½ÑĮ": 3330,
      "ĠÑģÐ²Ð¾Ð±Ð¾Ð´": 3331,
      "ÑĤÐ½ÑĭÑħ": 3332,
      "ĠÑģÐµÑĢÑĮ": 3333,
      "ĠÑĢÑı": 3334,
      "ĠÐ¾Ð±ÑĢÐ°ÑĤÐ¸": 3335,
      "ĠÑĤÐ¾Ñĩ": 3336,
      "ĠÐºÐ°ÐºÐ¸Ðµ": 3337,
      "ĠÑģÐµÑĢÐ²Ð¸": 3338,
      "Ð´ÐµÐ±": 3339,
      "ÑĢÑĥÑİÑĤ": 3340,
      "Ð´Ð¸Ñı": 3341,
      "ĠÐķÐ²": 3342,
      "ĠÐŀÑĢ": 3343,
      "Ð»Ð¸Ð²": 3344,
      "ĠÐ°ÑĤ": 3345,
      "ant": 3346,
      "ĠÐ·Ð°Ð¼": 3347,
      "ĠÑĤÐ°ÐºÐ¸Ð¼": 3348,
      "ĠÑĥÑģÐ¿ÐµÑĪ": 3349,
      "ĠÐµÐ²": 3350,
      "ÑĩÐ¸ÑĤ": 3351,
      "ĠÐ°Ð²ÑĤÐ¾": 3352,
      "ĠÐ¾Ð·": 3353,
      "ĠÐĴÐµÑĢ": 3354,
      "ĠÑģÐ°Ð¼Ð¾ÑģÑĤÐ¾Ñı": 3355,
      "ĠÑĥÑģÐ»ÑĥÐ³": 3356,
      "ĠÑĤÑĥÑĤ": 3357,
      "ĠÐ¿ÑĥÐ±Ð»Ð¸": 3358,
      "ĠÐ¿ÑĢÐ¸Ð²Ð¾Ð´": 3359,
      "ĠÐ·Ð°Ð²Ð¸ÑģÐ¸Ð¼Ð¾ÑģÑĤÐ¸": 3360,
      "ĠÐ´Ð°Ð²": 3361,
      "ĠÐ´ÑĢÐ°": 3362,
      "Ð¼Ð¾Ð¹": 3363,
      "ĠÐ±ÑĢÐ¸": 3364,
      "ĠÐ¿ÑģÐ¸Ñħ": 3365,
      "ĠÐ½Ð°Ð·Ð°Ð´": 3366,
      "ĠÐ±Ð°Ð»": 3367,
      "ĠÑĢÐ°ÑģÑģÐºÐ°Ð·Ð°": 3368,
      "ĠÐ¿Ð¾ÑģÐºÐ¾Ð»ÑĮÐºÑĥ": 3369,
      "ĠÐ·Ð°Ð¿Ñĥ": 3370,
      "Ġ(Â«": 3371,
      "Ð´Ð¸ÑĤÑĮ": 3372,
      "ÑĢÐ¾ÐºÐ°": 3373,
      "ÐµÑħÐ°": 3374,
      "ĠÐºÐ°ÑĩÐµÑģÑĤÐ²Ð°": 3375,
      "ĠÐ¸Ð½ÑĦÐ¾ÑĢÐ¼Ð°ÑĨÐ¸Ñİ": 3376,
      "ĠÑĩÐ¸ÑģÐ»Ð¾": 3377,
      "ĠSt": 3378,
      "ĠÐºÐ¾Ð½Ñģ": 3379,
      "ĠÐ¸Ð½Ð´Ð¸Ð²Ð¸Ð´Ñĥ": 3380,
      "Ð¶Ð´ÐµÐ½Ð¸Ðµ": 3381,
      "ple": 3382,
      "Ð¼ÐµÑģÑĤÐ¸": 3383,
      "ÑĩÐ°Ð¹": 3384,
      "ÐºÑĢÐµÐ¿": 3385,
      "wer": 3386,
      "one": 3387,
      "ĠÐ¼ÐµÑĤÐ¾Ð´": 3388,
      "ÑĪÐ»Ð°": 3389,
      "Ð»Ð°Ð¼Ð¸": 3390,
      "ĠÐ²ÑģÐ¿": 3391,
      "ĠÐ²ÐµÑĤ": 3392,
      "ge": 3393,
      "rom": 3394,
      "Ġ*": 3395,
      "Ð¶ÐµÑĤ": 3396,
      "ĠÐĽÐ°": 3397,
      "ĠÐ¿Ð¾Ð·Ð´": 3398,
      "ĠÑĦÐ¸Ð»ÑĮÐ¼": 3399,
      "rac": 3400,
      "ĠÑģÑĤÐ°Ð»Ð¾": 3401,
      "ÑĪÐ¸ÑĤÑĮ": 3402,
      "Ð¾Ð±Ð¸Ð»ÑĮ": 3403,
      "ĠÐ¿ÐµÑĢÑģÐ¾Ð½Ð°": 3404,
      "ĠÐ²Ð¾Ðº": 3405,
      "ÐĶÐ°": 3406,
      "ĠÐľÐ¾ÑģÐºÐ¾Ð²": 3407,
      "ĠÑĤÐ¾Ð¿": 3408,
      "ĠÐ±Ð¸Ð·Ð½Ðµ": 3409,
      "ĠÐ¾Ð±ÑĢÐ°Ð·Ð¾Ð²Ð°Ð½Ð¸Ñı": 3410,
      "Ð½Ð¸ÑĨÐµ": 3411,
      "ĠÑģÑĬ": 3412,
      "Ð»ÑıÐµÑĤ": 3413,
      "ĠÐ¿Ð¾Ñį": 3414,
      "ÑĩÐµÐ½Ð¸Ð¸": 3415,
      "ĠÑĢÐ°Ð¼ÐºÐ°Ñħ": 3416,
      "Ð¼Ð°Ñı": 3417,
      "ÑĩÐ¸ÑĤÑĭ": 3418,
      "ĠÐ²ÑĭÐ´Ð°": 3419,
      "ĠÐ²Ð¾Ð»Ð¾Ñģ": 3420,
      "Ð²ÑĪÐµÐ³Ð¾": 3421,
      "ÑĨÐ¸Ð¾Ð½Ð½Ð¾Ð¹": 3422,
      "ĠÐĵÐµÑĢÐ¼Ð°": 3423,
      "ĠÐłÑĥ": 3424,
      "----": 3425,
      "ĠÐ¿Ð°ÑĢÑĤ": 3426,
      "Ð¡Ð¾": 3427,
      "ĠÐ²ÑģÑı": 3428,
      "ĠÐ½ÐµÐºÐ¾ÑĤÐ¾ÑĢÑĭÑħ": 3429,
      "ĠÐ¸Ð½Ð²ÐµÑģÑĤÐ¸": 3430,
      "ĠÑĥÐ±Ðµ": 3431,
      "Ð»Ð»Ð¸": 3432,
      "ĠÐ¾ÐºÐ°Ð·ÑĭÐ²Ð°": 3433,
      "Ð´ÑĨÐ°": 3434,
      "Ð¾Ð»Ð¾Ð³": 3435,
      "ĠÐ²Ð¾ÑģÑģÑĤÐ°Ð½Ð¾Ð²": 3436,
      "ĠÐ¡ÑĤ": 3437,
      "ĠÑĦÐµÐ²ÑĢÐ°Ð»Ñı": 3438,
      "ĠÑĤÑĭÑģ": 3439,
      "ĠÐ·Ð°ÐºÐ°Ð·Ð°": 3440,
      "ĠÐ¿Ð¾Ð¿Ð°": 3441,
      "Ð·Ñĥ": 3442,
      "ĠÐ¸Ð·Ð¼ÐµÐ½ÐµÐ½Ð¸Ñı": 3443,
      "ĠÐ½Ð¾ÑıÐ±ÑĢÑı": 3444,
      "ĠÑģÐ»ÐµÐ´ÑĥÑİ": 3445,
      "question": 3446,
      "ĠÑĢÐµÑģÑĥÑĢ": 3447,
      "Ð¾Ð¹ÑĤÐ¸": 3448,
      "ĠÐŁÐµ": 3449,
      "ĠÑģÐµÑĤÐ¸": 3450,
      "ĠÐĿÐ°Ð¿ÑĢÐ¸Ð¼ÐµÑĢ": 3451,
      "ÑĢÐµÐ¼ÐµÐ½Ð½Ð¾": 3452,
      "Ð¿Ð»Ð¸": 3453,
      "ĠÐºÐ¾Ð¼Ð½Ð°": 3454,
      "ĠÐºÐ°Ð¶Ð´Ð¾Ð³Ð¾": 3455,
      "Ð¾Ð½Ð´": 3456,
      "ĠÐ·Ð°Ð¿Ð°": 3457,
      "ÑĩÐµÑģÐºÐ¸Ð¼Ð¸": 3458,
      "Ġ23": 3459,
      "ĠÐ²ÐºÐ»Ñİ": 3460,
      "ĠÐ¿Ð¾ÑģÐµÑĤ": 3461,
      "ĠÐ´Ð¾Ðº": 3462,
      "Ð¾Ð³Ð¸Ðµ": 3463,
      "ment": 3464,
      "ĠÑĩÐµÑĤÑĭÑĢÐµ": 3465,
      "ĠÐºÐ¾Ð½ÐµÑĩÐ½Ð¾": 3466,
      "ĠÐ¿ÐµÑĢÐµÐ²Ð¾Ð´": 3467,
      "ĠÐ¿ÑĢÐ¾ÑģÑĤÑĢÐ°Ð½": 3468,
      "ĠÑģÐµÐ¼ÐµÐ¹": 3469,
      "ĠÐľÐ°Ðº": 3470,
      "Ð¾ÑģÐ¾": 3471,
      "ĠÐ¿Ð»Ð°ÑģÑĤÐ¸": 3472,
      "ĠÑĢÐ°ÑģÐº": 3473,
      "ĠÐºÐ¾Ð¼Ð¿Ð»ÐµÐº": 3474,
      "ĠÐ²Ð°ÑĢÐ¸Ð°Ð½ÑĤ": 3475,
      "ĠÐ¿ÑĥÑĤÐµ": 3476,
      "ĠÑģÐµÐ²ÐµÑĢ": 3477,
      "ĠÐ¾ÐºÐ¾Ð½ÑĩÐ°": 3478,
      "Ð°Ð½Ðµ": 3479,
      "ĠÐ¿ÑĢÐµÐ´ÑģÑĤÐ°Ð²Ð»Ñı": 3480,
      "ord": 3481,
      "Ð»ÑĭÐ¹": 3482,
      "ÑģÑĤÐ°Ð½Ð°Ð²Ð»Ð¸": 3483,
      "Ð¾ÑĤÐ¾": 3484,
      "ĠÑħÐ¾Ð·ÑıÐ¹": 3485,
      "ĠÐ·Ð°Ð²Ð¾Ð´": 3486,
      "ĠÐºÐ°Ð¼": 3487,
      "ĠÑĤÐµÐ»ÐµÑĦÐ¾Ð½": 3488,
      "ob": 3489,
      "ĠÑģÐºÐ°Ð·Ð°Ð»": 3490,
      "ĠÐĶÐ¾": 3491,
      "Ð¾Ð²ÑĭÐµ": 3492,
      "Ġ22": 3493,
      "ÑİÑīÐµÐµ": 3494,
      "ĠÐ°Ð²Ð³ÑĥÑģÑĤÐ°": 3495,
      "ÐºÐ½Ñĥ": 3496,
      "ĠÐľÑĥ": 3497,
      "Ð»ÑıÑħ": 3498,
      "ĠÐ½ÐµÐ¼ÐµÑĨ": 3499,
      "ĠÐ²ÑĭÐ´Ðµ": 3500,
      "ĠÐºÐ¸Ñģ": 3501,
      "ĠÐ¶Ð¸": 3502,
      "ĠÑģÐ¾Ð±Ð¸ÑĢÐ°": 3503,
      "Ð½Ð°Ð´Ð»Ðµ": 3504,
      "ÑĤÐ¾ÑĢÐ¾Ð²": 3505,
      "ĠÑģÑĤÐ¾Ð»Ð¸": 3506,
      "ĠÐ¸ÑģÐ¿Ð¾Ð»ÑĮÐ·ÑĥÐµÑĤÑģÑı": 3507,
      "ÑģÑĤÐ²ÐµÐ½Ð½Ð¾Ðµ": 3508,
      "ÑĤÐµÐ»ÑĮÐ½Ð¾ÑģÑĤÑĮ": 3509,
      "ÑīÐµÐ½Ð¸Ð¸": 3510,
      "Ð°Ð»ÑĮÐ½Ð¾": 3511,
      "ĠÑģÑĨ": 3512,
      "ĠÑĢÐµÐ±ÐµÐ½ÐºÐ°": 3513,
      "ÐŁÐµÑĤÐµÑĢÐ±ÑĥÑĢ": 3514,
      "ÐĿÐĺ": 3515,
      "ĠÑħÐ°ÑĢÐ°ÐºÑĤÐµÑĢ": 3516,
      "ÑĢÐ°Ð»": 3517,
      "Ð½ÑıÐµÑĤ": 3518,
      "Ð¿ÐµÑĢÐ²ÑĭÐµ": 3519,
      "Ð±ÑĢÐ°Ð½": 3520,
      "ĠÐłÐµÑģÐ¿ÑĥÐ±Ð»Ð¸": 3521,
      "Ð´Ð¸ÑĤ": 3522,
      "ww": 3523,
      "ith": 3524,
      "ÑĥÐ³": 3525,
      "ĠÐ¾ÑĢÐ³Ð°Ð½": 3526,
      "ĠÐ´ÑĢ": 3527,
      "Ð¿Ð¾Ð¼": 3528,
      "Ð¼Ð¸Ð½Ð°": 3529,
      "ÑĦÐ¸Ð»ÑĮ": 3530,
      "ĠÑĥÐ±Ð¸": 3531,
      "ight": 3532,
      "ĠÑģÑİ": 3533,
      "Ð½Ð¾ÑģÑĤÐµÐ¹": 3534,
      "ĠÑĥÑĢÐ¾Ð²ÐµÐ½ÑĮ": 3535,
      "Ġcom": 3536,
      "ĠÐ³Ð»ÑĥÐ±": 3537,
      "ĠÐ¿ÑĢÐ¾ÑĨÐµÐ´Ñĥ": 3538,
      "Ð½ÑıÐµÑĤÑģÑı": 3539,
      "Ð¢Ð°": 3540,
      "ast": 3541,
      "answer": 3542,
      "Ð¼Ð¾Ñģ": 3543,
      "Ġ//": 3544,
      "ÑıÑĤÐ¸Ðµ": 3545,
      "Ð¹ÑĤÐµÑģÑĮ": 3546,
      "ĠÐ±ÑİÐ´Ð¶": 3547,
      "ĠÑĥÐ½Ð¸ÐºÐ°": 3548,
      "ĠÐ²Ð°ÑĪ": 3549,
      "Ð½Ð¸Ð»": 3550,
      "Ð½Ð¾ÑģÑĤÑĢÐ°Ð½": 3551,
      "ĠÐ½Ñĥ": 3552,
      "ÐĴÐ¾": 3553,
      "port": 3554,
      "ÑĢÐ¾Ð²ÐºÐ¸": 3555,
      "ĠÐ¾ÑĩÐµÑĢÐµÐ´ÑĮ": 3556,
      "ĠÐ³Ð¾Ð»Ð¾Ñģ": 3557,
      "Ġ'": 3558,
      "ÑģÐ¾Ð½": 3559,
      "ĠII": 3560,
      "ĠÐ·Ð°Ð¿ÑĢÐµ": 3561,
      "ĠÐ¾ÑĤÐ»Ð¸ÑĩÐ¸": 3562,
      "ĠÑģÑĤÐ°Ð½Ð¾Ð²Ð¸ÑĤÑģÑı": 3563,
      "ĠÐºÐ½Ñı": 3564,
      "ĠÐ¼ÑĥÐ·ÑĭÐºÐ°": 3565,
      "Ð±Ð¾Ð¼": 3566,
      "ĠÐĲÐ»ÐµÐºÑģÐ°Ð½Ð´ÑĢ": 3567,
      "ĠÐ´ÐµÐ»Ðµ": 3568,
      "Ð»Ð¸ÑĤ": 3569,
      "ĠÐ²ÐµÑģ": 3570,
      "ĠÐ¿ÑĢÐ¸Ð½Ð°Ð´Ð»Ðµ": 3571,
      "ie": 3572,
      "ĠÐ°Ð²ÑĤÐ¾Ð¼Ð°ÑĤÐ¸": 3573,
      "Ġk": 3574,
      "ĠÐ¾Ð±ÑĬÑıÑģ": 3575,
      "ng": 3576,
      "ĠÐ½Ð¾Ð²Ð¾Ð³Ð¾": 3577,
      "Ð¬": 3578,
      "Ġ2016": 3579,
      "Ð¿Ð¸ÑĪÐ¸": 3580,
      "ĠÐ¼Ð¼": 3581,
      "```": 3582,
      "Ð»ÐµÐ³": 3583,
      "ÑĩÐµÑģÑĤÐ²Ð¾": 3584,
      "ĠÑĥÑĩÑĢÐµ": 3585,
      "ĠÐ½Ð°Ð¿ÑĢÑı": 3586,
      "ÑģÐ¾Ð»": 3587,
      "ĠÑĤÑıÐ¶Ðµ": 3588,
      "ÑħÐ½Ð¸": 3589,
      "ĠÐĴÐµ": 3590,
      "ĠÐľÐ¸Ð½": 3591,
      "ĠÐºÐ¾Ð½ÐºÑĢÐµ": 3592,
      "ĠÐ¿ÐµÐ½": 3593,
      "ĠÐ¿Ð»Ð¾ÑīÐ°Ð´": 3594,
      "ĠÑĤÐ°Ð½": 3595,
      "Ð²Ð¸Ð½": 3596,
      "ĠÐ·Ð½Ð°ÑĩÐµÐ½Ð¸Ðµ": 3597,
      "ĠÐ¼ÐµÐ´": 3598,
      "ĠÑĤÐ°ÐºÐ¾Ð³Ð¾": 3599,
      "ĠÑģÐ²Ð¾Ð¸Ð¼Ð¸": 3600,
      "Ð±ÑĢÐ¸": 3601,
      "Ð½Ð°ÑĩÐ°Ð»Ð°": 3602,
      "ĠÑģÑģÑĭ": 3603,
      "ĠÐ½Ð°ÑĪÐ¸": 3604,
      ".)": 3605,
      "ĠÐ¾ÑīÑĥ": 3606,
      "ĠÑĢÐ°Ð·Ð½Ð¾": 3607,
      "ÑĤÐ¾Ñĩ": 3608,
      "ÑīÐ°ÐµÑĤÑģÑı": 3609,
      "Ð²Ð¸Ð´ÐµÑĤÐµ": 3610,
      "ĠÐĲÐ»": 3611,
      "ĠÐ¾ÑĢÐ³Ð°": 3612,
      "ĠÑģÐ»ÑĥÑĩÐ°Ð¹": 3613,
      "Ġ000": 3614,
      "ĠÑĥÑĢÐ¾Ð²Ð½Ñı": 3615,
      "ÑİÑģÑĮ": 3616,
      "Ð»Ð°Ð¼": 3617,
      "Ð¸Ð±Ð»Ð¸": 3618,
      "ity": 3619,
      "ĠÐ¼Ð¾Ð½Ð°": 3620,
      "ĠÑģÐ°Ð¼Ð¾Ð¼": 3621,
      "Ð¾Ð»ÑĮÐ·Ñĥ": 3622,
      "ĠÐ±Ð¾ÑĢÑĮ": 3623,
      "Ð²Ð¾Ð»Ñİ": 3624,
      "ĠÑĢÐ°Ð±Ð¾ÑĩÐ¸": 3625,
      "Ġ21": 3626,
      "ĠÐ¾Ð½Ð¾": 3627,
      "Ġ$": 3628,
      "ĠÐºÑĢÐ°Ð¹": 3629,
      "Ð¾Ñĥ": 3630,
      "ĠÐºÐ¾ÑĤÐ¾ÑĢÑĭÐ¼": 3631,
      "Ð²Ð¸ÑĤÑĮ": 3632,
      "ÑĤÐ½Ð¾": 3633,
      "ĠÐ¿ÐµÑĢÐ²Ð¾Ð¹": 3634,
      "ÑĤÐµÐ»ÑĮÐ½Ð°Ñı": 3635,
      "ĠÑģÑĤÑĢÑĥÐºÑĤÑĥ": 3636,
      "ĠÑģÑĦ": 3637,
      "ĠÐ´Ð¾ÐºÑĥÐ¼ÐµÐ½ÑĤÐ°": 3638,
      "ĠÑģÐ¾Ð¾ÑĤÐ²ÐµÑĤÑģÑĤÐ²Ð¸Ð¸": 3639,
      "ĠÐ¸Ð¼Ñı": 3640,
      "Ð³ÑĢÐµ": 3641,
      "ĠÐ½ÐµÑģÐºÐ¾Ð»ÑĮÐºÐ¸Ñħ": 3642,
      "ĠÑģÑĤÑĥÐ´": 3643,
      "ÑĪÐµÐº": 3644,
      "ĠÐ¿Ð¾Ð´Ð´ÐµÑĢÐ¶Ð¸": 3645,
      "ÑĤÐ¸ÐºÐ°": 3646,
      "ma": 3647,
      "Ð³ÐµÑĢ": 3648,
      "ĠÐ¼Ð°ÑģÑĤÐµÑĢ": 3649,
      "ect": 3650,
      "ĠÑįÑĤÐ¾Ð¼Ñĥ": 3651,
      "ĠÐ¿ÑĥÐ½": 3652,
      "ĠÑħÐ°ÑĢÐ°ÐºÑĤÐµÑĢÐ¸ÑģÑĤÐ¸": 3653,
      "ĠÐ¼ÐµÐ½ÑĮÑĪÐµ": 3654,
      "ĠÐ¿ÑĢÐµÐ¿Ð°ÑĢÐ°": 3655,
      "ĠÐ¸Ð·Ð´Ðµ": 3656,
      "ÑĪÐºÐ¾Ð¼": 3657,
      "ĠÑģÐ²ÐµÑĢ": 3658,
      "ÑİÐ·": 3659,
      "Ð»Ð¸Ð±Ð¾": 3660,
      "Ġ()": 3661,
      "ÐºÐ¸Ð½": 3662,
      "ĠÐ´Ð¾Ð²Ð¾Ð»ÑĮÐ½Ð¾": 3663,
      "Ð³Ð¸Ñı": 3664,
      "Ð¾Ð³ÑĢÐ°ÑĦÐ¸Ð¸": 3665,
      "ĠÐ³Ð¾Ð´Ð¾Ð²": 3666,
      "ĠÐ½Ð°ÑĪÐµÐ¼": 3667,
      "ĠÐ²Ð¾ÑģÐ¿": 3668,
      "ip": 3669,
      "ÐµÐ²Ð¸Ñĩ": 3670,
      "ĠÐ¾Ð±ÑĬÐµÐ¼": 3671,
      "ĠÐ¿ÑĢÐµÐ¿": 3672,
      "ÑĩÐ½Ð¾ÑģÑĤÐ¸": 3673,
      "ĠÐºÐ¾Ð¼Ð¼Ñĥ": 3674,
      "Ð¸ÑĤÐµÑĢÐ°": 3675,
      "://": 3676,
      "ĠÑĥÐºÑĢÐ°Ð¸Ð½": 3677,
      "ĠÐ¼Ð°ÑĤÐµÑĢÐ¸Ð°Ð»Ð¾Ð²": 3678,
      "ĠÑĥÑģÐ»ÑĥÐ³Ð¸": 3679,
      "ĠÐĵÐ°": 3680,
      "ĠÐºÐ¾Ð¼Ð°Ð½Ð´": 3681,
      "ĠÐ½ÐµÐ·Ð°Ð²Ð¸ÑģÐ¸": 3682,
      "ĠÐ¿ÑĢÐ°Ð²Ð¸Ð»Ð¾": 3683,
      "ĠÐ±Ð»Ð¾Ðº": 3684,
      "Ð¸Ðº": 3685,
      "ÑĤÐµÐ»ÑĮÐ½Ð¾ÑģÑĤÐ¸": 3686,
      "ĠÑģÑĤÐµÐ½": 3687,
      "ÑĤÐ½ÑĭÐ¹": 3688,
      "ĠÐ´Ð²Ð¸Ð¶ÐµÐ½Ð¸Ñı": 3689,
      "ĠÐ»Ð¸ÑĨÐ°": 3690,
      "ĠÐ¿ÑĢÐ¸ÑģÑĥÑĤ": 3691,
      "ÑĤÐµÐ»ÑıÐ¼Ð¸": 3692,
      "Ð¶ÐµÐ¹": 3693,
      "ĠÐ·Ð°ÐºÐ¾Ð½Ð¾Ð´Ð°": 3694,
      "ĠÐ·Ð°Ð³": 3695,
      "ĠÐļÑĢÐ°Ñģ": 3696,
      "ĠÐ½ÐµÐ¼Ð½Ð¾Ð³Ð¾": 3697,
      "ĠÐ¿ÑĢÐµÐ´ÑĥÑģ": 3698,
      "Ð´Ð°ÐµÑĤÑģÑı": 3699,
      "ÐŃÑĤÐ¾": 3700,
      "ĠÐ´Ð°Ð»ÑĮÐ½ÐµÐ¹": 3701,
      "ĠÐ²Ð¸Ð´Ð°": 3702,
      "ÐŁÑĢÐµ": 3703,
      "27": 3704,
      "Ð»ÑĭÐµ": 3705,
      "ĠÐ²Ð¾Ð¾Ð±ÑīÐµ": 3706,
      "ĠÐ³Ð¾ÑģÑĥÐ´Ð°ÑĢÑģÑĤÐ²Ð°": 3707,
      "ÑĳÑħ": 3708,
      "ĠÐ»ÑİÐ±Ð¸Ð¼": 3709,
      "ĠÐ³Ð¾Ð²Ð¾ÑĢÐ¸ÑĤ": 3710,
      "ĠÐºÐ°Ð½": 3711,
      "ÑĢÑĥÑģ": 3712,
      "ÑĢÐ¾Ð½Ð¸": 3713,
      "ĠÑĦÐ¸ÑĢ": 3714,
      "ĠÐ¼Ð»Ð½": 3715,
      "ĠÑĨÐ¸ÑĦ": 3716,
      "26": 3717,
      "28": 3718,
      "ĠÐ¢Ð¾": 3719,
      "Ð±Ð¾Ð»": 3720,
      "ĠÑģÑħ": 3721,
      "ÑĤÐ¸Ð²Ð½ÑĭÑħ": 3722,
      "ive": 3723,
      "Ð²ÑĢÐ¾Ð¿ÐµÐ¹": 3724,
      "ĠÐĴÐ¾Ð»": 3725,
      "ĠÑĤÑĢÐµÑĤÑĮ": 3726,
      "ode": 3727,
      "ĠÐ´Ð¾Ð¼Ð°ÑĪ": 3728,
      "Ġwh": 3729,
      "ĠÐĳÑĭ": 3730,
      "ĠÐ¡ÐµÐ²ÐµÑĢ": 3731,
      "ĠÑĥÑĩÐµÐ±": 3732,
      "ÑĢÐµÐ³Ð¸": 3733,
      "ĠÐ¾ÑĤÐºÐ°Ð·Ð°": 3734,
      "Ð¿Ð¸ÑģÑĭ": 3735,
      "ÐĴÐ°": 3736,
      "ĠÐ¸Ð½ÑģÑĤÐ¸ÑĤÑĥ": 3737,
      "ĠÐ·Ð°Ð²Ð¸ÑģÐ¸ÑĤ": 3738,
      "ĠÐ¾Ð±ÑģÐ»ÑĥÐ¶Ð¸": 3739,
      "ÑģÑĤÑı": 3740,
      "ĠÐ¿ÑĢÐ°Ð²Ð¸Ð»ÑĮÐ½Ð¾": 3741,
      "Ð»Ð¾Ð³Ð¸": 3742,
      "ĠÑĥÐ¼ÐµÐ½ÑĮ": 3743,
      "ĠÐºÐ¾Ð´": 3744,
      "ĠÐ¦ÐµÐ½ÑĤ": 3745,
      "Ġ27": 3746,
      "Ð·Ð¾ÑĢ": 3747,
      "pt": 3748,
      "ÑĢÐ°Ð»ÑĮÐ½Ð¾Ð³Ð¾": 3749,
      "ÑĪÐ¾Ð¹": 3750,
      "ĠÐ²Ð¸Ð·": 3751,
      "ÑīÐµÑģÑĤÐ²Ð¾": 3752,
      "ÐŀÐ´": 3753,
      "ĠÐ±Ð¾Ðµ": 3754,
      "Ð¸Ð½Ð°ÑĢ": 3755,
      "ĠÐ²ÐµÑĢÐ¾": 3756,
      "ĠÑģÐ»Ð¾Ð²Ð°Ð¼": 3757,
      "ÐŁÑĢÐµÐ´": 3758,
      "Ġ28": 3759,
      "ĠÐ¿ÑĢÑıÐ¼Ð¾": 3760,
      "ÑĩÐ½ÑĥÑİ": 3761,
      "ÑıÑĤÐ¸Ð¹": 3762,
      "ĠÐ¿ÑĢÐµÐ´Ð¼ÐµÑĤ": 3763,
      "Ð³ÐµÐ¹": 3764,
      "ĠÐĴÐ°Ñģ": 3765,
      "Ġ2019": 3766,
      "ue": 3767,
      "ĠÑĢÐ¾Ð·": 3768,
      "ĠÐ³ÑĢÑĥÐ¿Ð¿Ð°": 3769,
      "ĠÑħÐ¾Ð»Ð¾Ð´": 3770,
      "ĠÐ±Ð¸Ð·Ð½ÐµÑģÐ°": 3771,
      "ĠÐ¼Ð½Ð¾Ð¶ÐµÑģÑĤÐ²Ð¾": 3772,
      "oun": 3773,
      "Ð§ÑĤÐ¾": 3774,
      "ĠÐ²Ð¾Ð·Ð½Ð¸ÐºÐ°": 3775,
      "ĠÐ°ÑģÑģ": 3776,
      "ĠÐºÐ¾Ð¼Ð¿Ð»ÐµÐºÑģ": 3777,
      "ĠÐ²ÑĭÐ±ÑĢÐ°ÑĤÑĮ": 3778,
      "ĠÑģÐ¾Ð·Ð´Ð°Ð½Ð¸Ñı": 3779,
      "ĠÐ¾ÑĤÐ·Ñĭ": 3780,
      "ÑģÑĤÐ²ÐµÐ½Ð½ÑĭÐ¼": 3781,
      "ĠÑħÐ¾": 3782,
      "ĠÐ°Ð´ÑĢÐµÑģ": 3783,
      "pr": 3784,
      "ÑĥÑģÐ°": 3785,
      "ĠÐ³Ð¾Ñģ": 3786,
      "ĠÐ¸Ð½Ð¾ÑģÑĤÑĢÐ°Ð½": 3787,
      "ĠÑĤÑĢÐ°Ð½ÑģÐ¿Ð¾ÑĢÑĤ": 3788,
      "ĠÑĢÐ°Ð½": 3789,
      "29": 3790,
      "ĠÑĢÐµÐ´": 3791,
      "ĠÐ³Ð¾Ð´Ð°Ñħ": 3792,
      "ĠÐ¾Ð¿Ð°Ñģ": 3793,
      "ĠÐ¡Ð¾Ð²ÐµÑĤ": 3794,
      "ÑĨÐ¸Ð¾Ð½Ð½ÑĭÐµ": 3795,
      "ĠÐ½ÐµÐ¿ÑĢÐ¸": 3796,
      "ĠÑģÐ°Ð¼ÑĭÐ¼": 3797,
      "ĠÑįÐºÑģÐ¿Ð»Ñĥ": 3798,
      "ÑĤÐ¸Ð½Ð°": 3799,
      "ĠÐĹÐ½Ð°": 3800,
      "ĠÑģÐ¾Ð²ÑģÐµÐ¼": 3801,
      "Ð²Ð°Ð»Ð°": 3802,
      "Ð±Ð¸Ð½Ð°": 3803,
      "ĠÐ¿Ð¾ÑģÑĤÐ¾ÑıÐ½Ð½Ð¾": 3804,
      "ĠÑĤÑĢÐµÐ±Ð¾Ð²Ð°Ð½Ð¸Ñı": 3805,
      "ĠÐ¡Ð°Ð½ÐºÑĤ": 3806,
      "Ġ60": 3807,
      "ĠÑĦÑĢÐ°Ð½ÑĨÑĥÐ·": 3808,
      "ĠÐ±ÑĥÐ¼Ð°": 3809,
      "ĠÐ±Ð»Ð°Ð³": 3810,
      "tur": 3811,
      "Ð¸Ð·Ð²Ð¾Ð´": 3812,
      "ĠÐ¿ÑĢÐ¸Ð³Ð¾ÑĤÐ¾Ð²": 3813,
      "Ð·Ð¼": 3814,
      "ĠÐ¿ÑĢÐ¾Ð¶Ð¸": 3815,
      "ĠÐ·Ð°Ð´": 3816,
      "Ð¿Ð°Ð½Ð¸Ñı": 3817,
      "ĠÐ·Ð½Ð°ÑĩÐ¸ÑĤ": 3818,
      "ĠÑĢÐµÐ°Ðº": 3819,
      "ĠÐłÐ¸": 3820,
      "ĠÐ³ÑĢÐ¸": 3821,
      "ĠÐ½ÐµÑĥ": 3822,
      "ĠÐ¾ÑĤÑĢÐ°": 3823,
      "Ð½Ð°Ð·Ð½Ð°": 3824,
      "ĠÐ²ÐµÐº": 3825,
      "ard": 3826,
      "Ð´ÐµÐ½Ð¸Ñı": 3827,
      "ÑĪÑĤÐ°": 3828,
      "ĠÑĨÐµÐ½ÑĤÑĢ": 3829,
      "ĠÐĳÐµÐ»": 3830,
      "ill": 3831,
      "ÑĩÐ½Ð¾ÑģÑĤÑĮ": 3832,
      "ĠÐ¿ÑĢÑıÐ¼": 3833,
      "ĠÑĢÐµÐ´Ð°": 3834,
      "ĠÑĩÐ°ÑģÑĤÐ½Ð¾ÑģÑĤÐ¸": 3835,
      "ĠÐ³ÑĢÐµ": 3836,
      "ĠÐºÐ»Ð°ÑģÑģ": 3837,
      "ĠÑįÑĦÑĦÐµ": 3838,
      "ĠÐ½Ð¸Ð¶Ðµ": 3839,
      "ĠÐ¿ÑĢÐµÐ´Ð¿ÑĢÐ¸Ð½Ð¸Ð¼Ð°": 3840,
      "Ð¾Ð¶Ð´ÐµÐ½Ð¸Ðµ": 3841,
      "bo": 3842,
      "Ġ{": 3843,
      "ÑĤÑĥÑĢÐµ": 3844,
      "ĠÐºÐ°ÑģÐ°": 3845,
      "ĠÐµÐ¶Ðµ": 3846,
      "ĠÐ²ÑħÐ¾Ð´": 3847,
      "ĠÐ¿Ð°ÑĨÐ¸": 3848,
      "ĠÐ¿Ð¾Ð»ÑĥÑĩÐµÐ½Ð¸Ñı": 3849,
      "Ġon": 3850,
      "ass": 3851,
      "ere": 3852,
      "Ð·Ð¸ÑĢÐ¾Ð²Ð°Ð½": 3853,
      "ĠÐ½Ð°ÑĪÐ¸Ñħ": 3854,
      "ÑĢÐ¸ÑĤÐ°": 3855,
      "ĠÐ²ÑĭÑģÑĤÑĥÐ¿Ð°": 3856,
      "Ġ2014": 3857,
      "ĠÑĥÑģÐ»Ð¾Ð²Ð¸Ñı": 3858,
      "ĠÐºÐ»ÐµÑĤ": 3859,
      "ĠÐ²Ð½ÑĥÑĤÑĢÐ¸": 3860,
      "ĠÐ½Ð°ÑģÑĤÐ¾ÑıÑīÐµÐµ": 3861,
      "ĠÐ¿ÑĢÐ¾Ð³ÑĢÐ°Ð¼Ð¼": 3862,
      "Ð¸ÑĤÐ°Ð¹": 3863,
      "Â°": 3864,
      "ĠÐ¿Ð¾Ð´ÑĢÐ¾Ð±": 3865,
      "ÑĢÐ¾Ð²Ð°Ð»": 3866,
      "ÑģÑĤÐ²ÐµÐ½Ð½Ð°Ñı": 3867,
      "ĠÐ°ÑĢÑħÐ¸ÑĤÐµ": 3868,
      "Ð°Ð»ÑĮÐ½Ð¾Ð¹": 3869,
      "Ð¡Ðµ": 3870,
      "Ð¿ÐµÑĩÐ°ÑĤ": 3871,
      "ÑĤÐ¸Ð»": 3872,
      "ĠÐ¿ÑĢÐ¾Ð¼ÑĭÑĪÐ»ÐµÐ½": 3873,
      "ÑĤÐµÐº": 3874,
      "ĠÑĦÐ¸Ð»": 3875,
      "age": 3876,
      "ÑĤÐµÐ»ÑıÐ¼": 3877,
      "ĠÑĤÑĢÐ°Ð²": 3878,
      "ĠÐ²Ð·Ð³Ð»Ñı": 3879,
      "ÐļÐ¾Ð½": 3880,
      "Ð³ÐµÐ½": 3881,
      "Ð±Ð¾Ð¹": 3882,
      "ĠXV": 3883,
      "ÐºÐ¾Ð»Ðµ": 3884,
      "Ð¾ÑĩÑĮ": 3885,
      "ĠÑĨÐ°ÑĢ": 3886,
      "Ð³Ð¾Ðµ": 3887,
      "ÑģÐ°Ð´": 3888,
      "Ð¸Ð¹": 3889,
      "Ð¶ÐµÑĤÑģÑı": 3890,
      "ÐµÑĢÐºÐ°": 3891,
      "ĠÐ²Ð°Ð¶Ð½Ð¾": 3892,
      "ĠÐ¸Ð³ÑĢÐ¾Ðº": 3893,
      "ĠÐ¼Ð°ÑĤÐµÑĢÐ¸Ð°Ð»Ð°": 3894,
      "Ġ2015": 3895,
      "ÑĩÐ¸Ð»": 3896,
      "ĠÐ§Ð°": 3897,
      "Ð¶ÐµÐ¼": 3898,
      "ĠÑģÐ¸ÑĤÑĥÐ°ÑĨÐ¸Ð¸": 3899,
      "ĠÐ¿Ð¾ÑĤÐµ": 3900,
      "ĠÐ¸Ð·Ð¼ÐµÐ½Ð¸": 3901,
      "ĠÑĢÐ°ÑģÑħÐ¾Ð´": 3902,
      "ĠÑĤÑĢÐµÑħ": 3903,
      "ĠÐºÐ¾ÑĢÐ¿": 3904,
      "ĠÐ²ÑģÑİ": 3905,
      "Ð²ÑĪÐ¸ÑģÑĮ": 3906,
      "ÑĤÐµÑĢÐµÑģ": 3907,
      "ĠÐ²ÐµÑĢÐ½Ñĥ": 3908,
      "ÑĤÐ¸Ð²Ð½ÑĭÐµ": 3909,
      "Ð±ÐµÐ»ÑĮ": 3910,
      "Ġ26": 3911,
      "ĠÐ¿ÑĢÐµÐ´Ð¿ÑĢÐ¸ÑıÑĤÐ¸Ñı": 3912,
      "ÑĥÐ¿": 3913,
      "ÑĤÐ°Ñı": 3914,
      "ik": 3915,
      "Ð´ÐµÑĢÐ¶Ð¸": 3916,
      "Ð¾Ð¶Ð½Ð¾": 3917,
      "ĠÑĦÐ°ÐºÑĤ": 3918,
      "Ð¼Ð¸ÑĤÑĢÐ¸": 3919,
      "ĠÐ´Ð°Ð½Ð½ÑĭÐ¼": 3920,
      "ĠÑģÐ¾ÑģÑĤÐ°Ð²Ð¸": 3921,
      "ĠÐºÑĥÐ»ÑĮÑĤÑĥÑĢÑĭ": 3922,
      "âĤ": 3923,
      "Ð¾ÐºÐ¾": 3924,
      "ĠÑĢÐ°Ð½ÐµÐµ": 3925,
      "ĠÑģÑĤÑĢÐ°Ð½Ðµ": 3926,
      "Ð²ÐµÐ½": 3927,
      "ĠÐ¾ÑĢÐ¸Ð³Ð¸Ð½Ð°": 3928,
      "ile": 3929,
      "ĠÑĥÐ²ÐµÐ»Ð¸Ñĩ": 3930,
      "ĠÐ¾ÑĤÐ¿ÑĢÐ°Ð²Ð¸": 3931,
      "ĠÐ¿Ð¾ÑĩÐµÐ¼Ñĥ": 3932,
      "Ð»ÑĮÐ·Ñı": 3933,
      "ĠÑģÑĤÐ°ÑĤÑĥ": 3934,
      "ÑĤÐµÑģÑĮ": 3935,
      "Ð¶Ð½ÑĭÐµ": 3936,
      "ÑĩÐ½Ð¾Ð¼": 3937,
      "Ð²ÐµÐ¹": 3938,
      "ĠÐ¿ÑĥÑĤÐµÑĪÐµ": 3939,
      "ĠÐºÐ°Ð¿Ð¸ÑĤÐ°": 3940,
      "Ð¡Ð¼": 3941,
      "ÑıÐ²Ð»ÐµÐ½Ð¸Ñı": 3942,
      "Ð¤Ð¸Ð»ÑĮ": 3943,
      "ĠÑģÐ¾ÑĤÑĢÑĥÐ´Ð½Ð¸": 3944,
      "ĠÐ¸Ð¼ÐµÑĤÑĮ": 3945,
      "ÐŀÐŀ": 3946,
      "Ð»ÐµÐ²": 3947,
      "ĠÐ²ÑĭÐ³Ð»Ñı": 3948,
      "ĠÑħÐ¾Ð´Ðµ": 3949,
      "ĠÑģÐºÐ°Ð·Ð°ÑĤÑĮ": 3950,
      "ĠÐĳÐµÑĢ": 3951,
      "ÑĳÐ·": 3952,
      "ĠÐŁÐµÑĢÐµ": 3953,
      "ĠÐ¸ÑģÑģÐ»ÐµÐ´Ð¾Ð²Ð°Ð½Ð¸Ñı": 3954,
      "ĠÐ´ÑĢÑĥÐ³Ð°": 3955,
      "Ð±Ð¾Ð²": 3956,
      "ĠY": 3957,
      "ĠÐ´Ð¾Ð³Ð¾Ð²Ð¾ÑĢ": 3958,
      "Ð¾ÑĢÐ¾ÑĤ": 3959,
      "Ð¾ÐºÐ¾Ð¹": 3960,
      "ÑĨÐ¸ÑıÑħ": 3961,
      "ĠÐ½Ð¸ÐºÐ¾Ð³Ð´Ð°": 3962,
      "ĠÑĨÐµÐ½Ñĭ": 3963,
      "ĠÑģÐ¸Ð¼Ð²Ð¾Ð»": 3964,
      "ĠÑĢÐ¾Ð»Ð¸": 3965,
      "ĠÐ¾Ð±ÑıÐ·Ð°ÑĤÐµÐ»ÑĮÐ½Ð¾": 3966,
      "Ð¿Ð¾Ñĩ": 3967,
      "ĠÐ¿ÑĢÐ¾Ð´ÑĥÐºÑĨÐ¸Ð¸": 3968,
      "Ð¼ÐµÐ½ÑĤÑĭ": 3969,
      "ĠÐ¿ÐµÑĢÐ²Ð¾Ð³Ð¾": 3970,
      "ĠÐ¾Ð¿ÑĢÐµÐ´ÐµÐ»ÐµÐ½": 3971,
      "ĠÐ¾ÑĤÐ²ÐµÑĤÑģÑĤÐ²ÐµÐ½": 3972,
      "Ð·Ð¼Ð°": 3973,
      "ĠÑģÑĤÐµÐ¿ÐµÐ½Ð¸": 3974,
      "ĠÐ¸Ð·Ð´Ð°": 3975,
      "ĠÐ¶Ð¸Ð»": 3976,
      "ĠÐ¼ÐµÐ»": 3977,
      "ÐļÐĲ": 3978,
      "ĠÑģÐ¾ÐºÑĢÐ°": 3979,
      "ĠÐĴÐ°ÑģÐ¸": 3980,
      "ĠÑģÐ°Ð¼Ð¾Ð³Ð¾": 3981,
      "Ð°Ð½ÑĤÐ°": 3982,
      "ÑĤÐ¸Ñİ": 3983,
      "ÐµÐ½Ð¸Ð½": 3984,
      "ĠÑģÐ¾Ð²ÐµÑĢÑĪ": 3985,
      "ĠÑģÐ¼ÑĭÑģ": 3986,
      "ĠÐ½ÐµÐ¸Ð·": 3987,
      "ĠÑģÑĤÑĢÐ°ÑĤÐµ": 3988,
      "ore": 3989,
      "ĠÐ¾Ð±ÑĢÐ°Ð±Ð¾ÑĤ": 3990,
      "ÑħÐ¾Ð¼": 3991,
      "ĠÐ´ÐµÐ¹ÑģÑĤÐ²Ð¸ÑĤÐµÐ»ÑĮÐ½Ð¾": 3992,
      "ĠÐ¾ÑĤÐ¼ÐµÑĩÐ°": 3993,
      "ĠÑıÐ·ÑĭÐºÐµ": 3994,
      "ell": 3995,
      "ÐĺÑģÑĤÐ¾ÑĢÐ¸Ñı": 3996,
      "âĢ¢": 3997,
      "ĠÐ´ÑĢÑĥÐ³Ð¸Ð¼Ð¸": 3998,
      "Ð»Ð°Ð²Ð°": 3999,
      "ĠÐ¿Ð¾Ð¼Ð¾ÑīÑĮ": 4000,
      "Ð½ÑİÑİ": 4001,
      "ĠÑĢÐ°Ð·Ð²Ð¸ÑĤÐ¸Ðµ": 4002,
      "ĠÑģÐ¼ÐµÑĢÑĤÐ¸": 4003,
      "ĠÐĲÐ½Ð°": 4004,
      "Ð½Ð¸ÐºÐ°Ð¼": 4005,
      "ÑĢÑĭÐ²": 4006,
      "ĠÑģÐ°Ð¼ÑĭÐµ": 4007,
      "ÑĢÑĭÐ¹": 4008,
      "ĠÑĢÑĭÐ½ÐºÐµ": 4009,
      "ĠÑģÐ¾ÑģÑĤÐ°Ð²Ðµ": 4010,
      "ĠÐĴÐ¾ÑĤ": 4011,
      "ĠÑģÐµÑĤ": 4012,
      "ĠÑģÐ¾Ð²Ð¼ÐµÑģÑĤ": 4013,
      "ÑĤÐ¾Ð³Ð¾": 4014,
      "Ð¾Ð²Ð°Ð»Ð¸": 4015,
      "ĠÑĢÐ°Ð·Ð»Ð¸ÑĩÐ½ÑĭÐµ": 4016,
      "ĠÐ²Ð´": 4017,
      "ĠÑĦÐ¸Ð»ÑĮÐ¼Ð°": 4018,
      "ĠÑıÐ·ÑĭÐº": 4019,
      "Ð±Ð°Ð½": 4020,
      "Ð¼Ð¾ÑĤÑĢ": 4021,
      "ĠÑįÐºÑģÐ¿Ðµ": 4022,
      "Ð½Ð¸ÑĨÐ¸Ð¿Ð°": 4023,
      "ĠÐ´ÑĥÑħÐ¾Ð²": 4024,
      "ĠÐ°Ð²Ð¸Ð°": 4025,
      "Ġ2017": 4026,
      "ĠÐ´Ð¾Ð¿Ñĥ": 4027,
      "ÐµÐ¼ÑĭÐ¹": 4028,
      "ĠÐ¾Ð´Ð½Ð¾Ð¼": 4029,
      "ĠÑĢÐ¸Ñģ": 4030,
      "text": 4031,
      "ĠÐ´Ð¸Ð·Ð°Ð¹": 4032,
      "ĠÐºÐ¾Ð»Ðµ": 4033,
      "ĠÑħÑĥÐ´Ð¾Ð¶": 4034,
      "ĠÐ½ÐµÐ´Ðµ": 4035,
      "ĠÐ´ÐµÑģÑı": 4036,
      "Ð´ÐµÐ¹ÑģÑĤÐ²Ð¸": 4037,
      "ĠÐºÐ¾Ð¼ÑĦÐ¾ÑĢ": 4038,
      "Ð»Ð¾Ð±": 4039,
      "ÑħÐµ": 4040,
      "ÑĢÐ°Ð»ÑĮÐ½Ð¾Ð¹": 4041,
      "Ð°Ð»ÑĮÐ½ÑĭÑħ": 4042,
      "âĢĻ": 4043,
      "ÑĩÐ¸ÐºÐ¾Ð²": 4044,
      "Ð¾Ð»Ð¾Ð³Ð¸Ñı": 4045,
      "ost": 4046,
      "Ð½Ð¾ÑģÑĤ": 4047,
      "ĠÐĴÐ»Ð°Ð´Ð¸Ð¼Ð¸ÑĢ": 4048,
      "ĠÑģÐ°Ð¼ÑĭÐ¹": 4049,
      "ĠÐĲÐ»ÑĮ": 4050,
      "ÑĳÑĤÑģÑı": 4051,
      "Ð°Ð»ÑĮÐ½ÑĭÐµ": 4052,
      "ĠÑģÐ¿ÑĢÐ°": 4053,
      "ĠÐ¿Ð¾ÑıÐ²Ð»Ñı": 4054,
      "ĠÐ½Ð°ÑģÑĤÑĢÐ¾": 4055,
      "ĠÐ³ÑĢÑĥÐ·": 4056,
      "Ð´Ð¸Ð¼": 4057,
      "ĠÑĦÐ¾ÑĢÐ¼Ñĭ": 4058,
      "ĠÐ¿ÑĢÐµÐ´ÑģÑĤÐ°Ð²Ð»ÑıÐµÑĤ": 4059,
      "ĠÐ¿ÑĢÐ¸Ð´": 4060,
      "ÑģÐµÐ»": 4061,
      "Ð´Ð°Ð»Ð¸": 4062,
      "ĠÐ°Ñį": 4063,
      "ĠÐ½Ð¾Ð¼ÐµÑĢ": 4064,
      "ib": 4065,
      "ÐĿÐ¾Ð²": 4066,
      "ĠÐ½ÐµÐ²Ð¾Ð·": 4067,
      "ĠÐ¸Ð³ÑĢÑĥ": 4068,
      "Ð½Ð¸Ð»Ð¸": 4069,
      "ĠÐ¿ÑĢÐµÐ´Ð½Ð°Ð·Ð½Ð°": 4070,
      "ĠÐ¿Ð°ÑĤ": 4071,
      "Ð¾Ð³Ð»Ð°ÑģÐ½Ð¾": 4072,
      "ĠÐ¾Ð±Ð½Ð¾Ð²": 4073,
      "ĠÑĨÐ²ÐµÑĤÐ°": 4074,
      "ÑģÑĤÑĥÐ¿Ð»ÐµÐ½Ð¸Ñı": 4075,
      "ĠÐ¼ÐµÑģÑıÑĨÐµÐ²": 4076,
      "ĠÐ¿ÑĢÐ¸ÐµÐ¼": 4077,
      "ĠÑģÐ²Ð¸Ð´ÐµÑĤÐµ": 4078,
      "ÐĽÐ¸ÑĤÐµÑĢÐ°": 4079,
      "ÑģÐºÐ°ÑĤÑĮ": 4080,
      "ĠÐ¿ÑĥÑĤÐ¸": 4081,
      "ÑĢÐ¸Ðº": 4082,
      "ĠÐ²Ð¸Ð´Ð¾Ð²": 4083,
      "Ġpro": 4084,
      "ĠÐļÐ¾Ð»": 4085,
      "Ð¶Ð°Ð¹": 4086,
      "ĠÐ°ÐºÐ°Ð´ÐµÐ¼Ð¸": 4087,
      "Ð¿ÑĤÐ¸": 4088,
      "ÐµÐ½Ð½ÑĭÐ¼": 4089,
      "Ð¾Ð³Ñĥ": 4090,
      "ĠÐ¢Ð¾Ð³Ð´Ð°": 4091,
      "ĠÑĢÐ°Ð·Ð°": 4092,
      "ĠÑĥÐ¿ÑĢÐ°Ð²Ð»Ñı": 4093,
      "Ġpr": 4094,
      "ĠÑģÐ°Ð½": 4095,
      "ĠÐ¾ÑĤÐ²Ðµ": 4096,
      "Ð¾ÑģÑĢÐµÐ´": 4097,
      "ĠÐ»ÑİÐ±Ð¾Ð²": 4098,
      "ÑĢÐµÐµ": 4099,
      "Ð¸Ð½Ð³": 4100,
      "ĠÐ¿ÑĢÐ¾Ð¸Ð·Ð²ÐµÐ´": 4101,
      "ÐºÑĤÐ¾ÑĢÐ°": 4102,
      "ĠÐ¿Ð¾ÑģÑĤÐ°Ð²": 4103,
      "ÑĢÐ°Ð±Ð°ÑĤÑĭ": 4104,
      "ĠÐ¸Ð½Ð¾Ð³Ð´Ð°": 4105,
      "ÑĦÐµÑĢÐµÐ½": 4106,
      "ĠÐºÐ¾Ð¼Ð¸Ñģ": 4107,
      "ĠÐºÐ¾Ð½ÑĤÑĢÐ°": 4108,
      "Â»)": 4109,
      "ĠÐ¿ÑĢÐ¾ÑĤÐµ": 4110,
      "Ð¸Ðµ": 4111,
      "ĠÑĢÐ¾Ð¼Ð°Ð½": 4112,
      "ĠÑģÐ°Ð¼Ð¾Ðµ": 4113,
      "ÐµÑĤÐ¾Ð²": 4114,
      "05": 4115,
      "ÑĥÐ·": 4116,
      "ĠÐ¾ÑĤÐ»Ð¸Ñĩ": 4117,
      "ÐºÐ¾Ð±": 4118,
      "ĠÐºÐ¾ÑĢÐ¾ÑĤ": 4119,
      "ĠÐ´Ð¾ÑħÐ¾Ð´": 4120,
      "ÐºÐ»Ð¸": 4121,
      "ĠÑģÐ½Ð°": 4122,
      "ÑĩÐµÐ½Ð¸ÐµÐ¼": 4123,
      "ÑĥÐ²": 4124,
      "Ð²Ð°Ð»Ð¸ÑģÑĮ": 4125,
      "ĠÐºÑĢÑĥÐ³": 4126,
      "ĠÐ·Ð²": 4127,
      "ĠÐ´Ð¾Ð»Ð»Ð°ÑĢÐ¾Ð²": 4128,
      "ÑĢÐ¸ÑĤÑĮ": 4129,
      "ĠÐ¿ÑĢÐµÐ¸Ð¼Ñĥ": 4130,
      "Ð¸Ð±Ð»Ð¸Ð¾ÑĤÐµ": 4131,
      "ĠÑİÑĢÐ¸Ð´Ð¸": 4132,
      "ĠÐ§ÑĤÐ¾Ð±Ñĭ": 4133,
      "ÑĢÐµÐ¼Ñı": 4134,
      "ĠÐºÐ½Ð¸Ð³Ð¸": 4135,
      "ÐºÐ¾ÑģÑĤÑĮ": 4136,
      "ÐŁÐ¾Ð»": 4137,
      "Ð¾Ð»ÐµÐ²": 4138,
      "ĠÐ°Ð²ÑĤÐ¾Ð¼Ð¾Ð±Ð¸Ð»ÑĮ": 4139,
      "ĠÑģÐµÐºÑĢÐµ": 4140,
      "ĠÑįÐºÑģÐ¿Ð»ÑĥÐ°ÑĤÐ°": 4141,
      "ÐŀÐĴ": 4142,
      "ÐºÐ»Ð°Ð´Ñĭ": 4143,
      "ĠÐ¼Ð°Ð½": 4144,
      "ĠÑģÐºÐ¾Ð»ÑĮÐºÐ¾": 4145,
      "ÐĲÐ²": 4146,
      "ÑĩÐ¸ÐºÐ°": 4147,
      "ĠÐ±Ð¸Ð½Ð°ÑĢ": 4148,
      "ĠÐ»ÑİÐ±Ð¸": 4149,
      "ĠÐ³ÑĥÐ±ÐµÑĢ": 4150,
      "ĠÑģÐ½Ñı": 4151,
      "ĠÐ²ÐµÐ´Ñĥ": 4152,
      "ĠÐĵÐ»Ð°Ð²": 4153,
      "ĠÑĦÑĥÐ½ÐºÑĨÐ¸Ð¸": 4154,
      "ĠÑĨÐµÐ½Ð°": 4155,
      "77": 4156,
      "ĠÐ¼Ð¾Ð±Ð¸Ð»ÑĮ": 4157,
      "ÑĢÐ¾ÑĤÐ¸Ð²": 4158,
      "ĠÐĿÐ¸ÐºÐ¾Ð»Ð°": 4159,
      "ÑĨÐ¸Ð¾Ð½Ð½Ð¾Ð³Ð¾": 4160,
      "ĠÑģÑĥÑīÐµÑģÑĤÐ²ÑĥÐµÑĤ": 4161,
      "ĠÐ·Ð¸Ð¼": 4162,
      "ĠÐ´ÐµÐ½ÐµÐ³": 4163,
      "ĠÐľÐ¾ÑģÐºÐ²Ñĭ": 4164,
      "ĠÑĦÐµÐ´Ðµ": 4165,
      "ĠÐ¿Ð¾ÑĢÐ½Ð¾": 4166,
      "ÐµÐ»ÐµÐ½": 4167,
      "ĠÐ¾ÑĨÐµÐ½Ð¸": 4168,
      "ĠÐ²ÐµÑĢÑħ": 4169,
      "ĠÐ½ÐµÑĦ": 4170,
      "ĠÑĢÐ°ÑģÑģÐ¼Ð°ÑĤÑĢÐ¸": 4171,
      "ĠÑĢÐµÑģÐ¿ÑĥÐ±Ð»Ð¸": 4172,
      "ĠÑĥÐ¼ÐµÑĢ": 4173,
      "ĠÐ¼Ð°Ð»Ð¾": 4174,
      "ĠÐ²ÑĭÑĢÐ°Ð¶": 4175,
      "Ð¾Ð·Ð¸ÑĤ": 4176,
      "ĠÐ¿ÑĢÐ¾ÑħÐ¾Ð´": 4177,
      "ĠÑģÐ½Ð¾Ð²Ð°": 4178,
      "ĠÐ½ÐµÐµ": 4179,
      "ĠÐŃÑĤÐ¾ÑĤ": 4180,
      "Ð¾ÐºÐ¾Ð»": 4181,
      "Ð´Ð¸Ð¹": 4182,
      "Ð¶Ð°ÐµÑĤ": 4183,
      "ĠÐĹÐ´ÐµÑģÑĮ": 4184,
      "ĠÐ¿ÑĢÐ¸Ð²Ð»ÐµÐºÐ°": 4185,
      "ĠÑĢÐµÐ³Ð¸ÑģÑĤÑĢÐ°ÑĨÐ¸Ð¸": 4186,
      "ĠÐ¿ÑĢÐµÐ²ÑĢÐ°": 4187,
      "ĠÑĤÐµÐ»Ð°": 4188,
      "ĠĠĠĠĠĠĠĠĠĠĠ": 4189,
      "ÐµÐ·Ð´Ð°": 4190,
      "ÑİÐ·Ð°": 4191,
      "ÑıÐ±ÑĢÐµ": 4192,
      "ĠWh": 4193,
      "ack": 4194,
      "ÑĨÐ¸Ð¾Ð½Ð½ÑĭÐ¹": 4195,
      "ÑīÐµÐ¼Ñĥ": 4196,
      "ÑĥÐ´ÑĮ": 4197,
      "ÑĩÑĤ": 4198,
      "ĠÐ²ÑĭÐ±Ð¸ÑĢÐ°": 4199,
      "ÑĪÐºÑĥ": 4200,
      "ĠÐ±Ð¾Ð³": 4201,
      "ĠÑĥÑĤ": 4202,
      "Ð»Ð°ÐºÑĤÐ¸": 4203,
      "ĠÑĦÐ°Ðº": 4204,
      "ĠÐºÐ¾ÑĢÑĢÐµ": 4205,
      "ĠÑģÐ¾ÑĩÐµÑĤÐ°": 4206,
      "ÑıÐ»": 4207,
      "ÑĢÐ¸ÑĤ": 4208,
      "ÐºÐ¾Ð¿": 4209,
      "ĠÑĤÐ¾ÑĩÐºÐ¸": 4210,
      "ĠÐ¿Ð¾ÑģÐ²Ñı": 4211,
      "ÑĤÐ¸Ð²Ð½Ð¾": 4212,
      "ĠÐ¿ÑĢÐ¾Ð²ÐµÐ´ÐµÐ½Ð¸Ñı": 4213,
      "ĠÐ¿ÑĢÐ¾ÑĦÐ¸": 4214,
      "ĠÐ½Ð°ÑĢ": 4215,
      "ĠÐ¿ÑĢÐµÑģÑģ": 4216,
      "ĠÐµÑģÑĤÐµ": 4217,
      "45": 4218,
      "ĠÐ³Ð»Ð°Ð·Ð°": 4219,
      "ĠÑĢÑıÐ´Ð¾Ð¼": 4220,
      "ĠÑĤÑĢÑĥÐ´Ð°": 4221,
      "ĠÐ¿Ð¾Ð´ÑħÐ¾Ð´": 4222,
      "ĠÑĪÐºÐ¾Ð»Ñĭ": 4223,
      "ĠÐ´ÐµÐ¿ÑĥÑĤÐ°": 4224,
      "ĠÐ¿ÑĢÐ¾ÑĤÐ¸": 4225,
      "Ð·Ð¸Ñı": 4226,
      "Ð½Ð¸ÐºÑĥ": 4227,
      "ĠÐ¾Ð±Ð»Ð°ÑģÑĤÑĮ": 4228,
      "ĠÑĦÐ¾ÑĢÐ¼Ðµ": 4229,
      "ĠÐĵÐ¾ÑĢ": 4230,
      "ĠÐºÐ¾ÑĢÐ°": 4231,
      "Ð½Ð¾Ð²Ð°Ð½Ð¸Ñı": 4232,
      "ĠÐ¾ÑģÑĤÐ°Ð½Ð¾Ð²": 4233,
      "ĠÐ½ÐµÐ»ÑĮÐ·Ñı": 4234,
      "ĠÑĥÐºÐ°Ð·Ð°Ð½": 4235,
      "ĠÐ¿ÐµÑĢÐ²ÑĥÑİ": 4236,
      ".:": 4237,
      "ĠÐľÐ¸ÑħÐ°": 4238,
      "ĠÑĩÐ¸ÑģÐ»Ð°": 4239,
      "ĠÐ²Ð¿ÐµÑĢÐ²ÑĭÐµ": 4240,
      "ata": 4241,
      "Ġ29": 4242,
      "ĠÐ³Ð¾ÑģÑĤÐ¸": 4243,
      "ĠÑıÐ·ÑĭÐºÐ°": 4244,
      "ÑĢÑĥÐ³Ð¸": 4245,
      "ĠÐ¾ÑĩÐ¸": 4246,
      "ĠÐ²Ð¸Ð½": 4247,
      "ÑģÑĤÐ°ÑĤÐ¸": 4248,
      "Ð°Ð»ÑĮÐ½ÑĭÐ¹": 4249,
      "Ð½Ð¸ÐºÐµ": 4250,
      "ĠÐµÐ²ÑĢÐ¾Ð¿ÐµÐ¹": 4251,
      "Ð´Ð°Ð»": 4252,
      "%.": 4253,
      "ĠÐ²ÑĭÐ²Ð¾Ð´": 4254,
      "ĠXI": 4255,
      "ĠÐ»ÐµÑĩÐµÐ½Ð¸Ñı": 4256,
      "ĠÑĢÐ°Ð²Ð½Ð¾": 4257,
      "ace": 4258,
      "Ð¾Ð½ÑĥÑģ": 4259,
      "ÑĢÐµÐ³Ð¸ÑģÑĤÑĢÐ¸": 4260,
      "ĠÐ½Ð°ÑĪÐµÐ³Ð¾": 4261,
      "ĠÐ¿Ð¾Ð¼Ð¾Ð³": 4262,
      "ÑĨÐµÐ¹": 4263,
      "ĠÐ¿Ð¾Ð³Ð¸": 4264,
      "Ð¶Ð½ÑĭÐ¹": 4265,
      "ÑĪÐ¸Ð¼Ð¸": 4266,
      "ÐµÐ½Ð½Ð°Ñı": 4267,
      "ĠÑĥÐ½Ð¸Ð²ÐµÑĢÑģÐ¸ÑĤÐµÑĤÐ°": 4268,
      "Ġ2013": 4269,
      "ĠÐ¾Ð¿ÑĥÐ±Ð»Ð¸": 4270,
      "ĠÐ¼Ð¾Ð´ÐµÐ»ÑĮ": 4271,
      "ĠÑĤÐºÐ°": 4272,
      "Ġas": 4273,
      "ÑģÐ¾Ð»ÑİÑĤ": 4274,
      "ĠÑģÐ¸Ð»ÑĮÐ½Ð¾": 4275,
      "Ð³Ð¾Ð½": 4276,
      "ver": 4277,
      "Ġan": 4278,
      "ĠÐ·Ð°Ð±Ð¾Ð»ÐµÐ²Ð°Ð½Ð¸Ñı": 4279,
      "ÑģÐ»ÐµÐ´": 4280,
      "ĠÐºÐ²Ð°": 4281,
      "ÑĩÐºÑĥ": 4282,
      "ĠÑģÑĤÐµÐº": 4283,
      "ĠÐ´Ð¾Ð±Ð°Ð²": 4284,
      "ĠÑĤÐµÐ½": 4285,
      "ÑĢÐµÐ±Ð¸": 4286,
      "ĠÐ¿ÑĢÐ¾Ðº": 4287,
      "ĠÐ¾Ð´Ð½Ñĥ": 4288,
      "ÑĢÐ°Ð»ÑĮÐ½ÑĭÐ¹": 4289,
      "Ġ2010": 4290,
      "ĠÑģÐµÑĢÑĮÐµÐ·": 4291,
      "Ð»ÑıÐ½": 4292,
      "ÑħÐ°ÑĢ": 4293,
      "Ġ2012": 4294,
      "ph": 4295,
      "ĠÐºÑĥÐ»ÑĮÑĤÑĥÑĢ": 4296,
      "ĠÐ¿ÑĢÐ¾Ð¿": 4297,
      "ĠÑįÐ»ÐµÐºÑĤÑĢÐ¾": 4298,
      "ĠÐ¼ÐµÑĩ": 4299,
      "ĠÑħÐ¾ÑĤÐµ": 4300,
      "ÑĪÐµÐ´": 4301,
      "ĠÐŁÐ¾Ð¼": 4302,
      "ÑĤÐ¸Ð²Ð½ÑĭÐ¹": 4303,
      "ĠÐ½Ð¾Ð²Ð¾Ð¹": 4304,
      "Ð°Ð»ÑĮÐ½Ð¾Ð³Ð¾": 4305,
      "Ð±ÐµÑĢÐµ": 4306,
      "ĠÑĥÐ¿Ð°": 4307,
      "ĠÐ¿ÑĢÐ¸Ð¼ÐµÑĢÐ½Ð¾": 4308,
      "ĠÐ·Ð°Ð±Ñĭ": 4309,
      "ÑģÑĤÐ¾Ð¹ÑĩÐ¸": 4310,
      "ĠÐºÐ°ÑĩÐµÑģÑĤÐ²Ð¾": 4311,
      "ĠÐºÐ»ÑĥÐ±": 4312,
      "03": 4313,
      "Ġen": 4314,
      "ĠÑįÐ¿Ð¸": 4315,
      "ĠÑģÐ»ÐµÐ´ÑĥÑİÑīÐ¸Ðµ": 4316,
      "ĠÐ¾ÑģÐ½Ð¾Ð²Ð½Ð¾Ð¼": 4317,
      "ĠÑģÐ¿Ð¸ÑģÐ¾Ðº": 4318,
      "ĠÐ²Ð¾Ð·Ð´ÐµÐ¹ÑģÑĤÐ²Ð¸": 4319,
      "ÐºÐ¸Ð´": 4320,
      "ĠÐ¿Ð¾ÑĤÐµÐ½": 4321,
      "ĠÑģÑĤÐ°ÑĤÑĮÐ¸": 4322,
      "ĠÐĺÐ½ÑĤÐµÑĢ": 4323,
      "ĠÑĤÐµÐ¾ÑĢÐ¸": 4324,
      "Ð¾ÑĨÐ¸": 4325,
      "ĠÑĢÐµÐ³Ð¸Ð¾Ð½Ð°": 4326,
      "ÑĩÐµÐ½Ñĭ": 4327,
      "ĠÑģÐ»Ð¸ÑĪÐºÐ¾Ð¼": 4328,
      "ĠÐ¿Ð»Ð°ÑĤ": 4329,
      "ÑİÑīÐ¸Ð¼Ð¸": 4330,
      "ÑĤÑĭÐ¼": 4331,
      "ĠÐ·Ð²ÐµÐ·": 4332,
      "ĠÐ§ÐµÑĢ": 4333,
      "ĠÑģÑĤÐ¾ÑĢ": 4334,
      "ĠÐłÑĥÑģ": 4335,
      "ĠÐ¿ÑĢÐµÐ´ÑģÐµÐ´Ð°": 4336,
      "ĠÑĨÐµÐ»ÑĮÑİ": 4337,
      "04": 4338,
      "ÐĲÑĢ": 4339,
      "ĠÑĤÐµÐ±Ñı": 4340,
      "ÐľÐµ": 4341,
      "ĠÐ¾ÐºÑĢÑĥÐ¶Ð°": 4342,
      "ÐºÑĤÑĥÑĢ": 4343,
      "Ð²Ð°Ð»ÑģÑı": 4344,
      "ĠÐ´ÐµÑıÑĤÐµÐ»ÑĮÐ½Ð¾ÑģÑĤÑĮ": 4345,
      "ÑĨÐµÑĢ": 4346,
      "Ð·ÑĮÑı": 4347,
      "ĠÐ¸Ð½ÑĦÐ¾ÑĢÐ¼Ð°ÑĨÐ¸Ñı": 4348,
      "Ð¾ÑģÑĤÑĮ": 4349,
      "Ð»ÑıÑİÑĤ": 4350,
      "ĠÐ½Ð°Ð³ÑĢÐ°": 4351,
      "ÑĤÐµÐ¼Ð°ÑĤÐ¸": 4352,
      "ĠÐ³ÑĢÐ°Ð¶Ð´Ð°": 4353,
      "ies": 4354,
      "ĠÑģÐ¼Ð¾Ð¶ÐµÑĤÐµ": 4355,
      "ĠÑĨÐµÐ»Ð¾Ð¼": 4356,
      "ĠÐ¼Ð¾Ð³Ñĥ": 4357,
      "ÐĽÐ¸ÑĤÐµÑĢÐ°ÑĤÑĥÑĢÐ°": 4358,
      "ĠÐ¿ÑĢÐ¸Ð³Ð»Ð°": 4359,
      "Ð¿Ð¸ÑģÐ°Ð½": 4360,
      "ĠÑģÐ»ÑĥÑĩÐ°ÑıÑħ": 4361,
      "ĠÐ´ÐµÑĤÐ°": 4362,
      "ĠÑĤÐµÐ»ÐµÑĦ": 4363,
      "Ð²Ð°Ð¹": 4364,
      "ĠÐ°Ð¼": 4365,
      "ĠÐ²ÐºÐ»ÑİÑĩÐ°Ñı": 4366,
      "ĠÑģÐ¾Ð·Ð´Ð°Ð½": 4367,
      "ĠÑģÐ¸ÑģÑĤÐµÐ¼Ñĥ": 4368,
      "ÑīÐ°ÑĤÑĮ": 4369,
      "ĠÐ¾ÑģÑĤÑĢÐ¾Ð²": 4370,
      "ly": 4371,
      "Ð½Ð¾Ð²ÑĢÐµÐ¼ÐµÐ½Ð½Ð¾": 4372,
      "ĠÑģÑģÑĭÐ»": 4373,
      "Ð¿ÑĢ": 4374,
      "ure": 4375,
      "ĠÑĥÐ¿Ð¾ÑĤÑĢÐµÐ±": 4376,
      "ÑĢÐ¾Ð²Ð°ÑĤÑĮÑģÑı": 4377,
      "Ð»Ð¾Ð´": 4378,
      "ĠÐ¥Ð°": 4379,
      "ĠÐļÑĢÐ°": 4380,
      "ĠÐ´Ð¾ÐºÑĥÐ¼ÐµÐ½ÑĤÐ¾Ð²": 4381,
      "ĠÑĩÐµÐ¼Ð¿Ð¸Ð¾Ð½Ð°": 4382,
      "ĠÐĶÑĥ": 4383,
      "ff": 4384,
      "ex": 4385,
      "ÑĦÐ»Ð¸": 4386,
      "ĠÑģÐ¾ÑģÑĤÐ¾Ð¸ÑĤ": 4387,
      "ÑįÐ¹": 4388,
      "ÑīÐµÐ½Ð¸Ð¹": 4389,
      "ĠÑĥÑĢÐ¾Ð²Ð½Ðµ": 4390,
      "ĠÐ¸Ð¼Ð¿Ðµ": 4391,
      "ĠÐ¸Ð¼Ñĥ": 4392,
      "ĠÐ¿Ð°Ð¼ÑıÑĤ": 4393,
      "ĠÐ»Ð¸Ð½Ð¸Ð¸": 4394,
      "ĠÐ²ÑĭÐ³Ð¾Ð´": 4395,
      "ĠÑħÐ¸Ð¼Ð¸": 4396,
      "ult": 4397,
      "ÐĲÐĿ": 4398,
      "ÐºÐ¾Ð½Ð°": 4399,
      "ÐºÐ¾Ð²Ð¾Ð¹": 4400,
      "ĠÐĳÐ»Ð°": 4401,
      "Ġbe": 4402,
      "Ð¸Ð»Ð¸ÑģÑĮ": 4403,
      "ĠÑģÐ°Ð¼Ð¾Ð¹": 4404,
      "ĠÐ·Ð°ÑıÐ²Ð¸Ð»": 4405,
      "ÑģÑģÐ¸Ð²": 4406,
      "ÑĩÐµÐ½Ð¸Ð¹": 4407,
      "Ð»Ð¸Ð¼Ð¿Ð¸": 4408,
      "Ð»ÑĮÐ½ÑĥÑİ": 4409,
      "Ð¾ÑģÐ¿": 4410,
      "Ð¿Ð°ÑĢÐ°ÑĤ": 4411,
      "ĠÐĶÐ¼Ð¸ÑĤÑĢÐ¸": 4412,
      "ĠÐ»Ñĥ": 4413,
      "Ð»Ð°Ð½Ð´": 4414,
      "ĠÐ²ÑĭÐ¿Ð¾Ð»Ð½": 4415,
      "ĠÑĥÑĩÐ¸ÑĤÑĭ": 4416,
      "turn": 4417,
      "ĠÐ¿ÑĢÐµÐ´Ð¾ÑģÑĤÐ°Ð²Ð»Ñı": 4418,
      "70": 4419,
      "ĠÑĩÐ°ÑīÐµ": 4420,
      "ĠÐ¿ÑĢÐµÐ´ÑģÑĤÐ°Ð²": 4421,
      "ĠÑĥÐ·Ð½Ð°ÑĤÑĮ": 4422,
      "ĠÐºÐ¾Ð¶": 4423,
      "ÐºÐ¾ÑģÑĤÐ¸": 4424,
      "ĠÐ°ÑĥÐ´Ð¸": 4425,
      "Ð²Ð¾ÑĢÐµ": 4426,
      "ĠÑģÑĤÐ°Ð½ÐµÑĤ": 4427,
      "ĠÐ½ÐµÐ´Ð°": 4428,
      "ld": 4429,
      "ĠÐºÐ»Ñĥ": 4430,
      "ĠÐ±Ð°ÑĢ": 4431,
      "ĠÑĢÐµÐ»Ð¸": 4432,
      "ĠÐ½ÐµÑĢ": 4433,
      "ĠÑģÑĥÑīÐµ": 4434,
      "Ġwith": 4435,
      "ĠÐºÐ¾Ð¶Ð¸": 4436,
      "Ð½Ð¾Ñģ": 4437,
      "Ð¸Ñı": 4438,
      "Ð´Ð°Ð³": 4439,
      "ĠÐ´Ð°Ð½Ð½Ð¾Ð¹": 4440,
      "ÑĦÐ¸ÐºÐ°ÑĨÐ¸Ð¸": 4441,
      "Ð¢Ðŀ": 4442,
      "ÑİÑīÐ¸ÑħÑģÑı": 4443,
      "III": 4444,
      "ÑĢÐ¸ÑģÑĤ": 4445,
      "ÐµÐ¼Ð¾Ð¹": 4446,
      "Ð¼Ð°ÑĤ": 4447,
      "Ð½Ð¾Ð·": 4448,
      "Ð¿Ð°Ð½": 4449,
      "Ġ<": 4450,
      "ĠÑģÐ²Ð¾ÐµÐ¼": 4451,
      "Ð¾Ð´ÐµÐ¹ÑģÑĤÐ²Ð¸": 4452,
      "Ð¾Ð¹Ð´ÐµÑĤ": 4453,
      "ĠÑĦÐ¸Ð»Ð¾ÑģÐ¾": 4454,
      "Ð¿Ð¾Ð»Ð½Ðµ": 4455,
      "ÑĨÐ¸Ð¾Ð½Ð¸": 4456,
      "ĠÐ¿Ð¾ÑģÑĤÐµ": 4457,
      "ÑģÐ¸Ð±Ð¾": 4458,
      "Ð³Ð¾Ð¼": 4459,
      "ĠÐ¾Ð±ÑīÐµÑģÑĤÐ²Ð°": 4460,
      "ÑĤÐ¾ÑĢÐ¾Ð¼": 4461,
      "Ð»ÑĥÐ¹": 4462,
      "ĠÐ¸Ð³ÑĢÐ¾Ð²": 4463,
      "ĠÐ¼ÑĭÑĪ": 4464,
      "ĠÐ·Ð°Ð¿Ð¾Ð»": 4465,
      "ĠÐ¿Ð¾Ð²ÑĤÐ¾ÑĢ": 4466,
      "ĠÑĥÐ´Ð°Ð»Ð¾ÑģÑĮ": 4467,
      "ÑĢÐµÑģÑĤ": 4468,
      "ÑĩÑĳ": 4469,
      "Ð³Ð°ÑĢ": 4470,
      "ĠÐ¿ÑıÑĤÑĮ": 4471,
      "ĠÑģÐ»Ð¾": 4472,
      "ĠÑįÐºÑģÐ¿ÐµÑĢ": 4473,
      "ĠÑģÐ¸Ð»Ñĥ": 4474,
      "Ġ2011": 4475,
      "ĠÐ¾ÑĤÐ´ÑĭÑħÐ°": 4476,
      "ĠÐ²Ð·ÑĢÐ¾Ñģ": 4477,
      "ÐĲÐŀ": 4478,
      "ĠÐ³Ð°ÑĢ": 4479,
      "35": 4480,
      "ĠÐ´Ð°Ð½Ð½ÑĭÐ¹": 4481,
      "ĠÐ¼ÑĥÐ½Ð¸ÑĨÐ¸Ð¿Ð°": 4482,
      "ĠÐ¢ÐµÐ¼": 4483,
      "ĠÐ¼ÑıÐ³": 4484,
      "ĠÐ¿Ð¾Ð¼Ð¾ÑĩÑĮ": 4485,
      "ĠÑĤÐ¾Ð²Ð°ÑĢÐ¾Ð²": 4486,
      "ĠÐºÑĢÐ¾Ð¼Ðµ": 4487,
      "Ġ2000": 4488,
      "ĠÑĢÐµÐ³ÑĥÐ»ÑıÑĢ": 4489,
      "ĠÐºÐ¾Ð¼Ð°Ð½Ð´Ñĭ": 4490,
      "ĠÐ¿ÑıÑĤ": 4491,
      "ĠÑģÐ¸Ð³Ð½Ð°": 4492,
      "ĠÐ±Ð»Ñİ": 4493,
      "ĠÐ³Ð¸Ð´": 4494,
      "ĠÐ´Ð²Ð¾ÑĢ": 4495,
      "ĠÐ¿Ð°ÑĢÐ°Ð¼ÐµÑĤ": 4496,
      "ĠÐ¼Ð¸ÑĢÐ¾Ð²": 4497,
      "Ð¼ÐµÐ½ÑĤÐ¾Ð²": 4498,
      "ĠÐŁÐ¾Ñĩ": 4499,
      "ĠÑįÐ»ÐµÐºÑĤÑĢÐ¸": 4500,
      "ĠÐĵÐµÑĢÐ¼Ð°Ð½Ð¸Ð¸": 4501,
      "ĠÐ¿ÑĢÐµÐºÑĢÐ°Ñģ": 4502,
      "ĠÐ·Ð°ÑħÐ²Ð°": 4503,
      "Ġor": 4504,
      "ÑģÐ°Ñħ": 4505,
      "ĠÐŁÐ¾ÑĤ": 4506,
      "Ð¸Ð³ÑĢÐ°": 4507,
      "ĠÑģÐ»ÑĥÐ¶Ð±Ñĭ": 4508,
      "ĠÑĥÑģÑĤÑĢÐ¾Ð¹ÑģÑĤÐ²Ð°": 4509,
      "ĠÑĨÐµÐ½ÑĤÑĢÐ°": 4510,
      "ĠÐ½Ð¸Ð¼Ð¸": 4511,
      "ĠÐ½Ð°ÑĩÐ°Ð»ÑĮ": 4512,
      "ĠÐ¿Ð¾Ð·Ð½Ð°": 4513,
      "02": 4514,
      "ÑħÐ°Ð½": 4515,
      "ĠÑıÐ²": 4516,
      "ĠÐ¼Ð°ÑĤÐµÑĢÐ¸Ð°Ð»Ñĭ": 4517,
      "ÑĦÑĭ": 4518,
      "Ð²Ð¾Ð»Ð¸": 4519,
      "ĠÐ½Ð°Ð»Ð¾Ð³Ð¾Ð²": 4520,
      "Ð»Ð¸Ð²Ð¾": 4521,
      "ĠÑģÑĥÑĤ": 4522,
      "ÐĶÐ¾": 4523,
      "ĠÑĨÐµÐ»Ð¸": 4524,
      "ĠÐ¿ÑĢÐ¸ÑĪ": 4525,
      "ĠÐ»ÑĮ": 4526,
      "ĠÑĢÑĥÐºÐ¸": 4527,
      "ĠÐ²ÑĭÐ¿ÑĥÑģÐºÐ°": 4528,
      "ĠÑģÐ¸Ð»Ñĭ": 4529,
      "ĠÐ¾ÑĢÑĥÐ¶Ð¸": 4530,
      "ĠÐ±Ð¸Ð±Ð»Ð¸Ð¾ÑĤÐµ": 4531,
      "ĠÑģÐ¾Ð·Ð´Ð°ÑĤÑĮ": 4532,
      "ĠÐ´Ð¸Ð°Ð³": 4533,
      "ber": 4534,
      "ĠÐºÐ¾Ð¼Ð¼ÐµÐ½ÑĤÐ°": 4535,
      "ĠÐĵÐµ": 4536,
      "ain": 4537,
      "ĠÐ·Ð½Ð°ÑĩÐ¸ÑĤÐµÐ»ÑĮÐ½Ð¾": 4538,
      "Ġ2018": 4539,
      "Ġla": 4540,
      "ĠÐºÑĢÐ¸ÑĤÐ¸": 4541,
      "ction": 4542,
      "ÑīÑĳÐ½": 4543,
      "ÑĤÐ¸Ð²Ð½Ð¾Ð¹": 4544,
      "ĠÐ·Ð°ÑīÐ¸ÑĤÑĭ": 4545,
      "ĠÐ½ÐµÐ¿Ð¾ÑģÑĢÐµÐ´": 4546,
      "ÑĪÑĢÑĥ": 4547,
      "ĠÑģÐµÐ¼ÑĮÐ¸": 4548,
      "ĠÐ¤ÑĢÐ°Ð½ÑĨÐ¸Ð¸": 4549,
      "ĠÐ¸Ð´ÐµÑĤ": 4550,
      "ĠÐ¾Ð±Ð¾ÑĢÑĥÐ´Ð¾Ð²Ð°Ð½Ð¸Ñı": 4551,
      "ÐºÑĥÑİ": 4552,
      "Ð»Ð°Ñħ": 4553,
      "06": 4554,
      "198": 4555,
      "Ð³Ð¾Ð²Ð¾ÑĢ": 4556,
      "99": 4557,
      "ĠÐļÑĢÑĭ": 4558,
      "Ð»Ð°Ñı": 4559,
      "ÑĤÑĭÐµ": 4560,
      "ĠÑįÐ¼Ð¾": 4561,
      "cl": 4562,
      "ĠÐ·Ð°Ð¿ÑĢÐ¾Ñģ": 4563,
      "ĠÐŃÑĤÐ¸": 4564,
      "ĠÐºÐ°Ð¶Ð´Ð¾Ð¹": 4565,
      "ink": 4566,
      "ÐµÐºÑĤÐ¸": 4567,
      "ÑĩÑĳÑĤ": 4568,
      "ĠÐºÐ¾Ð¼Ð¿Ð¾Ð½": 4569,
      "ial": 4570,
      "ĠÐ¸Ð½ÑĤÐµÑĢÐµ": 4571,
      "ÐĶÐµ": 4572,
      "ĠÐºÐ¾Ð½ÑģÑĥÐ»ÑĮÑĤÐ°": 4573,
      "Ð¼Ð¸Ñı": 4574,
      "ĠÐ¼ÐµÑģÑıÑĨ": 4575,
      "ĠÐ¸Ð¼ÐµÐ½": 4576,
      "ĠÑĥÑģÑĤÐ°Ð½Ð°Ð²Ð»Ð¸": 4577,
      "ĠÐ´ÐµÐ»Ð°ÐµÑĤ": 4578,
      "ÑĤÐ½Ð¾Ð³Ð¾": 4579,
      "ĠÑĩÐµÑĤÐ²ÐµÑĢ": 4580,
      "ÐµÐ´ÑĮ": 4581,
      "ĠÐ¿Ð»Ð¾ÑĤ": 4582,
      "ĠÐ¿ÐµÑĢÐ²ÑĭÑħ": 4583,
      "ĠÐ¸Ð¼Ð¿ÐµÑĢÐ°": 4584,
      "ĠÑĤÐ¾Ð²Ð°ÑĢÐ°": 4585,
      "ĠÐºÐ¾Ð½ÑĨÐ°": 4586,
      "ÑģÐºÐ¾Ð»ÑĮÐºÐ¾": 4587,
      "ĠÑģÐ¾ÑģÑĤÐ¾ÑıÐ½Ð¸Ðµ": 4588,
      "ĠÐ²ÐºÑĥÑģ": 4589,
      "ĠÐ¿ÑĢÐµÐ´Ð»Ð°Ð³Ð°ÐµÑĤ": 4590,
      "ĠÑģÐ¿ÑĢÐ¾Ñģ": 4591,
      "Ð»ÑĮÑı": 4592,
      "ĠÐ¿Ð¾Ð¼Ð¾Ð¶ÐµÑĤ": 4593,
      "ĠÐ²Ð¾ÐºÑĢÑĥÐ³": 4594,
      "Ð¸Ð¼ÐµÐ½": 4595,
      "ĠÐ¢ÑĥÑĢ": 4596,
      "ĠÐºÐ»Ð¸ÐµÐ½ÑĤÐ¾Ð²": 4597,
      "ĠÐ¿ÑĢÐ¾ÑĨÐµÑģÑģÐ°": 4598,
      "ĠÐ²ÐµÑĢÑģÐ¸Ð¸": 4599,
      "ĠÐ¢Ñĥ": 4600,
      "Ð±Ð¸ÑĢ": 4601,
      "ÑīÐ¸Ðº": 4602,
      "ÐµÐ½Ð½Ð¾Ðµ": 4603,
      "ĠÐ¸Ð·Ð±Ðµ": 4604,
      "ĠÐºÐ»Ð¸ÐµÐ½ÑĤÐ°": 4605,
      "ĠÐ°ÑĢÐµÐ½": 4606,
      "Ð¾ÑĤÑĥ": 4607,
      "ĠÑģÐ¾ÐµÐ´Ð¸Ð½": 4608,
      "ĠÐ¾Ð±ÑıÐ·Ð°Ð½": 4609,
      "ĠÑģÑĤÑĢ": 4610,
      "ĠÑĤÐ¾ÑĩÐ½Ð¾": 4611,
      "ĠÑģÐ¾Ð²ÐµÑĢÑĪÐµÐ½Ð½Ð¾": 4612,
      "ĠÐ½Ð°ÑĩÐ°Ð»": 4613,
      "Ġ2020": 4614,
      "ĠÐ¸Ð·ÑĥÑĩ": 4615,
      "ĠÐĹÐµÐ¼": 4616,
      "ĠÐĲÐ´": 4617,
      "Ð¾Ð½Ð¾Ð¼": 4618,
      "ĠÐ¿ÑĢÐ¾Ð´Ð¾Ð»Ð¶Ð¸": 4619,
      "ĠÑĢÐµÐ¶Ð¸ÑģÑģ": 4620,
      "ĠÐ¼Ð¸ÐºÑĢÐ¾": 4621,
      "Ð³Ð°Ð¼Ð¸": 4622,
      "ÑģÑĤÑĥÐ¿Ð¸Ð»": 4623,
      "ÐºÐ¾Ð³": 4624,
      "ĠÐ·Ð½Ð°ÑĩÐµÐ½Ð¸Ñı": 4625,
      "ĠÐ½ÐµÐ¾Ð±ÑħÐ¾Ð´Ð¸Ð¼Ð¾ÑģÑĤÐ¸": 4626,
      "ĠÐ¼Ð¾Ð¹": 4627,
      "Ð¾ÑģÐ°": 4628,
      "ÑģÐµÐ½": 4629,
      "ÑĤÐµÐ»Ñİ": 4630,
      "ĠÐ¸ÑģÐ¿Ð¾Ð»ÑĮÐ·Ð¾Ð²Ð°Ð½Ð¸Ðµ": 4631,
      "ĠÐ¿ÑĢÐ¾Ð¸Ð·Ð¾ÑĪ": 4632,
      "ĠÐ³ÑĢÐ°ÑĦÐ¸": 4633,
      "ÑĩÐ¸ÐºÐ¸": 4634,
      "ÐľÐĺ": 4635,
      "ĠÐ¿ÑıÑĤÐ¸": 4636,
      "ÑĢÐ¾Ð²Ð°Ð»Ð¸": 4637,
      "ĠÐ¶Ð¸Ð´": 4638,
      "Ð½Ð¸ÐµÐ¹": 4639,
      "ĠÑĤÐ°Ð¹": 4640,
      "ÑģÑĤÐ²Ð¾Ð²Ð°Ð»": 4641,
      "Ð´ÐµÑĢÐ¶": 4642,
      "ĠÑģÐºÐ¾": 4643,
      "ĠÑĤÐµÐ±Ðµ": 4644,
      "ĠÐ±Ð»Ð¸Ð¶Ð°Ð¹": 4645,
      "ĠÐ¿ÑĢÐµÐ´Ð¿Ð¾Ð»Ð°Ð³Ð°": 4646,
      "Ġyou": 4647,
      "Ð¶Ð°Ð»": 4648,
      "ĠÐ¿ÑĢÐ¸Ð²Ñĭ": 4649,
      "Ð»Ñĳ": 4650,
      "ĠÐ¼Ð¸Ð½Ñĥ": 4651,
      "ĠÐºÐ¾Ð¼Ð¿Ð°Ð½Ð¸Ð¹": 4652,
      "ÑģÑĤÑĢÐ°Ð¸": 4653,
      "ĠÑģÐ¾Ð¿ÑĢÐ¾Ð²": 4654,
      "ĠÐ¿Ð¾Ð±Ðµ": 4655,
      "ĠÐ¿Ð°Ð½": 4656,
      "ĠÑĥÑĩÑĳ": 4657,
      "ÑħÐ¾Ð¶Ð´ÐµÐ½Ð¸Ñı": 4658,
      "ĠÐłÐ¾ÑģÑģÐ¸Ñı": 4659,
      "07": 4660,
      "ĠÐ½Ñĭ": 4661,
      "ĠÐ¾Ð±Ð»Ð°ÑģÑĤ": 4662,
      "ÐŀÑģÐ½Ð¾Ð²": 4663,
      "Ð½ÐµÑĪ": 4664,
      "ĠÐ¶ÐµÐ½ÑīÐ¸Ð½": 4665,
      "ĠÐ¿Ð¾ÑģÑĤÐ°Ð½Ð¾Ð²": 4666,
      "ĠÐ°Ð±ÑģÐ¾Ð»ÑİÑĤ": 4667,
      "ĠÐ²Ð°ÑĪÐµÐ³Ð¾": 4668,
      ":**": 4669,
      "ĠÐ¿Ð¾ÑĤÐµÑĢÑı": 4670,
      "pe": 4671,
      "Ð¤Ð¸Ð»ÑĮÐ¼Ñĭ": 4672,
      "ĠÑģÐ²Ð¾Ð¹ÑģÑĤÐ²Ð°": 4673,
      "ĠÑģÑĤÐ°ÑĢÐ°": 4674,
      "ĠÑģÐ¸ÑģÑĤÐµÐ¼Ðµ": 4675,
      "ĠÑĥÑĩÐµÑĤ": 4676,
      "ĠÑĥÐºÐ°Ð·ÑĭÐ²Ð°": 4677,
      "ĠÐ¸Ð³ÑĢÐ°ÑĤÑĮ": 4678,
      "Ġ500": 4679,
      "ĠÐ¿ÑĢÐ¾ÑĨ": 4680,
      "ĠÐ¿ÑĢÐ¾Ð³ÑĢÐ°Ð¼Ð¼Ð°": 4681,
      "Ġ2006": 4682,
      "Ð»ÐµÐºÐ¾": 4683,
      "Ð¾ÑĢÐ¾Ð¼": 4684,
      "ÑĤÐ°ÑĨÐ¸Ð¸": 4685,
      "ĠÐ¾ÑģÐ²Ð¾Ð±": 4686,
      "Ð»ÑıÑĨÐ¸Ð¸": 4687,
      "ĠÑĢÐ°ÑģÐ¿Ð¾Ð»Ð°Ð³Ð°": 4688,
      "ĠÐ¿ÐµÑĢÐµÑħÐ¾Ð´": 4689,
      "ĠÑĤÐµÐºÑĥ": 4690,
      "ĠÑĤÐ¾Ð²Ð°ÑĢ": 4691,
      "ÑģÐ°Ð¼": 4692,
      "Ð¶Ð´ÑĥÐ½Ð°ÑĢÐ¾Ð´": 4693,
      "ĠÐĳÐ°ÑĢ": 4694,
      "ÐµÐ´Ð¶": 4695,
      "ÑģÑĤÐ¸Ð½": 4696,
      "Ð²ÑĪÐµÐ¹": 4697,
      "Ð¾ÑĤÑı": 4698,
      "ĠÐ´ÑĢÑĥÐ·ÑĮÑı": 4699,
      "ĠÐ·Ð°Ð¼ÐµÐ½": 4700,
      "ÑĬÐµÐ¼": 4701,
      "ÑĨÐµÐ¼": 4702,
      "Ð¾Ð½ÐµÑĩÐ½Ð¾": 4703,
      "ĠÐ»Ð¾Ð³Ð¸": 4704,
      "ĠÐ¿ÑĢÐµÐ²Ñĭ": 4705,
      "ows": 4706,
      "ĠÐ¿ÑĢÐµÐ¶Ð´Ðµ": 4707,
      "ĠÐºÑĥÐ´Ð°": 4708,
      "ĠÐ¼Ð½ÐµÐ½Ð¸Ñİ": 4709,
      "ĠCh": 4710,
      "ÑģÐ°Ð¼Ð¸": 4711,
      "Ð±Ð¾ÑĤÐ°Ð½": 4712,
      "ĠÐ»ÐµÐºÐ°ÑĢ": 4713,
      "ĠÐ²Ð¾Ð²": 4714,
      "ÑİÑĢ": 4715,
      "ĠÑĤÑĢÐ°Ð½Ñģ": 4716,
      "Ð¾Ð²Ð¾Ð³Ð¾": 4717,
      "ĠÑģÐ½Ðµ": 4718,
      "ĠÐ¿Ð¾Ð²ÐµÑĢÑħÐ½Ð¾ÑģÑĤÐ¸": 4719,
      "ÑģÐºÐ¾Ð¿": 4720,
      "ÑĥÐ³Ð¾Ð»ÑĮ": 4721,
      "ÐµÐ¼ÑģÑı": 4722,
      "ÑıÐ¶ÐµÐ½Ð¸Ð¸": 4723,
      "ĠÑģÐ¾Ð³Ð»Ð°ÑģÐ½Ð¾": 4724,
      "Ġ2008": 4725,
      "ĠÑģÐ¾Ð¾Ð±ÑīÐ°ÐµÑĤ": 4726,
      "Ð±ÑĢÑĮ": 4727,
      "Ð¾ÑģÐ»Ð°Ð²": 4728,
      "Ð´Ð¸Ð´Ð°": 4729,
      "ĠÐ¿ÑĢÐ¾ÑĨÐµÑģÑģÐµ": 4730,
      "ĠÐºÐ¾Ð¼Ð¿ÑĮÑİÑĤÐµÑĢ": 4731,
      "ĠÑĨÐµÑĢÐºÐ¾Ð²": 4732,
      "ĠÑģÐ²Ð¸Ð´ÐµÑĤÐµÐ»ÑĮ": 4733,
      "ÐĴÐ¸": 4734,
      "ĠÐ²ÑĭÐ¿Ð»Ð°": 4735,
      "ÑīÐ°ÑĤÑĮÑģÑı": 4736,
      "ĠÐ³Ñĥ": 4737,
      "ĠÐ³Ð»Ñĥ": 4738,
      "ĠÑģÐµÑĢÐ¸": 4739,
      "Ġht": 4740,
      "ĠÐ·Ð¾Ð»Ð¾ÑĤ": 4741,
      "âĤ¬": 4742,
      "ÐłÐŀ": 4743,
      "ĠÐ¾ÑĤÐº": 4744,
      "Ð·Ð¸ÑĤÑĮ": 4745,
      "ĠÑĢÐ°Ð·ÑĢÑĥ": 4746,
      "ĠÐ²Ð¿Ð¾Ð»Ð½Ðµ": 4747,
      "ÑĪÐ°ÐµÑĤÑģÑı": 4748,
      "ĠÐ¿Ð¾Ð²ÐµÐ´": 4749,
      "ÑĥÐ»ÑĮÑĤÐ¸": 4750,
      "Ġit": 4751,
      "ĠÐ¿Ð¾ÑģÐ»ÐµÐ´Ð½Ð¸Ðµ": 4752,
      "Ð½Ð¾Ð³Ð¸Ðµ": 4753,
      "ĠÑĩÐ¸ÑģÑĤ": 4754,
      "ĠÐ±Ð°Ð½ÐºÐ¾Ð²": 4755,
      "ĠÐ´ÐµÑĤÐ¸": 4756,
      "Ð±Ð¾Ð»Ð¸": 4757,
      "Ð¾Ð±Ð°": 4758,
      "Ð»Ð¸Ð²Ð°": 4759,
      "ÑĩÐ¸Ð½Ñĭ": 4760,
      "ll": 4761,
      "ĠÐ·Ð°ÐºÐ»ÑİÑĩÐ°": 4762,
      "ĠÑĢÐµÐ³ÑĥÐ»Ð¸": 4763,
      "ĠÐ»Ð¸Ð½": 4764,
      "ĠÐ¿Ð¾ÑĤÑĢÐµÐ±Ð¸": 4765,
      "ĠÐĺÐ²Ð°Ð½Ð¾Ð²": 4766,
      "ĠÐºÐ½Ð¾Ð¿": 4767,
      "ĠÐ¿Ð»Ð°ÑĤÐµ": 4768,
      "Ð¾ÑĢÑĥÑģ": 4769,
      "ĠÑĢÐ°Ð·Ð½ÑĭÐµ": 4770,
      "Ð²ÐµÐ»Ð¸": 4771,
      "Ð¡ÑĤÐ°": 4772,
      "ĠÐ¿Ð¾ÐµÐ·Ð´": 4773,
      "Ð¾ÑĤÐ¾ÑĢÑĭÐµ": 4774,
      "ĠÑģÐ¾Ð±Ð»Ñİ": 4775,
      "}{": 4776,
      "ĠÑĨÐµÐ½ÑĤÑĢÐµ": 4777,
      "ĠÐĲÐ½Ð³": 4778,
      "ĠÐ´ÑĢÑĥÐ³Ð¸Ð¼": 4779,
      "Ġif": 4780,
      "ĠÐ´Ð¸ÑĢÐµÐºÑĤÐ¾ÑĢ": 4781,
      "ĠÐŀÑģÐ½Ð¾Ð²": 4782,
      "ĠÑĤÐµÑħÐ½Ð¾Ð»Ð¾Ð³Ð¸Ð¸": 4783,
      "Ð½Ð¾Ð²ÑĮ": 4784,
      "Ð¾Ð¶Ð°Ð»ÑĥÐ¹": 4785,
      "Ð¿ÑĤÐ¾Ð¼": 4786,
      "ĠÐ²ÑĭÑģÑĤÐ°Ð²": 4787,
      "ĠÐ±ÑĢÐµÐ½": 4788,
      "ĠÐ¿Ð¾Ð±ÐµÐ´Ð¸": 4789,
      "ÐµÑĢÐ¾Ð¼": 4790,
      "ĠÐ¶Ð¸ÑĤÐµÐ»ÐµÐ¹": 4791,
      "Ð±Ð¸Ð»Ð¸": 4792,
      "ĠÑĢÐ°ÑģÑģÑĤÐ¾Ñı": 4793,
      "Ð»ÐµÐ½Ð½ÑĭÐ¹": 4794,
      "ĠÐľÐ¾ÑģÐºÐ²Ð°": 4795,
      "ĠÑģÑĨÐµÐ½Ð°": 4796,
      "ÑĢÐ¸ÑĨÐ°": 4797,
      "ĠÑģÐ¿Ñĥ": 4798,
      "ĠÐ¡ÐµÑĢÐ³ÐµÐ¹": 4799,
      "ĠÐ·Ð°Ð¿Ð°Ð´": 4800,
      "ĠÐ´Ð°Ð²Ð½Ð¾": 4801,
      "ĠÐ²ÐµÑĩÐµÑĢ": 4802,
      "ĠÑģÐºÑĢÑĭ": 4803,
      "ĠÐ±Ð¸Ð»": 4804,
      "ĠÐ¼ÐµÑħÐ°Ð½Ð¸Ð·": 4805,
      "ĠÐ¿Ð¾ÑģÑĤ": 4806,
      "ĠÐºÐ¸Ð»": 4807,
      "Ġex": 4808,
      "ĠÐ¼ÐµÑģÑıÑĨÐ°": 4809,
      "ÑĤÐ¸Ð»Ð¸": 4810,
      "ĠÐ¶ÑĥÑĢÐ½Ð°Ð»Ð¸": 4811,
      "ĠÐĿÑĥ": 4812,
      "ĠÐĵÐ¾ÑģÑĥÐ´Ð°ÑĢ": 4813,
      "ÐĴÐµ": 4814,
      "ĠÑģÐ°Ð¼Ð¾ÑģÑĤÐ¾ÑıÑĤÐµÐ»ÑĮÐ½Ð¾": 4815,
      "ĠÐ·ÑĢÐµÐ½Ð¸Ñı": 4816,
      "Ð±ÑĥÐ´ÑĮ": 4817,
      "ĠÑĢÐµÐ·ÑĥÐ»ÑĮÑĤÐ°ÑĤ": 4818,
      "ĠÐ¼Ð¾Ð·": 4819,
      "ĠÐ½ÐµÐ´Ð²Ð¸Ð¶": 4820,
      "ĠÑģÐ¾ÑģÑĤÐ¾ÑıÐ½Ð¸Ð¸": 4821,
      "ĠÑĩÑĤ": 4822,
      "Ð¿ÐµÑĤ": 4823,
      "ĠÐ¿Ð°ÑĢÑĤÐ¸Ð¸": 4824,
      "ÐļÐŀ": 4825,
      "ĠÐŁÐ°ÑĢ": 4826,
      "Ġ2009": 4827,
      "Ð¾Ð±Ðµ": 4828,
      "ĠÐ¼Ð¾Ð¼ÐµÐ½ÑĤÐ°": 4829,
      "90": 4830,
      "ÐĿÐŀ": 4831,
      "ĠÐ¼Ð¸Ð½Ð¸Ð¼Ð°": 4832,
      "Ð¼Ð¼": 4833,
      "for": 4834,
      "ĠÑģÑĩÐ¸ÑĤÐ°ÐµÑĤÑģÑı": 4835,
      "ĠÐºÐ¾Ð³Ð¾": 4836,
      "ĠÐ½Ð°ÑĥÐº": 4837,
      "ÑĢÐ¸Ð»": 4838,
      "ĠÐ¿ÑĢÐ¾Ð·": 4839,
      "Ð¸Ð»Ð°ÑģÑĮ": 4840,
      "per": 4841,
      "ÐłÐĲ": 4842,
      "Ð¸Ð³ÑĢÑĭ": 4843,
      "ĠÐ°Ð²ÑĤÐ¾Ð¼Ð¾Ð±Ð¸Ð»Ñı": 4844,
      "eg": 4845,
      "ĠÐ¿Ð¾ÑģÐ»ÐµÐ´Ð¾Ð²Ð°": 4846,
      "Ð¾Ð¿ÑĢÐ¾": 4847,
      "ĠÐ±Ð¾Ð»ÑĮÑĪÐ¾Ðµ": 4848,
      "Ġus": 4849,
      "ÑģÑģÐ°Ð¶Ð¸": 4850,
      "ĠÐ¶ÐµÐ½ÑīÐ¸Ð½Ñĭ": 4851,
      "ĠÐºÐ¾Ð»Ð¸ÑĩÐµÑģÑĤÐ²Ð°": 4852,
      "ÑĢÐ°Ð¹": 4853,
      "Ġ80": 4854,
      "ĠÐ½Ð°ÑģÑĤ": 4855,
      "ÐµÐ¼Ð¾Ð³Ð¾": 4856,
      "Ð¸ÑĤÐµÑĤ": 4857,
      "Ð¼Ð¾ÑĢ": 4858,
      "ÑİÑīÑĥÑİ": 4859,
      "ĠÐ´Ð»Ð¸Ð½": 4860,
      "ĠÐ½Ð¸Ð¶": 4861,
      "ĠÑģÑĦÐµÑĢÐµ": 4862,
      "Ð»Ð¾Ðµ": 4863,
      "ĠÐ°ÐºÑĤÑĥ": 4864,
      "Ð»ÐµÐ½Ð½Ð¾Ð¹": 4865,
      "ĠÐľÐ°Ð¹": 4866,
      "ĠÐ¾ÑĤÐ½Ð¾ÑĪÐµÐ½Ð¸Ð¸": 4867,
      "ĠÐ³Ð¾ÑĢÑı": 4868,
      "ĠÐŁÐ¸": 4869,
      "ĠÐ¼Ð°ÑĢÑĪÑĢÑĥ": 4870,
      "Ð½Ð¾Ð´": 4871,
      "ĠÑĢÐ¾Ð´Ð°": 4872,
      "ding": 4873,
      "ĠÐ¾ÑĢÐ³Ð°Ð½Ð¸Ð·Ð°ÑĨÐ¸Ñı": 4874,
      "ĠÐ¾ÑĢÐ³Ð°Ð½Ð¾Ð²": 4875,
      "ĠÐ·Ð°ÑĢÐµÐ³Ð¸ÑģÑĤÑĢÐ¸": 4876,
      "ÑģÑĤÑĮÑı": 4877,
      "ÑĦÑĢÐ¸": 4878,
      "ĠÐ¼ÐµÑĤÑĢÐ¾Ð²": 4879,
      "ĠÑģÐ¾Ð±ÑĭÑĤÐ¸Ñı": 4880,
      "ÑĨÐ¸ÑıÐ¼Ð¸": 4881,
      "ÐºÐ°ÑĤÐµÑĢÐ¸": 4882,
      "ĠÐĺÐ¼ÐµÐ½Ð½Ð¾": 4883,
      "ĠXX": 4884,
      "ÑĩÐ¸ÑĤÐµÐ»ÑĮÐ½Ð¾": 4885,
      "Ð½ÑĥÐ»": 4886,
      "ĠÑģÐ»Ð¾Ð²Ð¾": 4887,
      "ĠÐ´Ð°ÐµÑĤ": 4888,
      "ĠAn": 4889,
      "ĠÐºÑĢÐµÐ´Ð¸ÑĤ": 4890,
      "ĠÐ¸Ð·Ð²ÐµÑģÑĤÐ½Ð¾": 4891,
      "ĠÐ¼Ð¾Ð³Ð»Ð¸": 4892,
      "Ð°Ð³": 4893,
      "Ġle": 4894,
      "ust": 4895,
      "ĠÑħÐ²Ð°": 4896,
      "elf": 4897,
      "ĠÐ²ÑĭÐ·Ð²Ð°": 4898,
      "ĠÐ¿Ð¾Ð»Ð¾Ð¶Ð¸ÑĤÐµÐ»ÑĮ": 4899,
      "ÑĢÐ¾Ð²Ð¾Ð´": 4900,
      "Ð¡Ð°Ð¼": 4901,
      "Ġ2007": 4902,
      "ÑĢÐ¾Ð²ÐºÐ°": 4903,
      "ĠÑħÑĥÐ´Ð¾Ð¶Ðµ": 4904,
      "ĠÐ½Ð°Ð³ÑĢÑĥÐ·": 4905,
      "ÐºÑģÐ°": 4906,
      "ĠÐ»ÑİÐ´": 4907,
      "ĠÑĦÑĢÐ°": 4908,
      "ens": 4909,
      "ĠÑħÐ¾ÑĤÐ¸ÑĤÐµ": 4910,
      "ĠÐĵÑĢÐ¸": 4911,
      "ÑĪÐµÑĤ": 4912,
      "ÐľÐ¸": 4913,
      "ry": 4914,
      "ĠÐĺÑĤÐ°": 4915,
      "ĠÐ¿ÐµÑĢÐ²ÑĭÐµ": 4916,
      "ÑıÐ²Ð»ÐµÐ½Ð¸Ðµ": 4917,
      "ĠÐ¼ÐµÑĢÐµ": 4918,
      "36": 4919,
      "ĠÑģÑĥÐ¿": 4920,
      "ĠÐ²Ð¾Ð·ÑĢÐ°ÑģÑĤÐ°": 4921,
      "ÑĢÐ¾Ð²Ð°Ð½Ñĭ": 4922,
      "ĠÐ¾Ð±Ð½Ð°ÑĢÑĥÐ¶Ð¸": 4923,
      "Ð¿Ð»Ð¾Ð¼": 4924,
      "ÑİÑīÐ¸ÐµÑģÑı": 4925,
      "Ð²Ð¾Ð²": 4926,
      "Ð²ÐµÐ»": 4927,
      "ÐºÐ¾Ð²ÑĭÑħ": 4928,
      "75": 4929,
      "ĠÐ¿ÑĤÐ¸": 4930,
      "ĠÑĢÐµÐºÐ¸": 4931,
      "ath": 4932,
      "Ġhttp": 4933,
      "ĠÐ¿Ð°Ðº": 4934,
      "ĠÑģÐ¾Ð²ÐµÑĤÑģÐºÐ¸Ð¹": 4935,
      "ĠÑįÑĦÑĦÐµÐºÑĤ": 4936,
      "ÑģÑģÑĭ": 4937,
      "Ġreturn": 4938,
      "Ð¾Ð½Ñĥ": 4939,
      "Ġch": 4940,
      "ĠÑĤÑĥÑĢÐ¸": 4941,
      "ĠÐ¾Ð±ÑĥÑĩÐµÐ½Ð¸Ñı": 4942,
      "ĠÐ¸Ð³ÑĢ": 4943,
      "ĠÐ±ÐµÑĢÐµÐ¼ÐµÐ½": 4944,
      "ÑģÑģÐ¸Ð¸": 4945,
      "ĠÐºÐ»Ð°ÑģÑģÐ°": 4946,
      "ÐļÑĥ": 4947,
      "ĠÐĶÐ°Ð½": 4948,
      "ĠÑģÐµÑĢÐ¸Ð¸": 4949,
      "ĠÐ±Ð¾Ð½ÑĥÑģ": 4950,
      "ĠÐ´Ð¸ÑģÐº": 4951,
      "ĠÐ·Ð°ÑĤÑĢÐ°": 4952,
      "ĠÑĤÐ°ÐºÐ°Ñı": 4953,
      "Ð´Ð°Ð¼Ð¸": 4954,
      "ĠÑĢÐµÐºÐ¾Ð¼ÐµÐ½Ð´Ñĥ": 4955,
      "ĠÐ²ÑĭÐ±Ð¾ÑĢÐ°": 4956,
      "ĠÑĢÐ¾Ð¶Ð´ÐµÐ½Ð¸Ñı": 4957,
      "ÑĢÐµÐ·Ð°": 4958,
      "ÑģÐ¸Ñİ": 4959,
      "Ð´Ñı": 4960,
      "ĠÐļÐ¾": 4961,
      "ĠÐ¿ÑĢÐ¸Ð¼ÐµÐ½ÐµÐ½Ð¸Ñı": 4962,
      "ÐĶÐ¸": 4963,
      "ÑĤÑĢÐµ": 4964,
      "ĠÐ¾ÑĤÐ½Ð¾ÑģÐ¸ÑĤÐµÐ»ÑĮÐ½Ð¾": 4965,
      "Ð¾ÑĤÐ½Ð¾": 4966,
      "ĠÐ´Ð¾ÐºÑĥÐ¼ÐµÐ½ÑĤÑĭ": 4967,
      "ĠÐłÐµÑģÐ¿ÑĥÐ±Ð»Ð¸ÐºÐ¸": 4968,
      "ĠÐ·Ð½Ð°Ð¼ÐµÐ½Ð¸": 4969,
      "ĠÐ¿Ð¾Ð»Ñı": 4970,
      "ĠÐ¿Ð¾ÑĢÑĤÐ°": 4971,
      "08": 4972,
      "ĠÐ²Ð°Ð½": 4973,
      "ĠÐ»Ð¸Ð´ÐµÑĢ": 4974,
      "ĠÐ¸ÑģÐ¿ÑĭÑĤÐ°": 4975,
      "ĠÐºÑĢÐµÐ¿": 4976,
      "Ð¿ÐµÑĢÐµ": 4977,
      "Ð¾ÐºÐ¾Ð¼": 4978,
      "Ð¾Ð»Ñİ": 4979,
      "ĠÐ¿ÑĢÐ¾Ð´ÑĥÐº": 4980,
      "ÑģÐµÐ´": 4981,
      "ĠÐºÐ¾Ð½ÑĤÐ°": 4982,
      "Ð»ÑĮÐ½Ð¾Ð¼": 4983,
      "ĠÐ°ÑĢÐ¼Ð¸Ð¸": 4984,
      "95": 4985,
      "frac": 4986,
      "ÑĤÐ¸Ð²Ð½Ð¾Ð³Ð¾": 4987,
      "ÑĦÐµÐ¹": 4988,
      "Ð¾ÐºÑģÐ¸": 4989,
      "Ð´Ð¾Ñħ": 4990,
      "ĠÑĢÐ°ÑģÐ¿ÑĢÐµÐ´Ðµ": 4991,
      "ĠÐºÑĢÐ¾Ð²Ð¸": 4992,
      "ÑĮÐµÑĢÐ°": 4993,
      "ĠÐ¿ÑĢÐµÐ·Ð¸Ð´ÐµÐ½ÑĤ": 4994,
      "ĠÐ¾ÑģÐ½Ð¾Ð²Ð½ÑĭÑħ": 4995,
      "ĠÐ°Ð¿Ð¿Ð°ÑĢÐ°": 4996,
      "ĠÑĢÐµÑģÑĤÐ¾": 4997,
      "ĠÑģÐ¾Ð¾ÑĤÐ²ÐµÑĤÑģÑĤÐ²ÑĥÑİÑīÐ¸": 4998,
      "ĠÑģÑĤÐ¾ÑĢÐ¾Ð½Ñĥ": 4999,
      "Ð´ÑĥÐ¼Ð°": 5000,
      "ĠÑĤÐ¾Ð¹": 5001,
      "ĠÐ´ÐµÐ¹ÑģÑĤÐ²Ð¸Ð¹": 5002,
      "ĠÐ½Ð°ÑħÐ¾Ð´ÑıÑĤÑģÑı": 5003,
      "ĠÐ³ÑĢ": 5004,
      "ÑĭÐ´Ñĥ": 5005,
      "ĠÐ¾Ð±ÑĬÐµÐ´Ð¸Ð½": 5006,
      "ĠÐ´Ð°Ð½Ð½Ð¾Ð³Ð¾": 5007,
      "ĠÑģÐ²Ð°": 5008,
      "ĠÐŀÑĤÐµ": 5009,
      "Ð»ÑĭÑĪÐ°": 5010,
      "Ð½ÐµÐ½Ð¸Ñİ": 5011,
      "ĠÑģÑĥÐ´ÐµÐ±": 5012,
      "Ð¡Ð¾Ð²": 5013,
      "Ġ2005": 5014,
      "ĠÐ²ÐµÑģÑĮÐ¼Ð°": 5015,
      "ÑģÑĤÑĢÐ¾Ð²": 5016,
      "ĠÐ²Ð½Ð¾Ð²ÑĮ": 5017,
      "ĠÐ¸Ð¼Ð¿": 5018,
      "ÑģÐ¼": 5019,
      "ĠÑģÐ½Ð¸Ð¼Ð°": 5020,
      "ÑĢÐ¸ÑĦ": 5021,
      "ÑĥÑİÑīÐ¸Ñħ": 5022,
      "ich": 5023,
      "ĠÐ²Ð»Ð°Ð´ÐµÐ»ÑĮ": 5024,
      "ĠÐ²Ð¿ÐµÑĩÐ°ÑĤ": 5025,
      "Ð¼ÑĥÐ¼": 5026,
      "09": 5027,
      "ĠÐ°ÐºÑĤÐ¸": 5028,
      "ey": 5029,
      "ĠÐ±Ð¾": 5030,
      "Ð²Ð¾Ð³Ð¾": 5031,
      "ĠÑģÐµÑĢÐµÐ´Ð¸": 5032,
      "ĠÐ¾Ð·Ð½Ð°ÑĩÐ°ÐµÑĤ": 5033,
      "ĠÐ¾ÑĤÐ¿Ñĥ": 5034,
      "ĠÐ¿Ð¾Ð¿ÑĭÑĤ": 5035,
      "out": 5036,
      "ĠÑģÐºÐ°ÑĩÐ°ÑĤÑĮ": 5037,
      "ĠÐ´Ð¾Ð¼Ðµ": 5038,
      "ĠÐ¾ÑĤÐ½Ð¾ÑģÑı": 5039,
      "ĠÐ·ÑĥÐ±": 5040,
      "ĠÐ¿Ð¾Ð»Ðµ": 5041,
      "Ġal": 5042,
      "ĠÑĤÑĢÐµÐ±Ð¾Ð²Ð°": 5043,
      "yth": 5044,
      "ĠÐ·Ð°ÑĤ": 5045,
      "Ð·ÑĭÐ²Ð°ÑİÑĤ": 5046,
      "ĠÑĢÑĭÐ½ÐºÐ°": 5047,
      "ĠÑģÑĥÐ¼Ð¼Ñĥ": 5048,
      "ÑħÐ°Ð»": 5049,
      "ĠÐ»Ð¾Ð¶": 5050,
      "ÐºÐ¾Ð±ÑĢÐ¸ÑĤÐ°": 5051,
      "ĠÐŁÑĢ": 5052,
      "ĠÑĤÑĢÐµÐ½": 5053,
      "ĠÐ¿Ð¾ÑĢÐ°": 5054,
      "ÑģÐºÐ¾ÑĢÐµ": 5055,
      "ĠÑĢÐµÐ²Ð¾Ð»Ñİ": 5056,
      "ĠÐ²Ð¾ÑģÐ¿ÑĢÐ¸": 5057,
      "ĠÐ²Ð¼ÐµÑģÑĤÐ¾": 5058,
      "ĠÐļÑĥÑĢ": 5059,
      "Ð½ÐµÐ¼Ñĥ": 5060,
      "ĠÐķÐ²ÑĢÐ¾Ð¿Ñĭ": 5061,
      "ĠÐľÐ¸Ð½Ð¸": 5062,
      "ide": 5063,
      "ĠÐ·Ð°Ð´Ð°ÑĩÐ¸": 5064,
      "Ð§ÑĤÐ¾Ð±Ñĭ": 5065,
      "ĠÐŁÑĢÐ°Ð²Ð¸": 5066,
      "ĠÐ°ÑĤÐ¼Ð¾Ñģ": 5067,
      "ĠÐĵÐµÐ½": 5068,
      "ĠÐ¿ÑĢÐ¾Ð´ÑĥÐºÑĤÐ¾Ð²": 5069,
      "ÑĢÐ¾Ð²Ð°Ð½Ð½ÑĭÐµ": 5070,
      "ĠÐ¿Ð¾ÑĢÑıÐ´ÐºÐµ": 5071,
      "ĠÑģÐ¾Ð²ÐµÑĢÑĪÐµÐ½": 5072,
      "Ð·Ð¸Ð´ÐµÐ½": 5073,
      "ĠÐ´ÐµÐ²Ð¾": 5074,
      "ĠÐ¸ÑģÐ¿Ð¾Ð»ÑĮÐ·ÑĥÑİÑĤÑģÑı": 5075,
      "ÑĢÐ¾Ð²Ð°Ð½Ð½ÑĭÑħ": 5076,
      "ÑģÐ¸Ð¾Ð½": 5077,
      "ĠÐ¼ÐµÑĢÐ¾Ð¿ÑĢÐ¸": 5078,
      "ĠÐ¢Ð°ÐºÐ¸Ð¼": 5079,
      "ĠÐ±Ð¸ÑĤ": 5080,
      "ÑĤÐ°Ð¶": 5081,
      "Ð²ÑıÑĤ": 5082,
      "ĠÑģÐ¿Ð¾ÑĢÑĤ": 5083,
      "Ġ35": 5084,
      "Ð´Ð°Ð¼": 5085,
      "ĠÐ´Ð¾ÐºÐ°Ð·Ð°": 5086,
      "ĠÑĥÑĢÐ°Ð²": 5087,
      "ĠÐ¸Ð´": 5088,
      "ĠÐ¿Ð»Ðµ": 5089,
      "33": 5090,
      "Ð³ÑĢÐ°Ð´": 5091,
      "ĠÑĤÑĢÐµÐ±ÑĥÐµÑĤ": 5092,
      "ÑĪÐµÐ¼Ñĥ": 5093,
      "ÑģÐ¸ÑĤÑĮ": 5094,
      "Ð¢Ð°ÐºÐ¶Ðµ": 5095,
      "Â²": 5096,
      "Ð½ÑĮÑĪÐµ": 5097,
      "ĠÐ°Ð½Ð°Ð»Ð¸Ð·": 5098,
      "ĠÐ·Ð´Ð¾ÑĢÐ¾Ð²ÑĮÑı": 5099,
      "ĠÐ¿ÑĢÐµÐ¿Ð¾Ð´Ð°": 5100,
      "ĠÑģÐ¾ÑħÑĢÐ°Ð½": 5101,
      "ĠÐ¸ÑĤÐ¾Ð³Ðµ": 5102,
      "ĠÐ¿Ð°ÑĢÑĤÐ½ÐµÑĢ": 5103,
      "ÑģÐ¿Ð¾ÑĢÑĤ": 5104,
      "ite": 5105,
      "ĠÑįÐ½ÐµÑĢÐ³": 5106,
      "Ð½ÐµÑĢÐ°": 5107,
      "ĠÐ¿Ð°Ð»ÑĮ": 5108,
      "Ã©": 5109,
      "ĠÐ¿Ð°ÑģÑģÐ°Ð¶Ð¸": 5110,
      "ĠÑģÐ¾Ð¼": 5111,
      "ĠÐ»ÐµÑģ": 5112,
      "ĠÐ½Ð°Ð»Ð¸ÑĩÐ¸Ð¸": 5113,
      "Ð»ÐµÐ½Ð½Ð¾": 5114,
      "ĠÐ¾Ð´Ð½Ð¾Ð²ÑĢÐµÐ¼ÐµÐ½Ð½Ð¾": 5115,
      "ĠÐ¿ÑĥÑĤÑĮ": 5116,
      "ĠÐ¿ÑĢÐ¸ÑıÑĤ": 5117,
      "ÑĩÐµÐ½Ð¾": 5118,
      "ÑīÐµÐ½Ñĭ": 5119,
      "ĠÐ³Ð°ÑĢÐ°Ð½ÑĤÐ¸": 5120,
      "ÐĴÐ¾Ð·": 5121,
      "ĠÐ°Ð³ÐµÐ½ÑĤ": 5122,
      "ĠÐ´Ð¾Ð»Ð³Ð¾": 5123,
      "Ð¢ÐµÐ¿ÐµÑĢÑĮ": 5124,
      "Ġthat": 5125,
      "ĠÐ½ÐµÐ´Ð¾ÑģÑĤÐ°": 5126,
      "ĠÑĥÑĩÐ°ÑģÑĤÐ½Ð¸ÐºÐ¾Ð²": 5127,
      "ĠÐ¿Ð¾Ð²ÑĢÐµ": 5128,
      "ĠÐºÐ°ÑĢÑĤÐ¸": 5129,
      "ime": 5130,
      "ĠÐºÑĢÑĥÐ¿Ð½ÐµÐ¹": 5131,
      "ĠÐľÐ¾Ð»": 5132,
      "Ð¶Ð´ÑĭÐ¹": 5133,
      "ĠÑĢÐµÑĨÐµÐ¿": 5134,
      "ĠÐ¿Ð¾Ð´ÑĩÐµÑĢ": 5135,
      "ÑĥÑİÑīÐ¸Ðµ": 5136,
      "ĠÑģÐ°Ð¼Ð¾Ð»": 5137,
      "ÑīÐ°ÑİÑĤ": 5138,
      "ĠÑĥÑĤÐ²ÐµÑĢÐ¶Ð´Ð°": 5139,
      "ino": 5140,
      "ĠÐ½Ð°Ð»Ð¸ÑĩÐ¸Ðµ": 5141,
      "ÑĢÐ°Ð²Ð¸ÑĤÑĮ": 5142,
      "ĠÑĨÐµÑĢÐºÐ²Ð¸": 5143,
      "()": 5144,
      "ĠÐĹÐ°ÑĤÐµÐ¼": 5145,
      "Ð½Ð¸Ð±ÑĥÐ´ÑĮ": 5146,
      "ĠÐ¾Ð±Ð¾": 5147,
      "ĠÐ³ÑĢÑĥÐ¿Ð¿": 5148,
      "ĠÐ´ÐµÐ¼Ð¾Ð½": 5149,
      "Ð²Ð¾ÑĢÐ¸": 5150,
      "ĠÑįÐºÑĢÐ°": 5151,
      "78": 5152,
      "ĠÑĤÑĢÐµÐ±ÑĥÐµÑĤÑģÑı": 5153,
      "ĠÐ²Ð¸Ð´Ñĭ": 5154,
      "Ð²ÐµÐ´ÐµÐ½Ð¸Ðµ": 5155,
      "ÐºÐµÑĢ": 5156,
      "ĠÐºÐ°Ð·Ð°": 5157,
      "ĠÐºÐ¾Ð½ÑĦÐ»Ð¸": 5158,
      "Ð²Ð°Ð½Ð¸Ð¹": 5159,
      "ÑĤÐ¸ÑģÑĤÐ¸": 5160,
      "ĠÐ¿Ð¾Ð´Ð²ÐµÑĢ": 5161,
      "ÐĳÐ¸": 5162,
      "ĠÑģÐ¾ÑģÐµÐ´": 5163,
      "ĠÐ¶Ð¸Ð»ÑĮ": 5164,
      "ÑģÐ¸Ð¹": 5165,
      "ĠÐ¿Ð¸ÑĤÐ°Ð½Ð¸Ñı": 5166,
      "ÑĢÐ¸ÑģÑĤÐ¸Ð°Ð½": 5167,
      "ĠÐ¿ÐµÑĢÐ²ÑĭÐ¼": 5168,
      "to": 5169,
      "ĠÐ¤Ð¾ÑĢ": 5170,
      "ĠÑĤÐµÑħÐ½Ð¸ÐºÐ¸": 5171,
      "Ð½Ð¾Ð²ÐµÐ½Ð¸Ñı": 5172,
      "ĠÐ²ÑħÐ¾Ð´Ð¸ÑĤ": 5173,
      "ÐºÐ°Ð½Ð°": 5174,
      "ĠÐ¾Ð¿Ñĥ": 5175,
      "ÑĩÑĤÐ¾": 5176,
      "ÑĤÐµÐ»ÑĮÐ½ÑĥÑİ": 5177,
      "ĠÐ¢ÐµÐ¿ÐµÑĢÑĮ": 5178,
      "ĠÑĢÐ¾ÑģÑģÐ¸Ð¹ÑģÐºÐ¸Ð¹": 5179,
      "ĠÑĢÐµÐ°Ð»Ð¸Ð·Ð°ÑĨÐ¸Ð¸": 5180,
      "ĠÑħÑĢÐ°Ð½": 5181,
      "ĠÐºÐ¾Ð¿Ð¸": 5182,
      "ĠÐ£ÐºÑĢÐ°Ð¸Ð½Ðµ": 5183,
      "ÑĤÐ°ÐºÐ¸": 5184,
      "ĠÐ¿ÑĢÐ¸Ð²Ð»Ðµ": 5185,
      "ĠÐ¸ÑģÑħÐ¾Ð´": 5186,
      "ĠÑĤÐµÑĢÐ°": 5187,
      "ÑģÑĤÐ°Ð»": 5188,
      "ĠÑĤÑĢÑĳÑħ": 5189,
      "ĠÐ¡Ðº": 5190,
      "ĠÐ¿Ð¾Ð¼Ð¾Ð³Ð°ÐµÑĤ": 5191,
      "ĠÑģÑĤÑĢÐ¾Ð¸ÑĤÐµÐ»ÑĮÑģÑĤÐ²Ð°": 5192,
      "ĠÐ½Ð¸ÐºÑĤÐ¾": 5193,
      "ĠÐ»Ð¸ÑĪ": 5194,
      "ĠÐ·Ð°Ð¼ÐµÑĩÐ°": 5195,
      "ĠÐ½Ð°ÑĤÑĥ": 5196,
      "Ð¾Ð²Ñĭ": 5197,
      "Ð°Ð¼ÐµÑĤ": 5198,
      "ĠÐŃÑĤÐ°": 5199,
      "ĠÑĥÐ¶": 5200,
      "Ð²ÑĭÐ¼Ð¸": 5201,
      "ĠÐ¸ÑģÐ¿Ð¾Ð»ÑĮÐ·ÑĥÑİÑĤ": 5202,
      "ĠÑģÐºÐ¸Ð´": 5203,
      "ĠÐ·ÐµÐ¼Ð»Ð¸": 5204,
      "ĠÐ¿Ð¾Ð»Ð¾Ð²Ð¸": 5205,
      "ĠÐ¶Ð¸Ð²Ð¾ÑĤÐ½ÑĭÑħ": 5206,
      "ÑĨÐ°Ð¼": 5207,
      "ÑĤÐ°Ð»ÑĮÑıÐ½": 5208,
      "ĠÑģÐ¼Ð¾ÑĤÑĢÐµÑĤÑĮ": 5209,
      "ĠÐ¿Ð¾Ð´ÐºÐ»Ñİ": 5210,
      "ÑĤÐ¾Ð»Ð¸": 5211,
      "ĠÑĥÐ´Ð¾Ð²Ð¾Ð»ÑĮ": 5212,
      "ĠÑĢÐµÐ°": 5213,
      "ĠÐ¼Ð°Ð»ÑĮ": 5214,
      "Ð»Ð¾ÐºÐ°": 5215,
      "ÐºÐ¾Ð²ÑĭÐµ": 5216,
      "Ð¾ÐºÐ¸": 5217,
      "ĠÐ¼Ð¾ÑĢÐµ": 5218,
      "Ġare": 5219,
      "ĠÐ´Ð°Ð»ÐµÐµ": 5220,
      "ĠĠčĊ": 5221,
      "ĠÑĥÐ½Ð¸ÑĩÑĤ": 5222,
      "ĠÑĢÐ°Ð½ÑĮÑĪÐµ": 5223,
      "ÐĽÐµ": 5224,
      "ĠÐ¿Ð¾Ð½ÑıÑĤÑĮ": 5225,
      "ĠÐ´Ð¾Ð»Ð³": 5226,
      "ĠÐºÐ°ÐºÐ¸Ñħ": 5227,
      "indows": 5228,
      "ĠÐ»ÐµÐ²": 5229,
      "ĠÐºÐ°Ð½Ð´Ð¸Ð´Ð°": 5230,
      "ĠÐ¿ÑĢÐµÐ´Ð²Ð°ÑĢÐ¸": 5231,
      "Ð¼Ð¾ÑģÑĤÑĮ": 5232,
      "ĠÐ¾Ð±ÑĬÐµÐºÑĤÐ¾Ð²": 5233,
      "ÑĢÐµÐ½Ð¸Ðµ": 5234,
      "ÑģÐ»ÑĥÐ¶": 5235,
      "ĠÐ¼Ð°ÑģÑģÐ°": 5236,
      "ĠÐ¼Ð°ÑĤÐµÐ¼Ð°ÑĤÐ¸": 5237,
      "Ġ70": 5238,
      "ÑĢÐ¾ÑģÑĤ": 5239,
      "ĠÐĲÐ¼ÐµÑĢÐ¸": 5240,
      "Ð¾Ð¿ÑĢÐ¸Ñı": 5241,
      "ÐŁÐµ": 5242,
      "44": 5243,
      "ĠÐ²ÐºÐ»ÑİÑĩÐ°ÐµÑĤ": 5244,
      "ĠÐ¿ÐµÑĩÐ°": 5245,
      "ĠÑģÑĥÐ¼Ð¼Ð°": 5246,
      "ÑĩÐµÑĢÐ°": 5247,
      "Ð¾Ð¿ÑĢÐ¸ÑıÑĤÐ¸Ñı": 5248,
      "ĠÐĳÐ¾Ð³": 5249,
      "ĠÐ¿ÑĢÐµÐ´Ð»Ð¾Ð¶ÐµÐ½Ð¸Ñı": 5250,
      "Ð²Ð¸Ð»": 5251,
      "ÑĤÑĥÑĢÑĥ": 5252,
      "ĠÐ¿Ð¾Ð½ÑĢÐ°Ð²Ð¸": 5253,
      "Â»).": 5254,
      "ĠÑģÑĭÐ½": 5255,
      "ĠÐ¾ÑĤÐ»Ð¸ÑĩÐ¸Ðµ": 5256,
      "ĠÐ¿Ð»Ð¾ÑīÐ°Ð´Ð¸": 5257,
      "ĠÐ¿ÑĢÐ¾ÑĤÑıÐ¶ÐµÐ½Ð¸Ð¸": 5258,
      "ÑĢÐ°Ð¶ÐµÐ½Ð¸Ñı": 5259,
      "ĠÑĢÐµÐ°Ð»Ð¸Ð·": 5260,
      "Ã³": 5261,
      "ĠÐ¼Ð°Ð³": 5262,
      "ĠÑĩÐ°ÑģÐ°": 5263,
      "ĠÐ»ÑİÐ±Ð¾Ð³Ð¾": 5264,
      "ĠÐļÐ¸ÑĤÐ°": 5265,
      "ĠÐ¿ÐµÐ´Ð°Ð³": 5266,
      "55": 5267,
      "Ð½Ð¸Ð½Ð°": 5268,
      "ĠÐ¿Ð°Ð¼ÑıÑĤÐ¸": 5269,
      "Ð¡Ðł": 5270,
      "ĠÑģÑĤÐ°Ð½ÑĨÐ¸Ð¸": 5271,
      "ĠÑĢÐµÐ¶Ð¸Ð¼": 5272,
      "Ð°Ð»Ñĭ": 5273,
      "ĠÐ±ÑİÐ´Ð¶ÐµÑĤ": 5274,
      "ĠÐºÐ¾ÑĢÐ°Ð±": 5275,
      "ĠÑīÐµ": 5276,
      "ÐºÐ»": 5277,
      "ĠÐ¾ÑħÑĢÐ°": 5278,
      "Ð¿Ð°ÑĢÑĤÐ°": 5279,
      "ĠÐ¿ÑĢÐ¾Ð¸Ð·Ð²Ð¾Ð´ÑģÑĤÐ²Ð¾": 5280,
      "Ġj": 5281,
      "Ð¡Ð¿": 5282,
      "ĠÐ¿Ð¾Ð»Ð½Ð¾Ð¼": 5283,
      "ĠÐ±Ð¾Ð³Ð°": 5284,
      "Ð½ÐµÑĤÐµ": 5285,
      "Ð¼Ð¸ÑĤÐµ": 5286,
      "ĠÐ¿ÐµÑĢÐµÐ¼Ðµ": 5287,
      "ÑĢÐ¸Ñģ": 5288,
      "ĠÐ¿Ð¾ÐºÐ¾Ð»": 5289,
      "ring": 5290,
      "ĠÑĪÐºÐ¾Ð»ÑĮ": 5291,
      "ĠÑģÐ¾Ð´ÐµÑĢÐ¶Ð¸ÑĤ": 5292,
      "Ð³Ð°Ð»": 5293,
      "ÑĩÐµÐ½Ð°": 5294,
      "ĠÐ´Ð°Ð½Ð½Ð¾Ð¼": 5295,
      "Ð¼Ð¾Ð¼": 5296,
      "ĠÐ¼Ð¸ÑĢÐ¾Ð²Ð¾Ð¹": 5297,
      "Ð½Ð°Ð¿ÑĢÐ¸Ð¼ÐµÑĢ": 5298,
      "eb": 5299,
      "Ð¼ÐµÑĢÑĭ": 5300,
      "ĠÑģÑĤÐ¾Ð¸Ð¼Ð¾ÑģÑĤÐ¸": 5301,
      "ĠÐ°Ð½Ð°Ð»Ð¾Ð³Ð¸": 5302,
      "Ġ90": 5303,
      "ram": 5304,
      "Ð¸Ð»Ð¾ÑģÑĮ": 5305,
      "Ð²Ð°Ð»Ð°ÑģÑĮ": 5306,
      "ĠÐºÐ¸Ð½": 5307,
      "ĠÑĥÑĩÐµÐ½Ð¸": 5308,
      "ice": 5309,
      "ĠÐ°Ð²ÑĤÐ¾Ð¼Ð°": 5310,
      "ĠÐ´Ð¾ÑģÑĤÐ¸Ð³": 5311,
      "ach": 5312,
      "ĠÐ´Ð²ÑĥÐ¼Ñı": 5313,
      "ĠÐºÐ°ÑĤÐµÐ³Ð¾ÑĢÐ¸Ð¸": 5314,
      "ĠÐ½Ð°Ð¹Ð´": 5315,
      "Ð´Ð°Ñħ": 5316,
      "ĠÐ¾ÑĤÑģ": 5317,
      "ĠÐ¸Ð¼Ð¸": 5318,
      "ĠÐĴÐµÐ»Ð¸ÐºÐ¾Ð±ÑĢÐ¸ÑĤÐ°": 5319,
      "Ð¸ÑĤÑĭ": 5320,
      "ĠÑģÑĤÑĢÐ°Ð½Ð°Ñħ": 5321,
      "ÑīÐµÐ½Ð°": 5322,
      "ĠÐºÑĥÑħ": 5323,
      "ĠÐ½Ð°Ð¿ÑĢÐ°Ð²Ð»ÐµÐ½Ð¸Ñı": 5324,
      "ĠÐ¿ÑĢÐµÐ´ÐµÐ»Ð°": 5325,
      "ĠÐ¿ÑĢÐµÐ´ÑĭÐ´Ñĥ": 5326,
      "ÑĥÑģÐ»Ð¾Ð²": 5327,
      "ÑįÑĢ": 5328,
      "Ð¸ÑģÐ¿": 5329,
      "ÐŁÐµÑĢÐµ": 5330,
      "Ð²ÑĪÐ°Ñı": 5331,
      "ĠÑįÐºÑģÐ¿ÐµÑĢÐ¸": 5332,
      "ĠÑĢÑĥÑģÑģÐºÐ¸Ð¹": 5333,
      "ĠÐ²ÐµÑĢÐ¾ÑıÑĤ": 5334,
      "ĠÐ±Ð°Ð½Ðº": 5335,
      "ire": 5336,
      "ĠÐºÐ³": 5337,
      "Ð´ÐµÑĢÐ¶Ð°": 5338,
      "Ð½ÑĨÐµ": 5339,
      "ĠÐ½Ð°ÑģÐ»ÐµÐ´": 5340,
      "ĠÐºÐ¾Ð½ÑĤÑĢÐ¾Ð»ÑĮ": 5341,
      "Ġim": 5342,
      "ĠÐ¾Ð±Ð²Ð¸": 5343,
      "ĠÐ¡ÑĢÐµÐ´": 5344,
      "32": 5345,
      "ĠZ": 5346,
      "ĠÐ¾Ð±ÑĬÐµÐºÑĤÐ°": 5347,
      "ĠÑģÑĤÑĢÐ°Ñħ": 5348,
      "ĠÑĢÐµÐ³Ð¸Ð¾Ð½Ð°Ð»ÑĮ": 5349,
      "Ð¸ÑĤÐ¾Ð²": 5350,
      "ÐºÐ¾Ð½Ð¾Ð¼": 5351,
      "ÑĢÑĥÑİÑĤÑģÑı": 5352,
      "ĠÑĤÑĢÐµÐ½Ð¸": 5353,
      "ĠÐŁÐ¾Ñģ": 5354,
      "ĠÐ·ÑĢÐ¸": 5355,
      "ĠÐ±Ð¾Ðº": 5356,
      "ĠÑĥÐ³Ð¾Ð»Ð¾Ð²": 5357,
      "ĠÐ¼Ð°ÑĪÐ¸Ð½": 5358,
      "ang": 5359,
      "Ġ2004": 5360,
      "ĠÐ½Ð°ÑĩÐ¸Ð½Ð°ÐµÑĤ": 5361,
      "ĠÐ¿ÐµÑĢÐµÑģÐµ": 5362,
      "Ð¼ÐµÑĤÐ¸": 5363,
      "ÑĤÐ¸ÑĦÐ¸ÐºÐ°": 5364,
      "ĠÐ¢Ð°Ð¼": 5365,
      "ĠÐ¿ÑĢÐµÐ·Ð¸Ð´ÐµÐ½ÑĤÐ°": 5366,
      "ĠÐ¿ÑĢÐ¾Ð²ÐµÑģÑĤÐ¸": 5367,
      "ĠÑģÐ½Ð°ÑĩÐ°Ð»Ð°": 5368,
      "ĠÑįÐ»ÐµÐ¼ÐµÐ½ÑĤÐ¾Ð²": 5369,
      "ĠÐ°ÐºÐºÑĥ": 5370,
      "ĠÐ°Ð²ÑĤÐ¾Ð±": 5371,
      "37": 5372,
      "ĠÑĤÑĥÑĢÐ½Ð¸": 5373,
      "ep": 5374,
      "ĠÑĥÐ´Ð¾Ð²Ð»ÐµÑĤ": 5375,
      "ĠÐ·Ð°Ð¼ÐµÑģÑĤÐ¸": 5376,
      "ÐºÐ¼": 5377,
      "ĠÐ¾ÑģÑĥÑīÐµÑģÑĤÐ²Ð»ÑıÐµÑĤÑģÑı": 5378,
      "Ð°Ð»ÑĮÐ½Ð°Ñı": 5379,
      "ĠÐľÐ¾ÑĢ": 5380,
      "ĠÐ¼Ð°ÑĪÐ¸Ð½Ñĭ": 5381,
      "Ð¾ÑĩÐ½ÑĭÑħ": 5382,
      "ÑĨÐ²ÐµÑĤ": 5383,
      "Ð¡Ð¸": 5384,
      "Ð¿Ð¸ÑģÐ°Ð½Ð¸Ðµ": 5385,
      "ĠÐ¶Ð°Ð»": 5386,
      "ĠÐ±Ð¾Ð»ÑĮÑĪÐ¸Ð½ÑģÑĤÐ²Ð¾": 5387,
      "Ð±ÐµÐ»Ð¸": 5388,
      "ĠÑĢÐ°ÑģÑĤÐ²": 5389,
      "ÐµÐºÐ¾ÑĤÐ¾ÑĢÑĭÐµ": 5390,
      "ĠÑĢÑĭÐ±": 5391,
      "ĠÐ¿ÑĢÐ¾ÑĦÐµÑģÑģ": 5392,
      "ĠÐ¼Ð¾Ð½Ð°ÑģÑĤÑĭ": 5393,
      "ĠÐ¼Ð¾ÑĢÑı": 5394,
      "Ġ)": 5395,
      "ĠÑģÐºÐ¾ÑĢÐ¾ÑģÑĤÑĮ": 5396,
      "ÐºÐ¾ÑĢÐ°": 5397,
      "ython": 5398,
      "Ð»ÑıÑİÑĤÑģÑı": 5399,
      "ĠÐ¾Ð±ÐµÑģÐ¿ÐµÑĩÐµÐ½Ð¸Ñı": 5400,
      "ĠÐ¿Ð¾Ð¿ÑĢÐ¾Ð±": 5401,
      "ĠÐ½ÐµÐ¾Ð±Ñĭ": 5402,
      "Ġ300": 5403,
      "ĠÐ²ÑĭÑģÐ¾ÐºÐ¾Ð¹": 5404,
      "34": 5405,
      "ĠÐ¡Ð¾Ð»": 5406,
      "ÑīÐ¸ÐºÐ¾Ð²": 5407,
      "Ð¾Ð¿Ð»Ð°": 5408,
      "ÑĢÐ¾Ð²Ð°Ð½Ð½ÑĭÐ¹": 5409,
      "ÑģÐ¿Ð¾ÑģÐ¾Ð±": 5410,
      "ĠÐºÑĢÐ°Ñı": 5411,
      "\\[": 5412,
      "ÑģÐ»Ð°Ð²": 5413,
      "ÑĥÑĢÐµ": 5414,
      "ĠÐĹÐ°Ðº": 5415,
      "Ð¶Ð¸ÑĤÐµ": 5416,
      "ĠÐ³Ð»Ð°Ð²Ð½Ð¾Ðµ": 5417,
      "Ð»Ð°Ð³": 5418,
      "ĠÐ¿ÑĢÐµÑģÑĤÑĥÐ¿": 5419,
      "ĠÑģÑĤÑĢÐ°ÑħÐ¾Ð²": 5420,
      "ĠÐ´Ð¾Ð³Ð¾Ð²Ð¾ÑĢÐ°": 5421,
      "Ð¶Ð°ÑĤ": 5422,
      "Ð¼ÐµÐ½ÑĤÐ¸": 5423,
      "ĠÐ²Ð·ÑıÑĤÑĮ": 5424,
      "38": 5425,
      "ĠÐ´Ð¾Ð±Ð°Ð²Ð»Ñı": 5426,
      "ĠÐ¾ÑģÐ½Ð¾Ð²Ð°Ð½": 5427,
      "ÑģÐ¼Ð¾ÑĤÑĢÑı": 5428,
      "ĠÐ¿ÐµÑĢÐ²Ð¾Ð¼": 5429,
      "ĠÐ¿Ð¾Ð»Ð½Ð¾": 5430,
      "ÑĩÐ½ÑĭÐ¼Ð¸": 5431,
      "Ð¾Ð½ÐµÑĨ": 5432,
      "ĠÐ¼ÐµÑĢÐ¾Ð¿ÑĢÐ¸ÑıÑĤÐ¸Ñı": 5433,
      "ĠÐ¼ÐµÐ¶": 5434,
      "ĠÐ¿Ð¾Ð»ÑĥÑĩÐ¸Ð»Ð¸": 5435,
      "ĠÐ½Ð°Ð±Ð¾ÑĢ": 5436,
      "ĠÑĢÐµÐ·ÑĥÐ»ÑĮÑĤÐ°ÑĤÑĭ": 5437,
      "ĠÐ¿ÑĢÐ¸Ð´ÐµÑĤÑģÑı": 5438,
      "ĠÐ²ÑĭÐ¿Ð¾Ð»Ð½Ñı": 5439,
      "ax": 5440,
      "ĠÐ¾Ð¿ÐµÑĢÐ°ÑĨÐ¸Ð¸": 5441,
      "ĠÑģÐ²Ð¾Ñĳ": 5442,
      "ĠÐ´Ð°Ð»ÑĮÑĪÐµ": 5443,
      "name": 5444,
      "ĠÐ´Ð½Ð¸": 5445,
      "Ð¶Ð½Ð¾Ð³Ð¾": 5446,
      "Ð²Ð¾Ð½Ð°ÑĩÐ°": 5447,
      "Ð±ÑĥÑĢÐ³": 5448,
      "ĠÑĥÑĤÑĢÐ°": 5449,
      "ĠÐ¿Ð¾Ð¼ÐµÑīÐµÐ½Ð¸Ñı": 5450,
      "able": 5451,
      "ĠÐ¥Ð°ÑĢ": 5452,
      "ÑģÑĤÑĢÐ¾Ð¹ÐºÐ¸": 5453,
      "ĠÐŀÑģÐ¾Ð±": 5454,
      "ĠÐķÐºÐ°ÑĤÐµÑĢÐ¸": 5455,
      "ÐļÐ¾Ð³Ð´Ð°": 5456,
      "ĠÐ¾ÑĤÐ¿ÑĢÐ°Ð²": 5457,
      "Ġqu": 5458,
      "Ð¼Ð°Ð³Ð°": 5459,
      "ĠÐ·Ð½Ð°ÑĤÑĮ": 5460,
      "ĠÑģÐµÐ¼ÑĮÐµ": 5461,
      "SB": 5462,
      "Ð±Ð°ÑĢ": 5463,
      "ĠÐĽÐµÐ½Ð¸Ð½": 5464,
      "Ð½ÐµÐ½Ð¸Ð¹": 5465,
      "ĠÐ°Ð»ÑĮÐ±Ð¾Ð¼": 5466,
      "Ð¶Ð´ÐµÐ½Ð¸Ð¹": 5467,
      "Ð¾ÑĩÐºÐ¸": 5468,
      "Ð¾ÑĩÐ½ÑĭÐµ": 5469,
      "ĠÐ¸ÑģÑĤÐ¾ÑĢÐ¸Ñı": 5470,
      "ÐµÑģÑĤÐ¸Ð²Ð°": 5471,
      "ĠÐ°Ð»ÐºÐ¾Ð³": 5472,
      "ĠÑĤÑĢÑĥÐ´Ð¾Ð²": 5473,
      "ĠÐ²Ð°ÑĪÐµÐ¹": 5474,
      "ĠÑħÐ¾ÑĩÐµÑĤ": 5475,
      "ÐµÐ»Ð°": 5476,
      "ĠÐ¿ÑĢÐ¾Ð²ÐµÑĢÐ¸": 5477,
      "Ð²ÑĪÐ¸Ð¼": 5478,
      "az": 5479,
      "AR": 5480,
      "ÑģÑĤÐ°Ð¼Ð¸": 5481,
      "Ð»Ð¸ÑĩÐ½Ð¾": 5482,
      "ĠÐ·Ð°Ð¹": 5483,
      "ÑĪÐµÐ½Ð¸Ð¸": 5484,
      "ĠÐ½Ð¾Ð³": 5485,
      "ĠÑĥÐ±Ð¸Ð¹": 5486,
      "Ð»ÐºÐ°": 5487,
      "ÐĿÐ¸": 5488,
      "ĠÐ²Ð¾Ð¾ÑĢÑĥÐ¶": 5489,
      "196": 5490,
      "ĠÐ½ÐµÐ²Ð¾Ð·Ð¼Ð¾Ð¶Ð½Ð¾": 5491,
      "ĠÐ·Ð°Ð²": 5492,
      "ĠÐĳÐ¾ÑĢÐ¸": 5493,
      "Ð¼Ð°Ñħ": 5494,
      "Ð¾Ð¶Ð´Ð°": 5495,
      "ĠÐļÐ¾Ð½ÑģÑĤÐ°Ð½": 5496,
      "ĠÑģÐ¿Ð¾ÐºÐ¾Ð¹": 5497,
      "ĠÐ¾ÑģÐ¾Ð±ÐµÐ½Ð½Ð¾ÑģÑĤÐ¸": 5498,
      "ĠÑģÐ¾ÑģÑĤÐ¾ÑıÐ½Ð¸Ñı": 5499,
      "ĠÐ³Ð¾Ð²Ð¾ÑĢÐ¸ÑĤÑĮ": 5500,
      "ÑĤÐ¸ÐµÐ¼": 5501,
      "48": 5502,
      "ĠÐ¸Ð·Ð±Ð°": 5503,
      "ĠÐĲÐ»ÐµÐº": 5504,
      "ĠÐ¿Ð¾Ð»ÑĮÐ·Ð¾Ð²Ð°ÑĤÐµÐ»ÐµÐ¹": 5505,
      "Ð¾Ñħ": 5506,
      "Ð¾ÑĢÑı": 5507,
      "ĠÐºÐ°ÑĢÑĤÐ¾": 5508,
      "ĠÐ´Ð¾ÑĢÐ¾Ð³Ð¸": 5509,
      "ĠÐ°ÐºÑĤÐ¸Ð²Ð½Ð¾": 5510,
      "ont": 5511,
      "ĠÐ»ÑİÐ±Ð¾Ð¼": 5512,
      "Ð½Ð¸Ð¼Ð¸": 5513,
      "ĠÐ½Ð°Ð·Ð²Ð°Ð½Ð¸ÐµÐ¼": 5514,
      "ĠÐ±ÑĢÐ¸ÑĤÐ°Ð½": 5515,
      "ĠÐ²Ð°ÑĢÐ¸Ð°Ð½ÑĤÑĭ": 5516,
      "ĠÐĺÐ¼": 5517,
      "ĠÐ´ÐµÐ¹ÑģÑĤÐ²Ð¸Ðµ": 5518,
      "ĠÑģÐµÐ³Ð¾Ð´Ð½ÑıÑĪ": 5519,
      "ĠÐ¿ÑĢÐ¸ÑħÐ¾Ð´": 5520,
      "ĠÐ²ÐµÐ»Ð¸ÑĩÐ¸": 5521,
      "'s": 5522,
      "ark": 5523,
      "%,": 5524,
      "ÑĪÐ°ÑİÑĤ": 5525,
      "ĠÑģÐµÐºÑĥ": 5526,
      "ĠÐ°Ð¼ÐµÑĢÐ¸ÐºÐ°Ð½ÑģÐºÐ¸Ð¹": 5527,
      "ÑĤÐ¾ÑĢÐ¾Ð¹": 5528,
      "ĠÐºÐ°ÑĢÑĤÐ¸Ð½": 5529,
      "ĠÐĴÐµÐ´ÑĮ": 5530,
      "ĠÐ¿ÑĢÐ¾ÑħÐ¾Ð´Ð¸ÑĤ": 5531,
      "Ð¶Ð´Ð°Ñı": 5532,
      "ĠÐ²Ð°Ð»": 5533,
      "ÑĥÐº": 5534,
      "ĠÐŁÐ¾Ð»ÑĮ": 5535,
      "ÑĩÐ¸Ðµ": 5536,
      "ÑįÐº": 5537,
      "Ġ31": 5538,
      "ĠÐ²Ð¾Ð¹ÑģÐºÐ°": 5539,
      "Ð´Ð°ÑĨÐ¸Ð¸": 5540,
      "ĠÐ°Ð½Ð°Ð»Ð¸": 5541,
      "###": 5542,
      "ĠÐ²ÐµÐ´": 5543,
      "ĠÑĥÐ²Ð°": 5544,
      "ÑĦÐ¸ÑĨÐ¸Ð°Ð»ÑĮ": 5545,
      "ÐĽÑİ": 5546,
      "Ð¶Ð½Ð¾ÑģÑĤÐ¸": 5547,
      "ĠÐ²ÐµÑīÐµÑģÑĤÐ²": 5548,
      "ÑĥÐ¼Ðµ": 5549,
      "ĠÐ¾ÑĤÐ¼ÐµÑĤÐ¸ÑĤÑĮ": 5550,
      "Ð½Ð¾Ð³": 5551,
      "ĠÐ¸ÑģÐ¿Ð¾Ð»ÑĮÐ·Ð¾Ð²Ð°Ð½Ð¸ÐµÐ¼": 5552,
      "ĠÐ¿Ð¾Ð·Ð²Ð¾Ð»Ð¸ÑĤ": 5553,
      "ĠÐ´ÐµÑĪÐµ": 5554,
      "ÐµÐ´Ñĭ": 5555,
      "ĠÐŀÐŀÐŀ": 5556,
      "ĠÐ½ÐµÐ´ÐµÐ»Ð¸": 5557,
      "ĠÐ»ÑĥÑĩÑĪÐ¸Ñħ": 5558,
      "Ð¸Ð½ÑĤÐµÑĢÐµÑģ": 5559,
      "Ð·Ð²Ð°ÑĤÑĮ": 5560,
      "ÑģÑģÐµÐ¹": 5561,
      "ĠÐŁÑĢÐ°Ð²": 5562,
      "ĠÐ¼ÑĥÐ·Ðµ": 5563,
      "ĠÑıÐ¿Ð¾Ð½": 5564,
      "ros": 5565,
      "Ð²ÐµÐ´Ð¾Ð¼": 5566,
      "ĠÐ¾Ð±ÑĢÐ°Ð·Ð¾Ð²Ð°Ð½Ð¸Ðµ": 5567,
      "ÑģÑĤÑĢÑĭ": 5568,
      "ĠÐ²Ð»Ð¸ÑıÐ½Ð¸Ðµ": 5569,
      "ĠÐ¿ÑĢÐ¸Ð²Ð¾Ð´Ð¸ÑĤ": 5570,
      "ĠÑĢÐ°Ð·Ð½Ð¾Ð¾Ð±ÑĢÐ°Ð·": 5571,
      "ĠÐ²ÐµÑīÐµÑģÑĤÐ²Ð°": 5572,
      "ĠÐ²Ð¾ÑģÑĤ": 5573,
      "ĠÐ´ÐµÐ»": 5574,
      "ĠÐľÐ¾Ð¶Ð½Ð¾": 5575,
      "ĠÐºÐ¾ÑĤÐ¾ÑĢÐ¾Ð¼Ñĥ": 5576,
      "ĠÐľÐ¾Ð½": 5577,
      "ĠÑĥÐ´Ð¸Ð²Ð¸": 5578,
      "ĠÑĤÐµÐºÑģÑĤ": 5579,
      "ĠIII": 5580,
      "ci": 5581,
      "ĠÐ¾Ð±ÑģÑĥ": 5582,
      "ock": 5583,
      "ĠÐ´Ð¾ÑģÑĤÐ¸Ð³Ð°": 5584,
      "100": 5585,
      "âĢľ": 5586,
      "ĠÐ´ÑĢÑĥÐ³Ð¾Ðµ": 5587,
      "ĠÐ´ÑĢÑĥÐ³Ð¾Ð¼": 5588,
      "Ð½ÐµÑģÑĤÐ¸": 5589,
      "ĠÑĢÐµÐ¹": 5590,
      "ĠÑĢÐ°Ð´Ð¾": 5591,
      "ĠÑĩÐ°ÑģÑĤÑĮÑİ": 5592,
      "ĠÐ´ÐµÑģÑıÑĤ": 5593,
      "ĠÐŁÐ°ÑĢÐ¸": 5594,
      "ĠÐĺÑħ": 5595,
      "ÑĳÐ½Ð½ÑĭÑħ": 5596,
      "ÐµÐ½Ð½Ð¾ÑģÑĤÑĮ": 5597,
      "ÑģÑĤÑıÐ¼Ð¸": 5598,
      "ĠÐ¾ÑĤÐ½Ð¾ÑģÐ¸ÑĤÑģÑı": 5599,
      "ĠXIX": 5600,
      "ÐŀÐ½": 5601,
      "Ð¾Ð¼ÐµÐ½": 5602,
      "ÑĮÐµÐ²": 5603,
      "ĠÐ¡ÐµÐ¼": 5604,
      "Ð¶Ð½Ð°Ñı": 5605,
      "ĠÐ´Ð¸Ð¿Ð»Ð¾Ð¼": 5606,
      "ĠÐ¿ÑĢÐ¾Ð¿Ñĥ": 5607,
      "ÑĢÑĥÐµÐ¼": 5608,
      "ĠÐ²ÑĢÐµÐ¼ÐµÐ½ÐµÐ¼": 5609,
      "ĠÑģÐºÐ¾ÑĢÐµÐµ": 5610,
      "ĠÑģÐ¾Ð¶": 5611,
      "ĠÑģÑĤÐ°Ð±Ð¸": 5612,
      "ĠÐ¿Ð¾Ð³Ð¸Ð±": 5613,
      "ĠÐ¿ÑĢÐ°Ð²Ð¸Ð»Ð°": 5614,
      "ÑĢÐ°Ð±Ð¾ÑĤÐ°Ð½": 5615,
      "ĠÐ²Ð¾Ð·Ð´ÑĥÑħÐ°": 5616,
      "ĠÑĢÐµÑĩÑĮ": 5617,
      "ĠQ": 5618,
      "ĠÐĵÐ¾Ð»": 5619,
      "ÑĪÐµÐ½Ð¸Ð¹": 5620,
      "ĠÐ¿Ð¾Ð´Ð¿Ð¸ÑģÐ°": 5621,
      "ĠÐ²Ð¾Ð·ÑĢÐ°ÑģÑĤÐµ": 5622,
      "ele": 5623,
      "ĠÐ¡Ð¿": 5624,
      "ĠÐ½Ð°Ð²Ñĭ": 5625,
      "ĠÐ¸Ð¼Ð¿ÐµÑĢÐ¸Ð¸": 5626,
      "ÑĢÐ¾Ð²Ð¸Ñĩ": 5627,
      "ĠÐ¸Ð·Ð´ÐµÐ»Ð¸Ñı": 5628,
      "ĠÐ²ÑĭÐ½Ñĥ": 5629,
      "ÑĢÐµÑı": 5630,
      "Ġ1990": 5631,
      "ĠÐ¾ÑĤÐ²ÐµÑĢ": 5632,
      "ĠÐ¾ÑģÐ½Ð¾Ð²Ð½ÑĭÐµ": 5633,
      "ĠÐ½Ð°Ð·ÑĭÐ²Ð°ÐµÑĤÑģÑı": 5634,
      "ĠÐ¸ÑģÐºÑĥÑģÑģÑĤÐ²Ð°": 5635,
      "ĠÑĥÐ»Ð¸ÑĨÐµ": 5636,
      "ĠÐ²Ð·Ð°Ð¸Ð¼Ð¾Ð´ÐµÐ¹ÑģÑĤÐ²Ð¸": 5637,
      "ĠÐ¿ÑĢÐ¸Ð±Ð»Ð¸": 5638,
      "Ð¼ÐµÐ½Ð¸ÑĤÑĮ": 5639,
      "Ð±Ð¾Ðµ": 5640,
      "Ð·Ð°ÑĢ": 5641,
      "ĠÐ¾Ð±Ð»Ð°Ð´Ð°ÐµÑĤ": 5642,
      "Ð±Ð¸Ð»": 5643,
      "ÑıÐ±ÑĢÑĮ": 5644,
      "ĠÐ¾ÑĤÐ¼ÐµÑĤÐ¸Ð»": 5645,
      "ĠÐºÐ²Ð°Ð»Ð¸": 5646,
      "ĠÐºÑĢÐ°ÑĤ": 5647,
      "Ð±ÑĢÐ¾Ñģ": 5648,
      "ĠÑģÐ¾ÑĤÑĢÑĥÐ´Ð½Ð¸ÐºÐ¾Ð²": 5649,
      "ĠÐ¼Ð¸Ð»Ð»Ð¸Ð¾Ð½Ð¾Ð²": 5650,
      "ĠÐ¼Ð°ÐºÑģÐ¸Ð¼Ð°Ð»ÑĮÐ½Ð¾": 5651,
      "ĠÐ¿Ð¾Ð·Ð¶Ðµ": 5652,
      "Ġ188": 5653,
      "ĠÐ¿Ð¾Ð¸ÑģÐºÐ°": 5654,
      "ĠÐ¿Ð¾Ð´ÑħÐ¾Ð´Ð¸ÑĤ": 5655,
      ".).": 5656,
      "ĠÐ³Ð»Ð°Ð·": 5657,
      "ĠÑĢÐµÐ¼Ð¾Ð½ÑĤ": 5658,
      "ork": 5659,
      "ÑģÐ¾Ð½Ð°Ð»ÑĮ": 5660,
      "ĠÐºÐ°Ð¶ÐµÑĤÑģÑı": 5661,
      "ĠÃ": 5662,
      "ĠÐ¾Ð±Ð½Ð°ÑĢÑĥ": 5663,
      "ĠÑĢÐµÐ¹ÑĤÐ¸": 5664,
      "ĠÑģÐ´Ð°": 5665,
      "ÑĩÐµÐ½Ð¸Ñİ": 5666,
      "ĠÑģÐ»ÑĥÑĩÐ°ÐµÐ²": 5667,
      "Ð½ÐµÑĨ": 5668,
      "ĠÐ¿ÑĢÐ¸ÑĩÐ¸Ð½Ð°": 5669,
      "ÑĢÐ°Ðº": 5670,
      "ÑĤÐ°Ð¹": 5671,
      "ĠÐķÑģÑĤÑĮ": 5672,
      "ĠÐ¢Ð¾Ð¼": 5673,
      "ĠÐ´Ð¾ÑĢÐ¾Ð¶": 5674,
      "ÑĢÐ°Ð·Ð´Ð¾": 5675,
      "ĠÑĥÐºÑĢÐµÐ¿": 5676,
      "ĠÑĢÐ°Ð·ÑĢÐ°Ð±Ð¾ÑĤÐ°": 5677,
      "ĠÐ½Ð°Ð·ÑĭÐ²Ð°ÑİÑĤ": 5678,
      "ĠÑĢÐ°Ð±Ð¾ÑĤÐ°ÑİÑĤ": 5679,
      "ĠÑĥÑģÑĤÐ¾Ð¹ÑĩÐ¸": 5680,
      "ĠÐ½Ð°Ð²ÐµÑĢ": 5681,
      "ĠÐºÐ¾Ð¼Ð¼ÐµÑĢ": 5682,
      "ÑĢÐ¸ÑĤÐµ": 5683,
      "ĠÐ·Ð°Ð´Ð°ÑĩÐ°": 5684,
      "ĠÐ½Ð°ÑĩÐ°ÑĤÑĮ": 5685,
      "ĠÑĥÑģÑĤÐ°Ð½Ð¾Ð²Ð»ÐµÐ½": 5686,
      "ĠÑĥÐ¿Ð¾Ð¼Ð¸Ð½Ð°": 5687,
      "ÑĤÐµÑĢÐ½Ð°": 5688,
      "ÑģÑĤÐ²Ð¸ÐµÐ¼": 5689,
      "ÐŀÐĿ": 5690,
      "ÐµÐ·Ð´Ðµ": 5691,
      "ĠÑĢÐµÐ»Ð¸Ð³Ð¸": 5692,
      "ĠÐ¾ÑĤÐ¿ÑĢÐ°Ð²Ð»Ñı": 5693,
      "Ð°Ð¹ÑĤ": 5694,
      "ĠÑģÐ°Ð¼Ð°": 5695,
      "ĠÐ´ÐµÑģÑıÑĤÐ¸": 5696,
      "ĠÑģÐ²Ð¸": 5697,
      "ĠÐ°Ð³ÑĢÐµ": 5698,
      "Ð¾ÑģÐ»ÐµÐ´ÑģÑĤÐ²Ð¸Ð¸": 5699,
      "ĠÑĥÑĤÐ¾Ñĩ": 5700,
      "ÑĢÐ°ÑĤÐ½Ð¾": 5701,
      "ĠÐ½ÐµÐ´ÐµÐ»Ñİ": 5702,
      "ĠÑĦÑĥÐ½": 5703,
      "ĠÑģÑĥÐ´Ð°": 5704,
      "ĠÐ¸ÑģÑĤÐ¾ÑĢÐ¸Ñİ": 5705,
      "ĠÑĤÐ¸Ð¿": 5706,
      "Ð¾Ð²Ðµ": 5707,
      "ĠÐ¢Ð¸": 5708,
      "ĠÐ²ÑģÐµÐ¼Ñĥ": 5709,
      "ÑīÐ¸ÑħÑģÑı": 5710,
      "Ð¼Ð¾ÑĤÑĢÐ¸ÑĤÐµ": 5711,
      "ĠÐ¾ÐºÑĢÐ°": 5712,
      "ĠÑĢÐµÐ¶Ð¸Ð¼Ðµ": 5713,
      "ĠÑĢÐ°ÑģÑĤÐ¸": 5714,
      "ĠÐ¿ÐµÑĢÑģÐ¿": 5715,
      "ÑħÐ°Ð¹": 5716,
      "ices": 5717,
      "ĠÑĩÐµÑģÑĤÑĮ": 5718,
      "ĠÐ¾ÑģÐ½Ð°": 5719,
      "ĠÐĵÐ¾Ñģ": 5720,
      "ĠÐ¼Ð½Ð¾Ð³Ð¾ÑĩÐ¸Ñģ": 5721,
      "cho": 5722,
      "ĠÑģÑĤÑĢÐ¾Ð¸ÑĤÐµÐ»ÑĮÑģÑĤÐ²Ð¾": 5723,
      "ĠÐ·ÐµÐ¼ÐµÐ»ÑĮ": 5724,
      "ĠÑģÐ¸Ð¼Ð¿ÑĤÐ¾Ð¼": 5725,
      "ĠÐ²ÑĢÐµÐ´": 5726,
      "ĠÐ·Ð´Ð°Ð½Ð¸Ñı": 5727,
      "ÑĤÐ°ÐµÑĤ": 5728,
      "ĠÐ²Ð¾Ð´Ð¾Ð¹": 5729,
      "ÑĪÐµÐ½Ð¸Ñİ": 5730,
      "ĠÑĥÐ²Ð¸Ð´ÐµÑĤÑĮ": 5731,
      "ĠÐ½Ð°Ñĩ": 5732,
      "31": 5733,
      "Ð¼Ð°ÑĢÑĤ": 5734,
      "ĠÐ½ÐµÐ³Ð°": 5735,
      "ĠÐ¼Ð³": 5736,
      "ĠÐºÐ»ÑİÑĩÐµ": 5737,
      "ĠÐ¾ÑĢÐ³Ð°Ð½Ð¸Ð·Ð¼Ð°": 5738,
      "ĠÐºÐ°ÑģÐ°ÐµÑĤÑģÑı": 5739,
      "ĠÑĥÑģÐ»Ð¾Ð²Ð¸Ð¹": 5740,
      "ĠÑĢÐ¸ÑģÐº": 5741,
      "ĠÐ°ÑįÑĢÐ¾Ð¿": 5742,
      "Ð¿Ð¸ÑģÑĮ": 5743,
      "ĠÑĦÐ°Ð¼Ð¸": 5744,
      "ĠÐ²Ð½ÐµÑģ": 5745,
      "ĠÑģÐ²Ð¾ÐµÐ¼Ñĥ": 5746,
      "ĠÐ¿ÑĢÐ¸ÑģÐ¾Ðµ": 5747,
      "ĠÐ¾ÑģÑĤÑĢÐ¾Ð²Ð°": 5748,
      "ĠÐ¾ÑĢÐ³Ð°Ð½Ð¸Ð·Ð°ÑĨÐ¸Ð¹": 5749,
      "ĠÐ¸Ð·Ð¼ÐµÑĢ": 5750,
      "Ð»ÑĮÐ½ÑĭÐ¼Ð¸": 5751,
      "ĠÐ¼Ð¾Ð´Ñĥ": 5752,
      "ĠÐŁÐ°Ð²": 5753,
      "Ġcan": 5754,
      "ĠÐ¼ÑĥÑģ": 5755,
      "ĠÐ¿ÑĢÐµÐ¾Ð±ÑĢÐ°Ð·": 5756,
      "ĠÑĥÐ¼Ðµ": 5757,
      "ĠÑįÐºÑģÐº": 5758,
      "ĠÑįÐ½ÐµÑĢÐ³Ð¸Ð¸": 5759,
      "ĠÐ¼Ð»ÑĢÐ´": 5760,
      "ĠÐ¿Ð»Ð¾ÑīÐ°Ð´ÑĮ": 5761,
      "ance": 5762,
      "ÐłÐĺ": 5763,
      "ĠÐ»Ð¸ÑĨÐµÐ½": 5764,
      "ount": 5765,
      "ĠÐ¿Ð°ÑĢÑĥ": 5766,
      "Ð¼ÑĥÐ»Ð¸": 5767,
      "ÐĴÐĶ": 5768,
      "ĠÐ¾ÑģÐ²Ðµ": 5769,
      "Ð»ÑĮÐµ": 5770,
      "ĠÑģÐ¿ÐµÑĨÐ¸Ð°Ð»Ð¸ÑģÑĤÐ¾Ð²": 5771,
      "ĠÐ½Ð°ÑĩÐ°Ð»Ð¾": 5772,
      "ĠÐ¸Ð½Ð¸ÑĨÐ¸": 5773,
      "ĠÐ¾ÑĤÐ´Ð°": 5774,
      "ĠÑģÑĤÐ°ÑĤÑĮÐµ": 5775,
      "ĠÐ¿Ð¾Ð´Ñģ": 5776,
      "Ð¾ÑĢÐ´Ð¸Ð½Ð°": 5777,
      "ĠÐ¿ÑĢÐ°Ð²Ð¸ÑĤÐµÐ»ÑĮÑģÑĤÐ²Ð°": 5778,
      "ĠÐļÐ°Ð·Ð°Ñħ": 5779,
      "Ġfrom": 5780,
      "ĠÐŁÐ¾ÑĢ": 5781,
      "ĠÐ´Ð¸Ð½Ð°Ð¼Ð¸": 5782,
      "ĠÐ¸ÑĤÐ°Ð»ÑĮÑıÐ½": 5783,
      "ĠÑĩÑĥÑĤÑĮ": 5784,
      "ĠÐ¾Ð±Ð¼ÐµÐ½": 5785,
      "ÑĤÐ¾Ðµ": 5786,
      "ĠÐ±Ð¾Ñı": 5787,
      "ÐķÐĿ": 5788,
      "ĠÐ³ÐµÐ½": 5789,
      "ĠÐ±Ð°Ð·Ðµ": 5790,
      "ĠÐ½ÐµÑģÐ¼Ð¾ÑĤÑĢÑı": 5791,
      "ĠÐ»ÑİÐ´ÑıÐ¼": 5792,
      "ĠÐ¾ÑģÑĤÐ°ÐµÑĤÑģÑı": 5793,
      "Ð»ÑıÐ¼Ð¸": 5794,
      "ĠÐ¿ÐµÑĢÐµÐ²Ð¾Ð·": 5795,
      "Ð»ÐµÐ³Ð°": 5796,
      "ĠÐ¿Ð¸ÑīÐµ": 5797,
      "ĠÐ²ÐµÐºÐµ": 5798,
      "ĠÐºÐ¸ÑĤÐ°Ð¹": 5799,
      "ĠÐ»Ð¸ÑĨÐ¾": 5800,
      "ĠÐ²ÑĭÑıÑģ": 5801,
      "ĠÐ¡Ð¾Ð²ÐµÑĤÐ°": 5802,
      "ĠÐ¾Ð±Ð¾ÑĢÑĥÐ´Ð¾Ð²Ð°Ð½Ð¸Ðµ": 5803,
      "Ð»Ð¸Ð·Ð°ÑĨÐ¸Ð¸": 5804,
      "ĠÐ´Ð¾ÑĢÐ¾Ð³": 5805,
      "ĠÐ½Ð°ÑĩÐ°Ð»Ð¸": 5806,
      "ÑĤÐ¾ÑĢÐ¸Ð¸": 5807,
      "Ð¡Ð°": 5808,
      "ĠÑĢÐ°ÑģÐ¿Ð¾Ð»Ð¾Ð¶ÐµÐ½": 5809,
      "ĠÑĤÐ°ÐºÐ¾Ð¼": 5810,
      "ĠÐ´Ð¸Ð°Ð³Ð½Ð¾ÑģÑĤÐ¸": 5811,
      "ĠÑĢÐ¾ÑģÑĤ": 5812,
      "ÐĳÐ¾Ð»ÑĮ": 5813,
      "ĠÐ²Ð·Ñı": 5814,
      "ÑĪÐºÐµ": 5815,
      "ĠÐ¸Ð½Ð¶ÐµÐ½": 5816,
      "ĠÐĲÐ»ÐµÐºÑģÐ°Ð½Ð´ÑĢÐ°": 5817,
      "ÐļÑĢÐ¾Ð¼Ðµ": 5818,
      "ĠÑĤÑİ": 5819,
      "Ġ2003": 5820,
      "Ð´Ð°Ð»ÑĮ": 5821,
      "Ð»Ð¾ÑĤÐ°": 5822,
      "ÑĤÐ½Ð°Ñı": 5823,
      "Ð°Ð»ÑĮÐ½Ð¾Ðµ": 5824,
      "ĠÐ¾ÑģÑĤÐ°Ð²Ð¸": 5825,
      "ĠÑģÐ¼Ð¾Ð¶ÐµÑĤ": 5826,
      "ĠÐ¾Ð±ÑīÐµÐ³Ð¾": 5827,
      "Ð¿Ð¾ÑĤÐµ": 5828,
      "ÑĩÐ¸ÑĤÐ°ÑĤÑĮ": 5829,
      "ĠÐºÐ°Ð´": 5830,
      "ÑĢÐ¸Ð´": 5831,
      "ÑĢÐ¾Ð²Ð°Ð½Ð¸Ð¸": 5832,
      "ĠÐ°ÑĢÑĤÐ¸": 5833,
      "ĠÐ¡ÑĤÐ¾": 5834,
      "ĠÑĤÐµÐ¼Ñĥ": 5835,
      "ĠÐ±Ð¾Ð»ÑĮÑĪÐ¸Ð¼": 5836,
      "ĠÐ¡ÑĢÐµÐ´Ð¸": 5837,
      "ĠÐ¿Ð¾Ð²Ðµ": 5838,
      "ĠÐ¿Ð»Ñİ": 5839,
      "ĠÐŁÐŀ": 5840,
      "ĠÐ³Ð¾Ð²Ð¾ÑĢÑıÑĤ": 5841,
      "ĠÐ¿Ð¾ÑģÑĤÐµÐ¿": 5842,
      "ÐŁÐ¾Ñĩ": 5843,
      "ĠÐ¿Ð¾Ð´Ð´ÐµÑĢÐ¶ÐºÐ¸": 5844,
      "ĠÐ¾Ð±ÑīÐµÐ¹": 5845,
      "ĠÐ°ÑĢÑħÐ¸": 5846,
      "ÑħÐ¾Ð¹": 5847,
      "ĠÑģÐ»ÑĥÐ¶Ð¸": 5848,
      "ÑĪÐµÐ½Ð¸ÐµÐ¼": 5849,
      "Ð¾ÑĦ": 5850,
      "ĠÑĢÐµÐºÐ»Ð°Ð¼": 5851,
      "ÑīÐ¸Ð¼Ð¸": 5852,
      "ĠÑĦÑĢÐ¾Ð½": 5853,
      "ĠÐ¿ÑĢÐ¾Ð¸Ð·Ð²Ð¾Ð´Ð¸ÑĤÐµÐ»ÑĮ": 5854,
      "Ð¿Ð°Ð½Ð¸Ð¸": 5855,
      "ÐĽÐ¸": 5856,
      "ĠÐ¿Ð¾Ð´ÑħÐ¾Ð´Ñı": 5857,
      "ĠÐľÐµÐ¶Ð´ÑĥÐ½Ð°ÑĢÐ¾Ð´": 5858,
      "ĠÑįÐ¿Ð¾": 5859,
      "ĠÑįÐºÐ¾Ð½Ð¾Ð¼Ð¸ÐºÐ¸": 5860,
      "ÐµÐºÑĨÐ¸Ð¸": 5861,
      "Ð»ÑİÐ±": 5862,
      "ĠÐ¾Ð±ÑĬÐµÐ´Ð¸": 5863,
      "Ð¼Ð¾ÑĤÑĢÐµÐ½": 5864,
      "ÑģÑĤÐ²ÐµÐ½Ð½ÑĥÑİ": 5865,
      "Ġnum": 5866,
      "ĠWindows": 5867,
      "ĠÐ²ÑĢÐ°Ñĩ": 5868,
      "ÑĦÐµÐ´": 5869,
      "Ð¸ÑĤÐµÑĤÐ°": 5870,
      "ĠÑĤÐµÑħÐ½Ð¾Ð»Ð¾Ð³Ð¸Ð¹": 5871,
      "ĠÐ¿Ð¾Ð»Ð¾Ð¶ÐµÐ½Ð¸Ðµ": 5872,
      "ÑģÑĤÐ°Ð²ÐºÐ°": 5873,
      "Ð»Ð¾Ð¶ÐµÐ½Ð¸Ñı": 5874,
      "ĠÑįÐ»ÐµÐ¼ÐµÐ½ÑĤÐ°": 5875,
      "ĠÐ¡ÐµÐ¹ÑĩÐ°Ñģ": 5876,
      "ĠÐ±ÐµÐ´": 5877,
      "ĠÑĤÑĢÑĥÐ±": 5878,
      "Ġ45": 5879,
      "ĠÑĥÐ»": 5880,
      "ĠÐ¾Ð¿ÑĢÐµÐ´ÐµÐ»Ð¸ÑĤÑĮ": 5881,
      "ÐµÐ½Ð¾Ñģ": 5882,
      "ĠÐ²Ð¾Ð´Ð°": 5883,
      "ĠÐ¿ÐµÑĢÐµÐ¶Ð¸": 5884,
      "ĠÐŃÐº": 5885,
      "ĠÐ¼ÐµÐ½ÐµÐ´Ð¶": 5886,
      "ĠÐ¾Ð´Ð¸Ð½Ð°": 5887,
      "ĠÑįÐ»ÐµÐ¼ÐµÐ½ÑĤÑĭ": 5888,
      "ĠÑĢÐ°Ð±Ð¾ÑĤÐ°Ð»": 5889,
      "ear": 5890,
      "ĠÐ¿Ð¾ÑģÐ¼Ð¾ÑĤÑĢÐµÑĤÑĮ": 5891,
      "ĠÐ¿ÑĢÐµÐ´Ð»Ð¾Ð¶ÐµÐ½Ð¸Ðµ": 5892,
      "ĠÑĥÑħÐ¾Ð´": 5893,
      "ence": 5894,
      "ud": 5895,
      "ĠÐºÐ°ÑĢÑĤÑĭ": 5896,
      "ĠÐ¿ÑĢÐ¸Ð½Ð¸Ð¼Ð°ÑĤÑĮ": 5897,
      "ÑĪÐ½Ð¾": 5898,
      "ÑĪÐµÐ²": 5899,
      "Ð²Ð¾Ð»ÑĮ": 5900,
      "Ð±Ð¾ÑĢÐµ": 5901,
      "ĠÐ¿Ð¸ÑģÐ°ÑĤÐµÐ»ÑĮ": 5902,
      "ĠÐ¿Ð¾Ð´ÑĢÐ°Ð·": 5903,
      "ÑĢÑıÐ·": 5904,
      "ĠÐ¿Ð¾Ð»ÑĮ": 5905,
      "Ð¾Ð»Ð¸ÑĤÐ¸": 5906,
      "ĠÑĢÐ¾ÑģÑģÐ¸Ð¹ÑģÐºÐ¸Ñħ": 5907,
      "ÑĨÐºÐ¸Ð¹": 5908,
      "ĠÐ§ÐµÐ¼": 5909,
      "ĠÐ¿Ð¾Ð²ÑĭÑĪÐµÐ½": 5910,
      "Ð½Ð¾Ð´Ð¾ÑĢÐ¾Ð¶": 5911,
      "ĠÑĢÑĥÐº": 5912,
      "ÑģÑĤÐ°Ñı": 5913,
      "Ð°Ð½ÑĮ": 5914,
      "ĠÑģÑĥÐ±ÑĬ": 5915,
      "ĠÑĥÑģÑĤÐ°Ð½Ð¾Ð²ÐºÐ¸": 5916,
      "ĠÑģÐµÑĢÐ´": 5917,
      "Ð¶Ð°ÐµÑĤÑģÑı": 5918,
      "ĠÑĨÐµÐ½Ðµ": 5919,
      "Ð¸ÑĩÐ°": 5920,
      "Ð¾Ð»Ð¾Ð³Ð¸ÑĩÐµÑģÐºÐ¸Ñħ": 5921,
      "Ð»Ð»Ðµ": 5922,
      "Ð´Ð¾ÑĢ": 5923,
      "ĠÑģÐ¾Ð·Ð´Ð°Ð½Ð¸Ðµ": 5924,
      "ĠÐ¿ÑĢÐµÐ´Ð¾ÑģÑĤÐ°Ð²": 5925,
      "io": 5926,
      "ĠÐ¢Ð¾Ð»ÑĮÐºÐ¾": 5927,
      "ĠÑģÐµÐºÑģ": 5928,
      "ÐµÑĤÐµÑģÑĮ": 5929,
      "ĠÐºÐ½Ð¸Ð³Ð°": 5930,
      "ĠÐ¾Ð±Ð¾Ð·Ð½Ð°": 5931,
      "ĠÑģÐºÐ»Ð°": 5932,
      "ÑĤÐ¸ÑĤ": 5933,
      "ĠÐ»ÐµÑĩÐµÐ½Ð¸Ðµ": 5934,
      "ĠÑĢÐ°ÑģÐ¿ÑĢÐ¾ÑģÑĤÑĢÐ°": 5935,
      "ĠÐ½Ð°Ð¿Ð¾Ð¼Ð¸Ð½Ð°": 5936,
      "ĠÐ´ÐµÐ»Ð¸": 5937,
      "ĠÑĢÐ¾ÑģÑĤÐ°": 5938,
      "ĠÐ¾ÑĤÐ»Ð¸ÑĩÐ°ÐµÑĤÑģÑı": 5939,
      "ĠÑģÐ¾Ð¾ÑĤÐ²ÐµÑĤÑģÑĤÐ²ÑĥÑİ": 5940,
      "ÑĨÐ¸Ð¾Ð½Ð½Ð¾": 5941,
      "76": 5942,
      "ĠÐ²Ð¾Ð´Ñĥ": 5943,
      "Ġpl": 5944,
      "ĠÐłÐ°Ñģ": 5945,
      "ĠÐ·Ð°ÑĢÐ°Ð±Ð¾ÑĤ": 5946,
      "ĠÐ³Ð¾ÑĢÐ°Ð·Ð´Ð¾": 5947,
      "ĠÐ¶Ð¸ÑĤÑĮ": 5948,
      "ĠÐºÐ¾Ð¼Ð¿Ð¾Ð·Ð¸": 5949,
      "ĠÐ·Ð°ÐºÑĥ": 5950,
      "ÑĢÐ¾Ð¼Ð°": 5951,
      "ÐŁÐ°": 5952,
      "ĠÐ»ÑİÐ±Ð²Ð¸": 5953,
      "ĠÐ²Ð½ÐµÐ´": 5954,
      "ĠÐ¼Ð°ÑģÑĪÑĤÐ°": 5955,
      "ÑĨÐ¸Ð¾Ð½Ð½Ð°Ñı": 5956,
      "Ġres": 5957,
      "ĠÐ²Ð°Ð¼Ð¸": 5958,
      "Ð²Ð°Ð½Ð¸Ð¸": 5959,
      "ĠÐ¡ÑĤÑĢÐ°": 5960,
      "ÑĩÐµÑģÑĤÐ²ÐµÐ½Ð½Ð¾Ð¹": 5961,
      "ĠÐ³Ð¾ÑģÑĥÐ´Ð°ÑĢÑģÑĤÐ²ÐµÐ½Ð½Ð¾Ð¹": 5962,
      "ĠÐ¿ÑĢÐ¸ÑħÐ¾Ð´Ð¸ÑĤÑģÑı": 5963,
      "ĠÐ²ÑģÐµÐ¼Ð¸": 5964,
      "ĠÐ·Ð½Ð°Ð½Ð¸Ñı": 5965,
      "ĠÑĤÐµÐ¿Ð»Ð¾": 5966,
      "ĠÑģÑĤÑĢÐµÐ¼Ð¸": 5967,
      "ĠÐ²Ð¾Ð¿ÑĢÐ¾ÑģÐ¾Ð²": 5968,
      "ĠÐºÐ¾ÑĢÐ¿Ð¾ÑĢÐ°": 5969,
      "ÑĤÐ¸Ð¼": 5970,
      "ĠÐĻ": 5971,
      "ĠÑģÐ¾Ð²ÑĢÐµÐ¼ÐµÐ½Ð½ÑĭÑħ": 5972,
      "ĠÐ¯Ð¿Ð¾": 5973,
      "ĠÑģÐ¾Ð³Ð»Ð°Ñģ": 5974,
      "ĠÐ¿ÑĢÐµÐ¼": 5975,
      "ĠÐºÐ²Ð°ÑĢÑĤÐ¸ÑĢÑĭ": 5976,
      "ĠÐ¾Ð±ÐµÑģÐ¿ÐµÑĩÐ¸Ð²Ð°ÐµÑĤ": 5977,
      "ĠÐ¥Ð¾ÑĤÑı": 5978,
      "ER": 5979,
      "ĠÐ¾ÑĤÐ½Ð¾ÑĪÐµÐ½Ð¸Ð¹": 5980,
      "ĠÐºÐ¾ÑģÑĤ": 5981,
      "ĠÐ¡ÐµÑĢÐ³Ðµ": 5982,
      "ĠÐ¿ÑĥÐ±Ð»Ð¸ÐºÐ°": 5983,
      "ÑĢÐµÑĤ": 5984,
      "ĠÐ¶ÐµÑģÑĤ": 5985,
      "ĠÐ¿ÑĢÐ¸Ð²ÐµÐ´": 5986,
      "ĠÐºÐ¾Ð¼Ð°Ð½Ð´Ð°": 5987,
      "ign": 5988,
      "ĠÐĶÐ¶Ð¾Ð½": 5989,
      "ĠÐĿÐ°ÑĨÐ¸Ð¾Ð½Ð°Ð»ÑĮ": 5990,
      "ĠÐ¶ÐµÐ½ÑīÐ¸Ð½Ð°": 5991,
      "ÐµÐ½ÑĤÐ¾Ð¼": 5992,
      "96": 5993,
      "ĠÐ¿ÑĢÐ¸Ð½ÑıÑĤÑĮ": 5994,
      "Î¿": 5995,
      "ĠÐ¶ÐµÑĢÑĤ": 5996,
      "Ð¸Ð»Ð¾": 5997,
      "ĠÐĳÐ°Ð½": 5998,
      "ĠÐ¾Ð±Ð»Ð°Ð´Ð°": 5999,
      "ĠTh": 6000,
      "ĠÑģÐ¾Ð¾Ð±ÑīÐ¸Ð»": 6001,
      "Ġ36": 6002,
      "Ð¾Ð¶Ð°Ð»ÑĥÐ¹ÑģÑĤÐ°": 6003,
      "ÑĢÐ¾Ð²Ð°Ð½Ð°": 6004,
      "Ð²ÑĳÑĢ": 6005,
      "ĠÐ¶ÐµÐ½Ð°": 6006,
      "ĠÐ¿ÑĢÐµÐ¼Ð¸Ð¸": 6007,
      "ĠÐ²Ð°ÑĪÐ¸": 6008,
      "ĠÐļÐ¸ÐµÐ²": 6009,
      "uc": 6010,
      "Ð½Ð½ÑĭÐµ": 6011,
      "ÑĤÐµÐ»ÑĮÑģÑĤÐ²": 6012,
      "ĠÐ¿ÑĢÐ¾Ð³ÑĢÐ°Ð¼Ð¼Ñĥ": 6013,
      "Ð¾ÑĩÐ½Ð¾Ð¹": 6014,
      "ĠÐ°Ð±ÑģÐ¾Ð»ÑİÑĤÐ½Ð¾": 6015,
      "ĠÐ½ÑĢÐ°Ð²Ð¸": 6016,
      "ĠÐ¡ÑĤÐµ": 6017,
      "Ð½Ð°ÑĩÐµ": 6018,
      "ĠÐ·ÐµÑĢÐºÐ°": 6019,
      "Ð¼Ð°Ð½Ð°": 6020,
      "ĠÐºÐ¸ÑģÐ»Ð¾ÑĤ": 6021,
      "ÑĢÐ°Ð»ÑĮÐ½ÑĭÑħ": 6022,
      "ĠÐľÐ¸ÑħÐ°Ð¸Ð»": 6023,
      "Ð½Ð¾Ð¶": 6024,
      "Ð»ÑĭÐ¼": 6025,
      "46": 6026,
      "ĠÐ¾Ð±ÑģÑĤÐ¾Ñı": 6027,
      "ĠÐ¿Ð¾ÑıÑģ": 6028,
      "ĠÑĦÐ¸Ð³Ñĥ": 6029,
      "Ð¶ÑĥÑĤ": 6030,
      "ĠÐ¿Ð°ÑĢÐ»Ð°": 6031,
      "ÐŁÐµÑĤÐµÑĢÐ±ÑĥÑĢÐ³": 6032,
      "ĠÑĤÐ°Ð±Ð»Ð¸": 6033,
      "ĠÐºÐ¾Ð½ÑģÑĤÑĢÑĥÐº": 6034,
      "ash": 6035,
      "ĠÐ¾ÑĤÐ·ÑĭÐ²Ñĭ": 6036,
      "ĠÐ¼Ð°Ð³Ð°Ð·Ð¸Ð½": 6037,
      "ĠÐºÐ°Ð±Ð¸Ð½": 6038,
      "ĠÐ¶ÐµÐ»": 6039,
      "ĠÑģÑĩÐ¸ÑĤÐ°ÐµÑĤ": 6040,
      "ĠÐĿÑĮÑİ": 6041,
      "oy": 6042,
      "ĠÐĴÐ¾Ð·Ð¼Ð¾Ð¶Ð½Ð¾": 6043,
      "ĠÐ¸Ð¼ÐµÐµÑĤÑģÑı": 6044,
      "Ð¾Ð»Ð¸ÑĤ": 6045,
      "ÐºÐ¾Ñģ": 6046,
      "ĠÐ½ÐµÐ¼Ñĥ": 6047,
      "ÑģÑĤÐµÑĢÐ°": 6048,
      "ĠÐ¾ÑĤÑĢÐ¸ÑĨÐ°": 6049,
      "ĠÐ¿ÑĢÐ¾ÑıÐ²Ð»Ñı": 6050,
      "Ð³Ð¾Ð´Ð½Ð¾": 6051,
      "ÑĢÐ¾Ð²Ð°Ð½Ð¾": 6052,
      "Ð¡ÐµÐ³Ð¾Ð´Ð½Ñı": 6053,
      "ĠÐ¾ÑģÐ½Ð¾Ð²Ð½Ð¾Ð¹": 6054,
      "ĠÑģÑĥÐ´ÑĮ": 6055,
      "ĠÐ·Ð°Ð¿Ð¸ÑģÐ¸": 6056,
      "ÑģÐ¸Ð²": 6057,
      "ĠÐľÐ°ÐºÑģÐ¸": 6058,
      "ÑĢÐ¸ÑģÐ°": 6059,
      "ĠÐłÐ¾Ð±": 6060,
      "ĠÐ°ÐºÑĨÐ¸Ð¸": 6061,
      "ĠÑģÐ¾Ð±Ð°": 6062,
      "ĠÐ³Ð»Ð°Ð²Ð°": 6063,
      "Ð¾Ð»ÑĮÐ·Ð¾Ð²Ð°ÑĤÐµÐ»ÑĮ": 6064,
      "ĠÐ¸ÑģÐºÐ»ÑİÑĩÐ¸ÑĤÐµÐ»ÑĮÐ½Ð¾": 6065,
      "ĠÑģÐ¾Ð¾ÑĢÑĥÐ¶": 6066,
      "ĠÐ»Ð¸ÑĩÐ½Ð¾": 6067,
      "ĠÐ¿Ð¾Ð»ÑĮÐ·Ñĥ": 6068,
      "ĠÐºÐ¾Ð»ÑĮ": 6069,
      "ary": 6070,
      "Ġhe": 6071,
      "ÑĤÐµÐ»ÑĮÑģÑĤÐ²Ð¾Ð¼": 6072,
      "ÑĢÐ¸Ð¿": 6073,
      "ĠÐ±ÑĥÐºÐ²Ð°": 6074,
      "Ġ%": 6075,
      "ÑįÑĤ": 6076,
      "ĠÐ¿ÑĢÐ¾Ð¸Ð·Ð¾ÑĪÐ»Ð¾": 6077,
      "ÐºÑĤÑĥÑĢÑĭ": 6078,
      "ĠÐ¿Ð¾Ð»ÑĮÐ·": 6079,
      "ĠÐĿÐ°ÑĢ": 6080,
      "ĠÐ²ÐµÑīÐ¸": 6081,
      "ĠÐ·Ð°Ð´Ð°Ñĩ": 6082,
      "ĠÐ¿ÑĢÐ¾Ð²Ð¸Ð½": 6083,
      "ĠÑģÐ¸Ñħ": 6084,
      "Ð°ÑĨÐ¸Ð¸": 6085,
      "ĠÑĥÐ½Ð¸ÑĩÑĤÐ¾Ð¶": 6086,
      "ĠÑįÐºÑģÐ¿Ð»ÑĥÐ°ÑĤÐ°ÑĨÐ¸Ð¸": 6087,
      "ĠÐļÐ°Ð»Ð¸": 6088,
      "ĠÐķÐ²ÑĢÐ¾Ð¿Ðµ": 6089,
      "ÑĤÐµÐ»ÑĮÐ½ÑĭÐ¼Ð¸": 6090,
      "ĠÑĢÐ¸ÑģÑĥÐ½": 6091,
      "ĠÐ·Ð´Ð°": 6092,
      "Ð¾Ð·Ñĭ": 6093,
      "Ð³Ð¸ÑģÑĤÑĢÐ°": 6094,
      "ĠÑħÐ¾ÑĩÑĥ": 6095,
      "ÐºÑĥÐ»ÑĮÑĤ": 6096,
      "Ð¢Ðķ": 6097,
      "Ð´ÑĢÐ°ÑĤ": 6098,
      "ĠÐĲÐ½Ð´ÑĢÐµÐ¹": 6099,
      "ĠÐłÐ¾Ð´": 6100,
      "ĠÑĢÐµÑĪÐ¸Ð»": 6101,
      "ĠÐ¿Ð»ÐµÐ½": 6102,
      "ĠÐ³Ð¾ÑĤÐ¾Ð²Ñĭ": 6103,
      "Ð²Ð¸Ð·Ð¸": 6104,
      "ÐŁÑĢ": 6105,
      "Ġ186": 6106,
      "Ġ}": 6107,
      "ĠÐ¶Ð°Ð½": 6108,
      "ĠÐ¾Ð·Ð½Ð°ÐºÐ¾Ð¼": 6109,
      "ĠÐ²Ð¾ÑģÐ¿Ð¾Ð»ÑĮÐ·Ð¾Ð²Ð°": 6110,
      "Ð»ÐµÐ±": 6111,
      "ĠÐ±ÑĢÐ¾Ñģ": 6112,
      "ÐºÐ°Ðº": 6113,
      "ug": 6114,
      "ÐµÑĢÐ¾": 6115,
      "Ġ...": 6116,
      "ĠÐ¿Ð¾Ð»ÑĥÑĩÐ¸Ð»Ð°": 6117,
      "Ġ\\)": 6118,
      "ÑĩÐ¸Ð¹": 6119,
      "ÑģÐ½Ð¾Ð¹": 6120,
      "Ð¢ÐĲ": 6121,
      "ĠÐ±Ð¾Ð»ÑĮÑĪÑĥÑİ": 6122,
      "ĠÐĵÑĥ": 6123,
      "ase": 6124,
      "ÐµÐ½ÑĤÑĥ": 6125,
      "ĠÐ·ÐµÐ»ÐµÐ½": 6126,
      "ÑĩÐ¸Ð½Ð°Ñı": 6127,
      "ĠÐ²Ð¾ÑģÐ¿Ð¸ÑĤÐ°": 6128,
      "ÑĩÐµÑģÐºÐ¾Ð¼Ñĥ": 6129,
      "ĠÐ½Ð°ÑĩÐ¸Ð½Ð°ÐµÑĤÑģÑı": 6130,
      "ĠÐ¾ÑĤÐ½Ð¾ÑģÑıÑĤÑģÑı": 6131,
      "ĠÐ½ÐµÑĳ": 6132,
      "ĠÐºÑĢÑĥÐ¿Ð½ÑĭÑħ": 6133,
      "ÐºÑĤÐ¾ÑĢÐ¾Ð²": 6134,
      "ĠÐ¾ÑĤÑĤÐµÐ½": 6135,
      "Ð²Ð¾Ñģ": 6136,
      "Ġ2002": 6137,
      "ĠÑģÐ¾ÑĢ": 6138,
      "ĠÐ±Ð¾Ð»ÑĮÑĪÐ¸Ñħ": 6139,
      "Ð´ÐµÐ»Ð¸ÑĤÑĮ": 6140,
      "ĠÑĦÐµÑģÑĤÐ¸Ð²Ð°": 6141,
      "ĠÐ½Ð¾Ð¼ÐµÑĢÐ°": 6142,
      "ĠÐ¾ÐºÑĢÑĥÐ³Ð°": 6143,
      "Ð»Ð¾ÑĢ": 6144,
      "ĠÐ½Ð¾Ð²Ð¾Ðµ": 6145,
      "ĠÑģÐ¾ÑĢÐµÐ²": 6146,
      "ÑĥÐ¿ÑĢÐµ": 6147,
      "ĠÑģÐ¾Ð²ÐµÑĤÐ°": 6148,
      "ĠÐºÐ¾Ð½ÑĦÐµÑĢÐµÐ½": 6149,
      "ĠÑģÑĢÐ°Ð²Ð½ÐµÐ½Ð¸Ñİ": 6150,
      "39": 6151,
      "ĠÐ½Ð¾Ð²ÑĥÑİ": 6152,
      "ĠÐ¿ÐµÑģÐ½Ð¸": 6153,
      "ĠÐ¡ÐŁ": 6154,
      "ĠÐºÑĥÑĢÑģ": 6155,
      "ĠÐ²Ð½Ð¸Ð¼Ð°Ð½Ð¸Ñı": 6156,
      "ĠÐ½Ð°Ð¼Ð¸": 6157,
      "ĠÐ´Ð¸Ñģ": 6158,
      "ĠÐĳÐ»Ð°Ð³Ð¾Ð´Ð°ÑĢÑı": 6159,
      "ĠÐ³Ð¾Ð½": 6160,
      "Ð½Ð¸ÑĤÐµÐ»ÑĮÐ½Ð¾": 6161,
      "ÑĥÐ´Ð¾Ð²": 6162,
      "ÑīÐ¸ÐºÐ°": 6163,
      "ĠÐ°ÑģÑģÐ¾ÑĢÑĤÐ¸": 6164,
      "Ð¾Ð¿Ð¾Ð»Ð¾Ð¶": 6165,
      "ĠÐ¾Ð¿ÑĢÐµÐ´ÐµÐ»ÑĳÐ½": 6166,
      "ĠÐ²ÑĭÐ¿ÑĥÑģÐº": 6167,
      "ĠÐºÐ»Ð°Ð´": 6168,
      "ĠÐ³ÐµÐ½ÐµÑĢÐ°Ð»": 6169,
      "ĠÑĪÐºÐ¾Ð»Ðµ": 6170,
      "Ð»Ð¸Ð¼Ð¿Ð¸Ð¹": 6171,
      "ĠÐ±Ð¾Ð»ÑĮÑĪÐ¸Ðµ": 6172,
      "Ð¾Ñī": 6173,
      "ĠÐºÐ¾Ð½ÑĤÑĢÐ¾Ð»Ð¸": 6174,
      "ĠÐ±Ð°ÑģÑģÐµÐ¹": 6175,
      "ÑģÑĤÐ¾Ð²ÐµÑĢ": 6176,
      "Ð¼ÑĥÐ»Ñı": 6177,
      "ĠÐ½ÐµÐ¿Ð¾ÑģÑĢÐµÐ´ÑģÑĤÐ²ÐµÐ½Ð½Ð¾": 6178,
      "ĠÐĿÐĲ": 6179,
      "ĠÐ¾Ð±ÑīÐµÐ¼": 6180,
      "ĠÑģÐ»ÐµÐ´ÑĥÑİÑīÐ¸Ð¹": 6181,
      "ĠÑĢÐµÐºÐ¾Ð¼ÐµÐ½Ð´": 6182,
      "ĠÑĢÐ°Ð±Ð¾ÑĩÐ¸Ñħ": 6183,
      "ĠÑģÑĭÐ³ÑĢÐ°": 6184,
      "Ð¾ÑĤÐ²ÑĢÐ°": 6185,
      "ĠÐĳÑĢÐ°": 6186,
      "ĠÐķÐ²Ð³": 6187,
      "ĠÑĤÐµÐ»Ð¾": 6188,
      "ĠÐ¿ÑĢÐ¸Ð¾Ð±ÑĢÐµÑģÑĤÐ¸": 6189,
      "ĠÐ¡ÐµÐ³Ð¾Ð´Ð½Ñı": 6190,
      "ĠÑģÐµÐ·Ð¾Ð½": 6191,
      "ĠÐ¿ÐµÑĢÑģÐ¾Ð½Ð°Ð»ÑĮ": 6192,
      "ĠÐ¶Ð¸Ð·Ð½": 6193,
      "ĠÐ¼Ð¾ÑģÐºÐ¾Ð²": 6194,
      "ĠÐĿÐ¸ÐºÐ¾Ð»Ð°Ð¹": 6195,
      "ĠÐ²Ð²ÐµÐ´": 6196,
      "ÑĤÐ¸ÑĩÐµÑģÐºÐ¸": 6197,
      "ĠÑģÑĤÐ°ÑĤÐ¸ÑģÑĤÐ¸": 6198,
      "Ġel": 6199,
      "Ð¢Ð°ÐºÐ¸Ð¼": 6200,
      "Ð¼Ð¾ÑĤÑĢÐ¸Ð¼": 6201,
      "ĠÑĤÐ¾Ð²Ð°ÑĢÑĭ": 6202,
      "ĠÐ¿Ð°Ð¼ÑıÑĤÑĮ": 6203,
      "ĠÑģÑĩÐ°": 6204,
      "ĠÑģÐ¾Ð·Ð½Ð°": 6205,
      "ĠÐ´Ð°ÑĤÑĮ": 6206,
      "def": 6207,
      "ĠÐ´ÐµÑĢÐµÐ²ÑıÐ½": 6208,
      "ĠÐ½Ð°ÑĢÑĥÑĪÐµÐ½Ð¸Ñı": 6209,
      "ĠÐŁÐ¾Ð·": 6210,
      "ÐµÐ½Ð½ÑĥÑİ": 6211,
      "ĠÐ²Ð¾Ð·Ð³Ð»Ð°": 6212,
      "ĠÐ³Ð¾ÑĢÐ¾Ð´Ð¾Ð²": 6213,
      "ĠÑĢÑĭÐ½Ð¾Ðº": 6214,
      "ĠÐ¼ÑĥÐ¶ÑĩÐ¸Ð½Ð°": 6215,
      "ĠÑĦÐ¾ÑĤÐ¾Ð³ÑĢÐ°ÑĦÐ¸": 6216,
      "ÐµÐ¼Ð°Ñı": 6217,
      "Ð»Ð»Ñİ": 6218,
      "ÑĤÐµÐ»ÑĮÐ½Ð¾Ð¼": 6219,
      "ĠÐ¿Ð¾Ð·Ð²Ð¾Ð»ÑıÑİÑĤ": 6220,
      "ĠÐ±Ð¾Ð»ÑĮÑĪÐ°Ñı": 6221,
      "Ð»ÑĥÐ´": 6222,
      "ÐŁÑĥ": 6223,
      "ĠÐ´Ð²ÐµÑĢ": 6224,
      "ĠÐĳÐµÐ·": 6225,
      "Ð¾Ð¶Ð´Ðµ": 6226,
      "Ð¼ÐµÑĢÐ°": 6227,
      "ĠÐ¸ÑģÐ¿Ð¾Ð»ÑĮÐ·ÑĥÑı": 6228,
      "ĠÐ¶Ð¸Ð»Ð¸": 6229,
      "ĠÐ¿Ð»Ñı": 6230,
      "ÑģÑĤÐ²ÐµÐ½Ð½Ð¾Ð¼": 6231,
      "ÑıÑĢ": 6232,
      "ĠÑĥÑĢ": 6233,
      "Ð½Ð¸ÑĨÐµÐ¹": 6234,
      "ÑĩÐ¸Ð²Ð°ÐµÑĤÑģÑı": 6235,
      "ĠÐ²ÑĭÐ¿Ð¾Ð»Ð½ÐµÐ½Ð¸Ñı": 6236,
      "ail": 6237,
      "ĠÐ·Ð½Ð°ÐµÑĤ": 6238,
      "ÑĢÐµÐ²Ð°": 6239,
      "ĠÐ²ÐµÐ±": 6240,
      "ĠÐ¼Ð¾Ð¶ÐµÐ¼": 6241,
      "ĠÐ¿ÑĢÐ¾Ð¸Ð·Ð²ÐµÐ´ÐµÐ½Ð¸Ñı": 6242,
      "ĠÐ´Ð¾Ð¼Ð¾Ð²": 6243,
      "ĠÐ½Ð°Ð·Ð²Ð°Ð½Ð¸Ñı": 6244,
      "Ð²Ð¸Ñģ": 6245,
      "ĠÐ½Ð°Ð¿Ð¸ÑĤ": 6246,
      "ĠÑĥÑģÑĤÐ°Ð½Ð¾Ð²Ð¸ÑĤÑĮ": 6247,
      "ÐĲÐ½": 6248,
      "ĠÐ¿Ð¾Ð·Ð²Ð¾Ð»Ð¸": 6249,
      "--------": 6250,
      "ĠÑĪÑĤÑĢÐ°": 6251,
      "ĠÐĹÐ°Ð¿Ð°Ð´": 6252,
      "ÐľÐ¾ÑģÐº": 6253,
      "Ð²ÑģÐµ": 6254,
      "ÐºÑĥÐ´Ð°": 6255,
      "ĠÑģÐµÑĢÐ²Ð¸Ñģ": 6256,
      "ĠÑĦÐ°Ð½ÑĤÐ°": 6257,
      "ĠÐ¿ÑĢÐ¾Ð´ÑĥÐºÑĤÑĭ": 6258,
      "ĠÑģÐ¿ÐµÑĨÐ¸Ð°Ð»Ð¸ÑģÑĤÑĭ": 6259,
      "ÑįÑĦ": 6260,
      "ĠÐ²ÑĤÐ¾ÑĢÐ¾Ð³Ð¾": 6261,
      "ĠÐ¿ÑĢÐµÐ´Ð¿ÑĢÐ¸ÑıÑĤÐ¸Ð¹": 6262,
      "Ð¾ÑĩÐ½ÑĭÐ¹": 6263,
      "!!!": 6264,
      "Ð¼ÐµÐ½Ñĭ": 6265,
      "ĠÐ¿ÑĢÐ¸Ð¾Ð±ÑĢÐµÑĤ": 6266,
      "ĠÐ¿ÑĢÐ¾Ð±Ð»ÐµÐ¼Ð°": 6267,
      "ĠÐ½ÐµÐ¸Ð·Ð²ÐµÑģÑĤ": 6268,
      "ĠÐ¿ÑĢÐµÑĤÐµÐ½": 6269,
      "ĠÐ¿Ð¾Ð´Ð¾Ð·": 6270,
      "Ð´Ð¶Ð¸": 6271,
      "Ð½Ð°Ð´ÑĨÐ°": 6272,
      "ÐºÑĥÑĢ": 6273,
      "Ð´Ð¶Ð°": 6274,
      "ĠÐ¼ÑĥÐ¶ÑĩÐ¸Ð½": 6275,
      "Ð´Ð¾Ð½": 6276,
      "ĠÐ·Ð°ÑĢ": 6277,
      "ÑĳÐ²": 6278,
      "ĠÐ¿ÑĢÐ¾ÐµÐºÑĤÐ¾Ð²": 6279,
      "ĠÐºÐ°Ð¶Ð´Ð¾Ð¼": 6280,
      "ĠÐ¿Ð¾Ð·Ð²Ð¾": 6281,
      "ĠÐ´Ð¾Ð±Ñĭ": 6282,
      "ĠÑĩÑĢÐµÐ·": 6283,
      "ĠÐ½ÐµÐ±Ð¾Ð»ÑĮÑĪÐ¾Ð¹": 6284,
      "ĠÐ´ÑĢÑĥÐ³Ð¾Ð³Ð¾": 6285,
      "oft": 6286,
      "ĠÑĤÐµÐ¼Ð¿ÐµÑĢÐ°ÑĤÑĥÑĢÐ°": 6287,
      "ĠÐ¸Ð³ÑĢÐµ": 6288,
      "ĠÑģÐ¾Ð»Ð½Ðµ": 6289,
      "ÑģÑĤÐ½Ð¾": 6290,
      "ĠÐ±Ð¾Ð»ÐµÐ·Ð½Ð¸": 6291,
      "ĠÐ¿Ð¾Ð»Ð¸ÑĤÐ¸ÐºÐ¸": 6292,
      "Ð»Ð¾Ð²Ð¾Ð¹": 6293,
      "lo": 6294,
      "ĠÑģÐ¾Ð¾ÑĤÐ²ÐµÑĤÑģÑĤÐ²ÐµÐ½Ð½Ð¾": 6295,
      "ĠÑģÐ²ÑıÐ·Ð°Ð½Ð¾": 6296,
      "ĠÐ½Ð°Ð¿Ð¾Ð»": 6297,
      "ĠÐºÐ½Ð¸Ð³": 6298,
      "ĠÑģÐ¾ÑħÑĢÐ°Ð½Ð¸": 6299,
      "ĠÑģÐ²ÐµÑĤÐ°": 6300,
      "ĠÐ°Ð²ÑĤÐ¾Ð¼Ð¾Ð±Ð¸Ð»ÐµÐ¹": 6301,
      "Ð²ÑĮÑİ": 6302,
      "\\]": 6303,
      "ne": 6304,
      "ĠÐ·Ð½Ð°Ñİ": 6305,
      "ÑĥÑİÑīÐ¸Ð¹": 6306,
      "ĠÑģÐºÐ°Ð·": 6307,
      "ĠÐ²ÐµÑĢÑģÐ¸Ñı": 6308,
      "ĠÑĢÐ°Ð´Ð¸Ð¾": 6309,
      "ĠÐºÐ»ÑĥÐ±Ð°": 6310,
      "ĠÐ·Ð°ÑĢÐ°": 6311,
      "ĠPl": 6312,
      "Ġ2001": 6313,
      "oth": 6314,
      "ish": 6315,
      "ÐµÑħÐ°Ð»": 6316,
      "ĠÐ¾Ð¿Ñĭ": 6317,
      "Ð½ÐµÐ½Ð¸Ð¸": 6318,
      "imes": 6319,
      "ĠÐ¿Ñĭ": 6320,
      "ĠÐłÐ¾": 6321,
      "ĠÑĨÐ²ÐµÑĤÐ¾Ð²": 6322,
      "ĠÐ±ÑĭÐ²Ð°ÐµÑĤ": 6323,
      "ÑĨÐ¾": 6324,
      "ÑģÑĤÐ²Ð¾Ð²Ð°Ð»Ð¸": 6325,
      "ĠÐ¡Ð¾ÑİÐ·Ð°": 6326,
      "ĠÐ´ÐµÐ»Ð°ÑİÑĤ": 6327,
      "ĠÐ´Ð°Ð»ÐµÐºÐ¾": 6328,
      "ĠÐĵÑĢÐµ": 6329,
      "ĠÐ²Ð¸ÑĤÐ°Ð¼Ð¸": 6330,
      "ĠÐ²ÐµÐ½": 6331,
      "ĠÐ±ÑĥÐ´ÐµÐ¼": 6332,
      "ĠÑģÐ¾Ð±ÑĭÑĤÐ¸Ð¹": 6333,
      "ĠÐ²ÑĭÑģÐºÐ°": 6334,
      "ĠÐ»ÑİÐ±Ð¾Ð²ÑĮ": 6335,
      "ĠÐ¾ÑĤÐ´ÐµÐ»": 6336,
      "ĠÑģÐ¸ÑĤÑĥÐ°ÑĨÐ¸Ñı": 6337,
      "ÑĨÐ¾Ð¼": 6338,
      "Ð¿Ð¸ÑģÐºÐ¾Ð¿": 6339,
      "ĠÐºÐ¾Ð½ÑģÑĤÑĢÑĥÐºÑĨÐ¸Ð¸": 6340,
      "ĠÐ²Ð°Ð»ÑİÑĤ": 6341,
      "ĠÑĥÑĩÐµÐ½": 6342,
      "Ð¿Ð¾Ð·Ð¸ÑĤ": 6343,
      "ĠÐ½ÐµÐ²ÐµÑĢ": 6344,
      "ĠÐ¨Ð°": 6345,
      "ĠÐ¿Ð»ÐµÐ¼": 6346,
      "ĠÐ°Ð´Ð°": 6347,
      "ĠÐºÐ¾Ð½ÑĨÐµÐ½ÑĤ": 6348,
      "ĠÐ½Ð°Ð±Ð»ÑİÐ´Ð°": 6349,
      "put": 6350,
      "ĠÑĥÑģÑĤÑĢÐ¾": 6351,
      "Ġby": 6352,
      "ĠÐ¼ÐµÑĤÐ°Ð»Ð»Ð¸": 6353,
      "ĠÑĥÐ¿ÑĢÐ°Ð²Ð»ÐµÐ½Ð¸Ðµ": 6354,
      "ÑĢÐ¾Ð²ÐµÑĢ": 6355,
      "ÑĢÐ°Ð¶ÐµÐ½Ð¸Ðµ": 6356,
      "ĠÑģÑĢÐµÐ´ÑģÑĤÐ²Ð¾": 6357,
      "ĠÐ¿Ð¾ÑģÑĤÐ°": 6358,
      "ĠÑĤÐµÐ»ÐµÑĦÐ¾Ð½Ð°": 6359,
      "ĠÐ¾Ñħ": 6360,
      "ĠÑĤÑīÐ°": 6361,
      "ĠÐ·Ð°Ð½Ð¸Ð¼Ð°ÐµÑĤ": 6362,
      "ĠÐ½Ð¸ÐºÐ°ÐºÐ¸Ñħ": 6363,
      "ĠÐ²Ð¾ÑģÑĤÐ¾Ñĩ": 6364,
      "Ð¾ÑģÑģÐ¸Ñı": 6365,
      "ĠÐ¿ÐµÑĢÐ²Ð¾Ðµ": 6366,
      "ĠÑĢÐ¾Ð´Ð¸ÑĤÐµÐ»ÐµÐ¹": 6367,
      "ĠRe": 6368,
      "act": 6369,
      "ĠÐ¾Ð¿ÑĥÐ±Ð»Ð¸Ðº": 6370,
      "ĠÑģÑĤÐ¾Ñı": 6371,
      "ĠÑģÐ¾ÑİÐ·": 6372,
      "ĠÐ¿Ð¾Ð´ÑĤÐ²ÐµÑĢÐ¶Ð´Ð°": 6373,
      "Ð»Ð¾Ð½Ð°": 6374,
      "47": 6375,
      "Ð³Ð°Ð´": 6376,
      "sh": 6377,
      "ĠÑħÐ°ÑĢÐ°ÐºÑĤÐµÑĢÐ¸ÑģÑĤÐ¸ÐºÐ¸": 6378,
      "ÑĢÐµÑģÑģ": 6379,
      "Ð»ÐµÑĨ": 6380,
      "ĠÐ¼ÐµÑĤÐ¾Ð´Ñĭ": 6381,
      "ÐµÐ½ÐºÐ¾": 6382,
      "Ð¾Ð²Ð°Ð»Ð°": 6383,
      "ĠÐ²ÐµÑģÑĤÐ¸": 6384,
      "ÑģÐ¸Ð½": 6385,
      "ĠÐ¼ÐµÑģÑĤÐ°Ñħ": 6386,
      "ĠÐ²Ð²Ð¾Ð´": 6387,
      "ÑģÐºÐ¾ÑĢ": 6388,
      "ĠÑģÐ´Ðµ": 6389,
      "ĠÑģÐµÐ¼ÑĮ": 6390,
      "ĠGo": 6391,
      "ĠÑĦÐµÑĢ": 6392,
      "ĠÐ°Ð´Ð¼Ð¸Ð½Ð¸ÑģÑĤÑĢÐ°ÑĨÐ¸Ð¸": 6393,
      "Ð¾Ð±ÑĢÐ°Ð·Ð¸": 6394,
      "ĠÐ³Ð»Ð°Ð²Ð½ÑĭÐ¼": 6395,
      "ÑĢÑĥÐ±Ðµ": 6396,
      "Ð»Ð°Ð¹": 6397,
      "Ð°ÐºÑĤÐµÑĢÐ¸": 6398,
      "ĠÐ¿Ð¾ÑĢÑıÐ´Ð¾Ðº": 6399,
      "ĠÑĪÐ°Ð½": 6400,
      "ĠÑģÐµÐºÑģÑĥ": 6401,
      "ĠÐ¼ÑıÑģ": 6402,
      "Ð¾Ð±Ð»Ð°": 6403,
      "ĠÐ²ÑģÐ¿Ð¾Ð¼": 6404,
      "ĠCom": 6405,
      "ÑĩÐµÐ½ÐºÐ¾": 6406,
      "ĠÐĲÐ±": 6407,
      "Ð¼Ð»": 6408,
      "____": 6409,
      "ĠÐ½Ð°ÑĢÐº": 6410,
      "ĠÑģÐ»Ð¾Ð¶Ð½Ð¾": 6411,
      "ĠÐ¾ÑĤÐµÑĨ": 6412,
      "ÐºÑĤÐ¾ÑĢÑĭ": 6413,
      "ĠÐ´Ð²Ð¸Ð¶ÐµÐ½Ð¸Ðµ": 6414,
      "ĠÐ¿ÑĢÐ¸Ð²ÐµÑģÑĤÐ¸": 6415,
      "ĠÑģÐ¾Ðº": 6416,
      "ĠÐĽÑĥÑĩ": 6417,
      "ĠÐ¼Ð¾ÑĤÐ¸": 6418,
      "ÑıÐµÑĤ": 6419,
      "ĠÐĺÑĢ": 6420,
      "ĠÑĩÐ°Ñģ": 6421,
      "ĠÑħÐ¾ÑĤÑĮ": 6422,
      "ĠÑĥÑģÑĤÑĢÐ¾Ð¹ÑģÑĤÐ²Ð¾": 6423,
      "ian": 6424,
      "ĠÐ¾Ð¿ÑĤÐ¸Ð¼Ð°": 6425,
      "ĠÐ¿ÑĢÐµÐ´ÑģÑĤÐ°Ð²Ð»ÐµÐ½Ñĭ": 6426,
      "ĠÐ±Ð¾Ð¹": 6427,
      "OS": 6428,
      "ĠÐµÐ²ÑĢÐ¾": 6429,
      "ĠÐ¾Ð²Ð¾": 6430,
      "ÑĢÐ¾Ð´Ðµ": 6431,
      "ĠÐºÐ¾Ð½ÑĨÐµÐ¿": 6432,
      "ĠÐ¼ÑĭÑģÐ»Ð¸": 6433,
      "ĠÐ±Ð°Ð½ÐºÐ°": 6434,
      "ĠÑĢÐµÑĪÐ¸Ð»Ð¸": 6435,
      "Ð³Ð¸Ð¹": 6436,
      "Ð½Ð¸ÐºÐ°Ñħ": 6437,
      "ĠÑĢÑĥÐºÐ°Ð¼Ð¸": 6438,
      "ĠÐĳÐµÐ»Ð°": 6439,
      "ĠÐ¿Ð¾ÑģÑĢÐµÐ´": 6440,
      "ĠÑģÐ¼Ð°ÑĢÑĤ": 6441,
      "ĠÐ²Ð°ÑĢ": 6442,
      "ĠÐ´Ð¾ÑģÑĤÐ°Ð²ÐºÐ¸": 6443,
      "ĠÐ¾ÑģÑĤÐ°Ð²": 6444,
      "ĠÑĩÐ°Ð¹": 6445,
      "ĠÑĤÐ°Ð±": 6446,
      "ĠÐºÐ¾Ð¼Ð±Ð¸Ð½Ð°": 6447,
      "Ð¾Ð²ÐµÐ´": 6448,
      "ĠÑģÐ¿Ð¾ÑĢÑĤÐ°": 6449,
      "ĠÐ±Ð»Ð°Ð³Ð¾Ð´Ð°": 6450,
      "ĠÐ¿ÑĢÐ°Ð²Ð¾ÑģÐ»Ð°Ð²": 6451,
      "ĠÐ¿Ð¾ÑģÐµÐ»": 6452,
      "ĠÐ¿Ð¾Ð¹": 6453,
      "ĠÑģÑĤÐ¸Ð»Ðµ": 6454,
      "Ð´ÐµÐ½Ð¸Ðµ": 6455,
      "49": 6456,
      "ÐĺÑģÐ¿": 6457,
      "ĠÐ²Ð·Ð³Ð»ÑıÐ´": 6458,
      "ÑĤÐ¾Ð½Ð°": 6459,
      "ĠÐ¿Ð¾Ð·Ð½Ð°ÐºÐ¾Ð¼": 6460,
      "ĠÐ²ÑĢÑĥ": 6461,
      "ÑĢÑĥÐ³Ð¸Ðµ": 6462,
      "ĠÐºÑĢÐ¸Ð·Ð¸": 6463,
      "ĠÐ¼Ð°ÑģÐ»Ð¾": 6464,
      "ÑģÑĤÐ¾Ð¸Ð½": 6465,
      "Ð³ÑĢÑĭ": 6466,
      "Ð´Ð¸Ð»": 6467,
      "ÐºÐ¾Ð²Ð¾": 6468,
      "ĠÑģÐ¾Ð³Ð»Ð°ÑģÐ¸": 6469,
      "Ð¿Ð¸ÑģÐ¸": 6470,
      "Ð¾Ð´ÐµÑĢÐ¶Ð°": 6471,
      "ĠÐ´Ð¾ÑģÑĤÐ¸Ð¶ÐµÐ½Ð¸Ñı": 6472,
      "ĠÐ½Ð°ÑħÐ¾Ð´Ñı": 6473,
      "ĠÐ²Ð¾Ð·Ð±Ñĥ": 6474,
      "ÑĤÐ°ÑĤÑĮ": 6475,
      "Ð°Ð»Ðµ": 6476,
      "Ð¼ÑĭÑĪ": 6477,
      "ĠÐ²Ð¾Ð¿ÑĢÐ¾ÑģÐ°Ð¼": 6478,
      "ĠÑĢÐ°ÑģÐºÑĢÑĭ": 6479,
      "ÐĳÐµ": 6480,
      "Ð²Ð¸ÑĤ": 6481,
      "Ð¾Ð²ÑĭÐ¹": 6482,
      "ĠÐ¿Ð¾ÑģÐ»ÐµÐ´Ð½Ð¸Ð¹": 6483,
      "Ð¿Ð°ÑģÐ¸Ð±Ð¾": 6484,
      "Ð¶Ð½Ð¾ÑģÑĤÑĮ": 6485,
      "ÑĪÑĳÐ»": 6486,
      "Ð·ÑĭÐ²Ð°ÑĤÑĮ": 6487,
      "ĠÐ¿Ð¾ÑĢÑıÐ´ÐºÐ°": 6488,
      "ÐĳÑĭ": 6489,
      "ĠÐµÐ¶ÐµÐ´": 6490,
      "Ġcl": 6491,
      "ÑģÑĤÐ°Ð¼": 6492,
      "ĠÐºÐ¾ÑĢÐ¾Ð±": 6493,
      "ĠÐ¿ÑĢÐ¾ÑĪÐ»Ð¾Ð¼": 6494,
      "ĠÑĢÐµÑģÑĤÐ¾ÑĢÐ°": 6495,
      "ĠÐ³Ð»Ð°Ð²Ð½ÑĭÐ¹": 6496,
      "ong": 6497,
      "ond": 6498,
      "ĠÐ½Ð¾Ð¶": 6499,
      "ĠÑĦÐ¸Ð»ÑĮÐ¼Ñĭ": 6500,
      "ĠÑģÑĢÐ¾ÐºÐ¸": 6501,
      "ĠÐ¡ÐºÐ°": 6502,
      "ĠÑĥÑģÐ¿ÐµÑĪÐ½Ð¾": 6503,
      "ÑĤÐ¾ÑĢÐ°Ñı": 6504,
      "Ġper": 6505,
      "ĠÐĲÐ»ÐµÐºÑģÐµ": 6506,
      "Ð´ÐµÐ¼": 6507,
      "ĠÐĺÐ²Ð°Ð½": 6508,
      "ĠÑĢÐ°ÑģÑģÐºÐ°Ð·Ð°Ð»": 6509,
      "ĠÐ´ÐµÐ²": 6510,
      "ĠÐ´ÐµÑĢÐ¶Ð°": 6511,
      "ĠÐ´ÐµÐºÐ¾ÑĢÐ°": 6512,
      "ĠÐ¿ÑĢÐµÐ´ÑģÑĤÐ°Ð²Ð¸ÑĤÐµÐ»Ð¸": 6513,
      "ĠÐ¿Ð¾Ð·Ð¸ÑĨÐ¸Ð¸": 6514,
      "ĠÐ¿ÑĥÑĤÐµÐ¼": 6515,
      "ĠÐļÑĥÐ±": 6516,
      "ĠPro": 6517,
      "ĠÐ³Ð»ÑĥÐ±Ð¾Ðº": 6518,
      "ĠÐ³ÑĢÐ°Ð´Ñĥ": 6519,
      "ĠÐ¿Ð¾Ð´Ð´ÐµÑĢÐ¶ÐºÑĥ": 6520,
      "ĠÑĥÑģÑĤÐ°": 6521,
      "ĠÐ³ÑĢÑĥÐ´": 6522,
      "Ð»Ð°Ð±": 6523,
      "Â»),": 6524,
      "ĠÐ¾ÑĤÑģÑĥÑĤÑģÑĤÐ²Ð¸Ðµ": 6525,
      "ĠÐ¿ÑĢÐµÐ´Ð¾ÑĤÐ²ÑĢÐ°": 6526,
      "ĠÐ¾Ð±ÑĬÑıÐ²Ð¸": 6527,
      "ÐºÐ¾Ð¼Ñĥ": 6528,
      "42": 6529,
      "ÑįÑĦÑĦÐ¸ÑĨÐ¸": 6530,
      "ĠÑģÐ²ÐµÐ´ÐµÐ½Ð¸Ñı": 6531,
      "ĠÑģÑĩÐ¸ÑĤÐ°ÑİÑĤ": 6532,
      "ĠÐĺÑĤÐ°Ð»Ð¸Ð¸": 6533,
      "ĠÐ²ÑĭÐ½ÑĥÐ¶Ð´": 6534,
      "ĠÐĶÐ¶Ðµ": 6535,
      "ĠÐ¯Ð½": 6536,
      "Ð¾Ð²Ð°Ð½Ñĭ": 6537,
      "ÑīÐµÐ½Ð¾": 6538,
      "ÐŀÐ´Ð½Ð°ÐºÐ¾": 6539,
      "56": 6540,
      "ĠÑħÐ°": 6541,
      "ĠÐ»Ð¸ÑĤÐµÑĢÐ°ÑĤÑĥÑĢ": 6542,
      "ĠÐŁÐ»Ð°": 6543,
      "Ð²Ð°ÑıÑģÑĮ": 6544,
      "ĠÐ½ÐµÐ¾Ð±ÑħÐ¾Ð´Ð¸Ð¼ÑĭÐµ": 6545,
      "ĠÑĥÐ³Ð¾Ð»": 6546,
      "Ð³ÐµÐ»ÑĮ": 6547,
      "sc": 6548,
      "ÑĤÐ¾ÑĢÐ°Ð¼Ð¸": 6549,
      "Ð¾ÑģÐ½Ð¾Ð²Ð°": 6550,
      "ĠÐĳÐ¸": 6551,
      "Ð´ÑĢÐ°Ð²": 6552,
      "ĠÐ½Ð¾ÑĩÑĮ": 6553,
      "ĠÐĴÐµÐ»Ð¸ÐºÐ¾Ð±ÑĢÐ¸ÑĤÐ°Ð½Ð¸Ð¸": 6554,
      "ÑĤÐµÑħ": 6555,
      "Ð¾Ð³ÑĢÐ°Ð´": 6556,
      "ĠÐ¿ÐµÑĢÐ¸Ð¾Ð´Ð°": 6557,
      "ĠÑģÐ¾ÐµÐ´Ð¸": 6558,
      "res": 6559,
      "ĠÐ±ÑĢÐ°ÑĤÑĮ": 6560,
      "ÑĤÐ¸Ð²Ð½Ð°Ñı": 6561,
      "ĠÐ½Ð°Ð¼ÐµÑĢ": 6562,
      "ĠÐ¿ÑĢÐ¾Ð´ÑĥÐºÑĤ": 6563,
      "ĠÐĵÐ°ÑĢ": 6564,
      "Ð³Ð¸Ñİ": 6565,
      "ĠÑĤÐµÐ¾ÑĢÐ¸Ð¸": 6566,
      "ÑģÑĳ": 6567,
      "ĠÐŁÑĢÐ°": 6568,
      "ory": 6569,
      "Ð¾ÑĢÐ¾ÑĪÐ¾": 6570,
      "ĠÐ¼ÐµÑĤÐ¾Ð´Ð¸": 6571,
      "Ð²Ð°Ð»Ð¾ÑģÑĮ": 6572,
      "ĠÐ¿ÑĢÐµÐ·": 6573,
      "ÑĢÐ¸ÐºÐ°": 6574,
      "ĠÐ¾ÑģÐ½Ð¾Ð²Ð°Ð½Ð¸Ð¸": 6575,
      "ĠÐ¿ÑĢÐ¸ÑĩÐ¸Ð½": 6576,
      "ÑĩÐ¸ÑĤÑĮÑģÑı": 6577,
      "ÑĦÐ¾Ð²": 6578,
      "ĠÑĢÐµÑĪÐ¸ÑĤÑĮ": 6579,
      "ĠÐºÐ¾Ð½ÑĤÑĢÐ¾Ð»Ñı": 6580,
      "Ġ>": 6581,
      "ĠÐ¾Ð±ÑĢÐ°ÑĤÐ¸ÑĤÑĮÑģÑı": 6582,
      "The": 6583,
      "Ð½Ð°ÑģÑĤÐ¸": 6584,
      "ĠÐ¿ÑĢÐµÐ´Ð½Ð°Ð·Ð½Ð°ÑĩÐµÐ½": 6585,
      "ĠÐ¿ÑĢÐ¾Ð²Ð¾Ð´Ð¸ÑĤÑĮ": 6586,
      "ĠÐ¿Ð¾Ð¼Ð¾Ð³ÑĥÑĤ": 6587,
      "ĠÐ¿Ð¾Ð´Ð½Ñı": 6588,
      "ĠÐ¿ÑĥÐ½Ðº": 6589,
      "ft": 6590,
      "ĠÑĥÐ¿Ð°ÐºÐ¾Ð²": 6591,
      "ÑīÐ¸Ð½Ñĭ": 6592,
      "ĠÐ³ÐµÐ½ÐµÑĢÐ°": 6593,
      "ÐµÐ½Ð½ÑĭÐ¼Ð¸": 6594,
      "ĠÐ³Ð¾ÑĢÐ¾Ð´ÑģÐºÐ¾Ð³Ð¾": 6595,
      "ĠÐ¼Ð°ÑĢÐºÐ¸": 6596,
      "ĠÐºÐ¾ÑĤÐ¾ÑĢÑĭÐ¼Ð¸": 6597,
      "ĠÐ²Ð¾Ð´Ð¾": 6598,
      "Ð¾ÑĢÐ¾ÑĤÐ°": 6599,
      "ĠÐ½Ð¾Ð¼Ð¸Ð½Ð°": 6600,
      "ĠÐ³Ð¾ÑģÑĥÐ´Ð°ÑĢÑģÑĤÐ²ÐµÐ½Ð½Ð¾Ð³Ð¾": 6601,
      "ĠÑĦÑĥÐ½ÐºÑĨÐ¸Ð¾Ð½Ð°Ð»ÑĮ": 6602,
      "Ġsp": 6603,
      "ĠÑĢÐ¸Ð¼": 6604,
      "ĠÐºÐ¾Ð¼Ð¿Ð»ÐµÐºÑĤ": 6605,
      "ĠÐ¿Ð¾Ð´Ð°ÑĢ": 6606,
      "ĠÑģÐ°Ð»": 6607,
      "Ð¼Ð¸ÑĢ": 6608,
      "ÐĵÐ»Ð°Ð²": 6609,
      "Ð¾Ð¶ÐµÐ»Ð°": 6610,
      "ÑģÑĤÐºÐ°": 6611,
      "ĠÐ¼ÑĭÑģ": 6612,
      "Ġat": 6613,
      "ĠÑħÑĢÐ¸ÑģÑĤÐ¸Ð°Ð½": 6614,
      "ĠÐ¾ÑĤÐ´ÐµÐ»Ð°": 6615,
      "Ð¶ÐµÐ½Ð¸Ð¸": 6616,
      "ĠÐ´Ð¾Ð±Ð°Ð²Ð¸ÑĤÑĮ": 6617,
      "ĠÐ¿ÑģÐ¸ÑħÐ¸": 6618,
      "ĠÐľÐ¸Ð½Ð¸ÑģÑĤÐµÑĢ": 6619,
      "ĠÐ³Ð¸Ð¼": 6620,
      "ĠÑħÑĥ": 6621,
      "ĠÐ¸ÑģÑģÐ»ÐµÐ´Ð¾Ð²Ð°Ð½Ð¸Ð¹": 6622,
      "ĠÑĢÐ°ÑģÑĩÐµÑĤ": 6623,
      "ÑĪÐ¸Ð»": 6624,
      "ÐłÐ¾Ð´": 6625,
      "ĠÐ·Ð°Ð±Ð¾Ð»ÐµÐ²Ð°Ð½Ð¸Ð¹": 6626,
      "ĠÐºÐ¾ÑĢÐ¿Ñĥ": 6627,
      "ĠÑįÐºÐ¾Ð»Ð¾Ð³Ð¸": 6628,
      "ĠÑĦÐ¸Ð»ÑĮÐ¼Ðµ": 6629,
      "ÑĢÑĥÑĢ": 6630,
      "ÑĳÐ½Ð½ÑĭÐµ": 6631,
      "Ð¸ÑģÐ°": 6632,
      "Ð¾ÐºÐ°Ñı": 6633,
      "ĠÐ²ÐºÐ»Ð°Ð´": 6634,
      "ĠÐ¾Ð¿Ð¸ÑģÑĭ": 6635,
      "ĠÐ¸Ð·Ð¾Ð±ÑĢÐ°Ð¶ÐµÐ½Ð¸Ñı": 6636,
      "Ð³Ð°ÑĤÑĮ": 6637,
      "ĠÐ·Ð°Ð¸Ð½ÑĤÐµÑĢÐµÑģ": 6638,
      "ĠÑĪÐºÐ°": 6639,
      "Ð¼ÐµÐ´": 6640,
      "ĠÐ±ÑĢÐ¾Ð½": 6641,
      "ĠÑģÐ¾Ð¶Ð°Ð»": 6642,
      "ĠÐ¿Ð¾Ð²Ð¾Ð´Ñĥ": 6643,
      "ĠÑģÐµÐ·Ð¾Ð½Ð°": 6644,
      "ĠÐ¿ÑĢÐ¸Ð¼ÐµÑĢÑĥ": 6645,
      "ĠÐºÑĥÐ¿": 6646,
      "ĠÐ¿Ð¾ÑģÑĤÐµÐ¿ÐµÐ½Ð½Ð¾": 6647,
      "ÐºÐ²Ð°": 6648,
      "ĠÐ¸Ð½ÑĦÑĢÐ°": 6649,
      "Ð¼Ð¸ÑĢÐ°": 6650,
      "ave": 6651,
      "ĠÐ¼Ð¾Ð´": 6652,
      "ÑĢÐ°Ð±Ð¾ÑĤÐ°ÑĤÑĮ": 6653,
      "Ð·Ð¸ÑĢÐ¾Ð²Ð°ÑĤÑĮ": 6654,
      "ÑĥÐ¶Ð½Ð¾": 6655,
      "ĠÑĥÐ¶Ð°": 6656,
      "ÑĤÐ¸Ð²Ð½Ð¾Ðµ": 6657,
      "Ð²Ð°Ñİ": 6658,
      "ÐĴÐ¾ÑĤ": 6659,
      "ÐĳÐ°": 6660,
      "ãģ": 6661,
      "ÐŀÑĤÐ²ÐµÑĤ": 6662,
      "ĠÑĦÐ°ÐºÑĥÐ»ÑĮÑĤ": 6663,
      "ĠÐ·Ð°ÐºÐ»ÑİÑĩÐ°ÐµÑĤÑģÑı": 6664,
      "ĠÐ¿ÑĢÐµÐ´ÑģÑĤÐ°Ð²Ð¸ÑĤÐµÐ»ÐµÐ¹": 6665,
      "ĠÐĹÐ½Ð°ÑĩÐ¸ÑĤ": 6666,
      "ĠÐ²Ð°ÑĢÐ¸Ð°Ð½ÑĤÐ¾Ð²": 6667,
      "ĠÐ¾ÑĢÐ¸ÐµÐ½ÑĤÐ¸": 6668,
      "ÑĤÐ¾Ð²Ð¾Ð¹": 6669,
      "ĠÑĥÑĩÑĢÐµÐ¶Ð´ÐµÐ½Ð¸Ñı": 6670,
      "ĠÐ¾ÑĤÑĩÐµÑĤ": 6671,
      "ÑīÐ°ÑİÑĤÑģÑı": 6672,
      "ĠÑĢÐ°ÑģÑĤÐµÐ½Ð¸Ñı": 6673,
      "ĠÐ·Ð°Ð½Ð¸Ð¼Ð°ÑĤÑĮÑģÑı": 6674,
      "Ð¿ÑĥÑģÐº": 6675,
      "ĠÐ»ÐµÐ³ÐµÐ½": 6676,
      "ÑĩÐ°Ñı": 6677,
      "ĠÐºÐ¸Ð»Ð¾Ð¼ÐµÑĤ": 6678,
      "ĠÐ²Ð¾Ð·Ð½Ð¸ÐºÐ°ÐµÑĤ": 6679,
      "ĠÐľÐ¾Ð¶ÐµÑĤ": 6680,
      "ĠÐĺÑģÐ¿Ð°": 6681,
      "ÑĤÐ¸ÐºÐ¸": 6682,
      "ÐľÑĥ": 6683,
      "Ð¾ÑĢÑĥ": 6684,
      "ÐµÐ¼Ð¾Ð½": 6685,
      "ĠÑģÐ¾Ð¾ÑĤÐ²ÐµÑĤÑģÑĤÐ²ÑĥÐµÑĤ": 6686,
      "Ð´ÑĮÐ¼Ð¸": 6687,
      "ÐĳÐ¸Ð¾Ð³ÑĢÐ°ÑĦÐ¸Ñı": 6688,
      "ĠÐ¿ÑĢÐ¸ÑĪÐ»Ð¾ÑģÑĮ": 6689,
      "Ð¾Ð²Ð°ÑĢÐ¸": 6690,
      "ĠUn": 6691,
      "ĠÐ¿ÑĢÐ¾ÑĦÐµÑģÑģÐ¸Ð¾Ð½Ð°": 6692,
      "ĠÐ¾Ð±ÑĢÐ°Ð±Ð¾ÑĤÐºÐ¸": 6693,
      "ĠÑĤÐ²Ð¾": 6694,
      "ĠÐºÑĢÐµÐ¿Ð¾": 6695,
      "ĠÐĶÐ¾Ð±": 6696,
      "Ð¸ÑĤÐµÐ»ÑıÐ¼": 6697,
      "ĠÑģÐ¾ÑĨÐ¸Ð°Ð»ÑĮÐ½ÑĭÑħ": 6698,
      "ÑĤÐ¸Ð½Ð³": 6699,
      "ĠÑĦÐ¾ÑĤÐ¾Ð³ÑĢÐ°ÑĦÐ¸Ð¸": 6700,
      "ĠÐŀÐ»ÑĮ": 6701,
      "Ġar": 6702,
      "ÐµÐ½ÐµÑĢÐ°": 6703,
      "ĠÐ¿Ð¾Ð»ÑĥÑĩÐ°ÐµÑĤ": 6704,
      "ĠÐ½ÑĳÐ¼": 6705,
      "ĠÐºÐ°ÐºÐ¸Ð¼": 6706,
      "ĠÐ¸ÑģÐ¿Ð¾Ð»ÑĮÐ·Ð¾Ð²Ð°Ð½Ð¸Ð¸": 6707,
      "Ġ1000": 6708,
      "ĠÑĥÐ´Ð°ÑĢ": 6709,
      "ĠÐ½Ð°ÑĢÐ¾Ð´Ð°": 6710,
      "ĠÐŀÑĩÐµÐ½ÑĮ": 6711,
      "Ð³Ð¾ÑĢÐ¸ÑĤ": 6712,
      "ĠÐ¼ÐµÑĤÐ°": 6713,
      "ĠÐ³Ð¸Ð±": 6714,
      "ĠÐ·Ð°Ð¿Ð»Ð°": 6715,
      "form": 6716,
      "Ġ&": 6717,
      "ĠÐ²Ð»Ð°ÑģÑĤÑĮ": 6718,
      "ĠÐ¿ÐµÑĢÐ²Ð°Ñı": 6719,
      "ÐłÐķ": 6720,
      "ÑįÐ½ÐµÑĢ": 6721,
      "ÐļÐ°ÑĢ": 6722,
      "ĠÑģÑĥÐ¿ÐµÑĢ": 6723,
      "ĠÐ¿Ð¾ÑģÑĤÑĢÐ°": 6724,
      "ĠÑģÐ¼Ð¾Ð³ÑĥÑĤ": 6725,
      "ĠÑģÑĩÐ°ÑģÑĤ": 6726,
      "ĠÐ±ÑĥÑħ": 6727,
      "ĠÐ³ÑĢÐ½": 6728,
      "ĠÐ¸ÑģÑĩÐµ": 6729,
      "ĠÐĴÐµÑĢÑħÐ¾Ð²": 6730,
      "ĠÑģÐ²ÑıÐ·ÑĮ": 6731,
      "Ġ(,": 6732,
      "ĠÐĲÐ»ÐµÐºÑģÐµÐ¹": 6733,
      "98": 6734,
      "ĠÑĥÐ´Ð¾Ð²Ð»ÐµÑĤÐ²Ð¾ÑĢ": 6735,
      "Ð´Ð°ÑĤ": 6736,
      "ĠÐ¡Ð²Ñı": 6737,
      "think": 6738,
      "ĠÐ¿ÑĢÐ¸Ð½ÑıÑĤÐ¾": 6739,
      "ĠÑģÑħÐµÐ¼": 6740,
      "ÑĢÑĤÑĥ": 6741,
      "ĠÐºÐ½Ð¸Ð³Ñĥ": 6742,
      "ÑİÑīÐ¸Ð¹ÑģÑı": 6743,
      "ĠÑģÑĤÐ°ÑĤÑĥÑģ": 6744,
      "ÑĥÐ»ÑĮÑĤ": 6745,
      "ÐļÐ¾ÑĢ": 6746,
      "St": 6747,
      "ÐĺÑģÑĤÐ¾Ñĩ": 6748,
      "ĠÐ¡Ð²ÐµÑĤ": 6749,
      "ĠÐºÐ¾Ð¼Ð¿ÑĮÑİÑĤÐµ": 6750,
      "ÐºÐ»Ðµ": 6751,
      "ĠÑĢÐµÐ»Ð¸Ð³Ð¸Ð¾Ð·": 6752,
      "Ð½ÑĤ": 6753,
      "ĠÐºÐ²Ð°Ð´ÑĢÐ°ÑĤ": 6754,
      "Ð²Ð°ÑİÑīÐ¸Ñħ": 6755,
      "Ð½ÐµÑĤÑģÑı": 6756,
      "ĠÐ¡ÐľÐĺ": 6757,
      "ample": 6758,
      "ĠÐ¿Ð¾Ð»ÑĥÑĩÐ°ÑĤÑĮ": 6759,
      "ĠÐ°Ð½Ð°Ð»Ð¸Ð·Ð°": 6760,
      "ĠÑģÐ¾Ð¾Ð±ÑīÐµÐ½Ð¸Ñı": 6761,
      "ĠÐ½Ð¾Ð²Ð¾ÑģÑĤÐ¸": 6762,
      "Ð¾ÑĤÐ¾Ð¹": 6763,
      "ĠÐĳÐµÐ»Ð°ÑĢÑĥ": 6764,
      "ÐŃÐº": 6765,
      "ĠÑģÐ¾Ð²ÑĢÐµÐ¼ÐµÐ½Ð½Ð¾Ð¹": 6766,
      "ĠÐ²Ð¾Ð·ÑĢÐ°ÑģÑĤ": 6767,
      "ĠÐ´Ð¸Ð·Ð°Ð¹Ð½": 6768,
      "ĠÐ¿ÑĢÐ¸Ð±Ð¾ÑĢ": 6769,
      "ĠÐ¾Ð¿ÑĤÐ¸Ð¼Ð¸": 6770,
      "Ð²ÑĪÐ¸Ð¹ÑģÑı": 6771,
      "ÑıÐ·": 6772,
      "pro": 6773,
      "ÑħÐ¾Ð¶Ð´ÐµÐ½Ð¸Ðµ": 6774,
      "ook": 6775,
      "ĠÐ³Ð¸Ð¿ÐµÑĢ": 6776,
      "ÑĪÐ°Ð½": 6777,
      "ĠÐºÐ¾Ð»Ð»Ðµ": 6778,
      "ĠÐ¸Ð½Ð´Ñĥ": 6779,
      "\")": 6780,
      "ĠÐ¿Ð¾Ð¿Ð¾Ð»": 6781,
      "ĠÑĪÐ¸ÑĢÐ¾ÐºÐ¾": 6782,
      "41": 6783,
      "ĠÑĥÐ´Ð¾": 6784,
      "ĠÐ½Ð°Ð·Ð½Ð°ÑĩÐµÐ½": 6785,
      "Ġro": 6786,
      "ÐŁÐ¾Ð¼": 6787,
      "ĠÑĢÐµÐ±ÐµÐ½Ð¾Ðº": 6788,
      "ĠÐ½Ð°ÐºÐ¾Ð½": 6789,
      "Ð±ÑĢÐ°ÑĤÑĮ": 6790,
      "ĠÐ¡Ð¾Ð±": 6791,
      "ĠAp": 6792,
      "ĠÐ¼Ð°Ð³Ð°Ð·Ð¸Ð½Ðµ": 6793,
      "',": 6794,
      "In": 6795,
      "Ð¸Ð½Ð³Ð°": 6796,
      "ĠÑĩÐ¸ÑģÐµÐ»": 6797,
      "ĠÐ¿Ð¾ÑģÑĤÑĥÐ¿Ð°": 6798,
      "ĠÐºÐ¾Ð¼Ñĥ": 6799,
      "ĠÑĢÐµÐºÐ¾Ð¼ÐµÐ½Ð´ÑĥÐµÑĤÑģÑı": 6800,
      "ĠÑħÐ¾Ð·Ñı": 6801,
      "ĠÐ¸ÑģÐ¿Ñĭ": 6802,
      "Ð·Ð¸Ð´ÐµÐ½ÑĤ": 6803,
      "ÑĢÑĭÐµ": 6804,
      "ĠÐ¿Ð¾Ð´Ð³Ð¾ÑĤÐ¾Ð²ÐºÐ¸": 6805,
      "ĠÐ¾Ð³ÑĢÐ°Ð½Ð¸ÑĩÐµÐ½": 6806,
      "ĠÑģÑĢÐµÐ´Ñĭ": 6807,
      "ĠÑĥÐ½Ð¸Ð²ÐµÑĢÑģÐ¸ÑĤÐµÑĤ": 6808,
      "ÑĪÐºÐ¾Ð¹": 6809,
      "ĠÐ¿ÑĢÐ¾Ð´Ð°Ð¶": 6810,
      "ĠÐ¿Ð¾Ð»Ð½Ð¾Ð¹": 6811,
      "ÐµÐ½ÑĮÑİ": 6812,
      "ĠÑģÐ¿ÐµÑĨÐ¸Ð°Ð»ÑĮÐ½Ð¾": 6813,
      "ĠÐĿÐµÑĤ": 6814,
      "ĠÐ¾Ð±ÐµÑģÐ¿ÐµÑĩÐ¸ÑĤÑĮ": 6815,
      "ĠÐºÐ¾ÑĢÐ¾Ð»ÐµÐ²": 6816,
      "Ð½ÑıÑİÑĤ": 6817,
      "ÐĽÐ¬": 6818,
      "Ð¼Ð¾Ð»": 6819,
      "ĠÑħÑĢÐ°Ð½ÐµÐ½Ð¸Ñı": 6820,
      "Ð²ÐµÑĢÐ°": 6821,
      "ĠÑģÐ¾Ð»Ð¸": 6822,
      "ĠÐ²Ð¾Ð¹ÑģÐº": 6823,
      "Ð´ÐµÑĢÐ°": 6824,
      "58": 6825,
      "Ġsh": 6826,
      "ÑĤÑĮÐµ": 6827,
      "ĠÑĤÑĥÐ´Ð°": 6828,
      "ÑĤÐ¸ÑĤÐµ": 6829,
      "ĠÐ²Ð¾Ð·Ð´ÑĥÑĪ": 6830,
      "ĠÐ¾Ð¿Ð¸ÑģÐ°Ð½Ð¸Ðµ": 6831,
      "Ð»ÐµÐ½Ð½Ð¾Ð³Ð¾": 6832,
      "ĠÐ¨Ð¸": 6833,
      "Ġ1991": 6834,
      "ĠÐ¾Ð±Ð»Ð¸": 6835,
      "ĠÐ¾ÑģÑĥ": 6836,
      "ĠÐ¸Ð´ÐµÐ¸": 6837,
      "Ð¡ÐŁ": 6838,
      "ĠÐ¸Ð½ÑĤÐµÐ»": 6839,
      "ome": 6840,
      "ĠÐľÐ½Ð¾Ð³Ð¸Ðµ": 6841,
      "43": 6842,
      "ÐµÑĢÑĪÐµÐ½": 6843,
      "ĠÐ¼ÐµÑħÐ°Ð½Ð¸": 6844,
      "ĠÐ¾Ð¿Ð»Ð°ÑĤÑĭ": 6845,
      "ĠÐļÑĤÐ¾": 6846,
      "ĠÐ¡Ð¾Ð³Ð»Ð°ÑģÐ½Ð¾": 6847,
      "ĠÐ¸ÑĤÐ¾Ð³": 6848,
      "ĠÐ¿ÑĢÐµÐ´Ð¿Ð¾Ñĩ": 6849,
      "ĠÐ¾ÑĤÑĨÐ°": 6850,
      "Ð¿Ð°Ð·": 6851,
      "ĠÐĶÐ¶ÐµÐ¹": 6852,
      "Ð»ÐµÑĤÐ°": 6853,
      "Ð¼ÐµÐ¹": 6854,
      "ĠÐ¼ÐµÐ´Ð¸ÑĨÐ¸": 6855,
      "Ð¶ÐµÐ½Ð¸ÐµÐ¼": 6856,
      "Ð¾Ð¶Ð¸Ð´Ð°Ð½": 6857,
      "ĠÐºÐ¾Ð¼Ð°Ð½Ð´Ð¸": 6858,
      "ĠÐ¼Ð°ÑģÐ»Ð°": 6859,
      "ÐĵÐŀ": 6860,
      "ĠÐĶÐ¼Ð¸ÑĤÑĢÐ¸Ð¹": 6861,
      "ĠÐļÑĢÐ¸": 6862,
      "ÑįÐ¼": 6863,
      "ĠÐ¿Ð¾Ð»ÑĥÑĩÐ°ÐµÑĤÑģÑı": 6864,
      "tern": 6865,
      "ĠÑĤÐºÐ°Ð½Ð¸": 6866,
      "ĠÐ¸Ð·Ð±Ð¸ÑĢÐ°": 6867,
      "Ð²Ð¾Ð¼": 6868,
      "ĠÑĩÐ»ÐµÐ½Ð¾Ð²": 6869,
      "ĠÑįÐ½ÐµÑĢÐ³ÐµÑĤÐ¸": 6870,
      "ĠÐ¶ÐµÐ»ÐµÐ·Ð½Ð¾Ð´Ð¾ÑĢÐ¾Ð¶": 6871,
      "ĠÑģÐ¿ÐµÑĨ": 6872,
      "ĠÐ»ÑİÐ´ÑĮÐ¼Ð¸": 6873,
      "Ð¡ÑĤ": 6874,
      "ĠÑĢÑĥÑģÑģÐºÐ¾Ð¼": 6875,
      "ĠÐ´Ð¸Ð°Ð¼ÐµÑĤ": 6876,
      "ĠÐ¿ÐµÑĢÐµÐ´Ð°ÑĩÐ¸": 6877,
      "ÑĤÐºÐ°": 6878,
      "ĠÑĤÐµÐ¼Ð¿ÐµÑĢÐ°ÑĤÑĥÑĢÑĭ": 6879,
      "ĠÐ¿ÑĢÐ¸Ð·": 6880,
      "ĠÐ¢ÐµÑĢ": 6881,
      "ÑģÑĤÐ¾ÐºÐµ": 6882,
      "ĠÐºÑĢÐ°Ð¹Ð½Ðµ": 6883,
      "ĠÑģÐ¾ÑĨÐ¸Ð°Ð»ÑĮÐ½Ð¾Ð¹": 6884,
      "ĠÐ²ÐµÑģÐµ": 6885,
      "ĠÐ½Ð°ÐºÐ°Ð·Ð°": 6886,
      "ĠÑĤÑĭÑģÑıÑĩÐ¸": 6887,
      "ĠÐ¾Ð±Ð¾Ð·": 6888,
      "ĠÐ¸ÑģÐ¿Ð¾Ð»Ð½Ð¸ÑĤÐµÐ»ÑĮ": 6889,
      "ÑĪÐ»Ð¾": 6890,
      "ĠÐĵÐµÐ¾ÑĢ": 6891,
      "ĠÑĥÑĤÐ²ÐµÑĢÐ¶Ð´": 6892,
      "ÑĢÐµÐ´Ð°": 6893,
      "edi": 6894,
      "Ġnot": 6895,
      "ĠÐ½ÑĭÐ½ÐµÑĪ": 6896,
      "ĠÐŁÐ¾ÑģÐ»ÐµÐ´": 6897,
      "ĠÐºÐ°Ð¿": 6898,
      "ÑģÑĤÑĢÐµÐµ": 6899,
      "ĠÐ½Ð°ÑĥÐºÐ¸": 6900,
      "ÐĽÐĲ": 6901,
      "ĠÐ¿Ð¾Ð½Ð°": 6902,
      "ĠBl": 6903,
      "Ð¶Ð¸Ð½": 6904,
      "ÑĩÐ°ÑģÑĤÐ¸": 6905,
      "ĠÐ¸Ð³ÑĢÐ¾ÐºÐ¾Ð²": 6906,
      "ÑģÐµÐ¹": 6907,
      "ĠÐ½ÐµÐ½Ð°": 6908,
      "ĠÐ½ÐµÐ´Ð²Ð¸Ð¶Ð¸Ð¼Ð¾ÑģÑĤÐ¸": 6909,
      "Ð¾ÑģÑĭ": 6910,
      "ĠÐ¿ÑĢÐ¾Ð³ÑĢÐ°Ð¼Ð¼Ðµ": 6911,
      "Ð±ÐµÑĤ": 6912,
      "ĠÐĴÐµÐ»Ð¸ÐºÐ¾Ð¹": 6913,
      "ĠÐ³ÑĢÑĥÐ¿Ð¿Ðµ": 6914,
      "ĠÑĤÐµÐ°ÑĤÑĢÐ°": 6915,
      "ĠÐ¼Ð½ÐµÐ½Ð¸Ðµ": 6916,
      "ĠÑĢÐ¾Ð´ÑģÑĤÐ²ÐµÐ½": 6917,
      "ÑĢÐ¾Ð²Ð°Ð½Ð½Ð¾Ð¹": 6918,
      "Ð´ÐµÐºÑģ": 6919,
      "ÑħÐ¸Ð¸": 6920,
      "ĠÐºÐ¾Ð¶Ñĥ": 6921,
      "Ð»ÐµÑĢÐ°": 6922,
      "ÑĢÑĭÑħ": 6923,
      "....": 6924,
      "ÐºÐ¾Ð²Ð¾Ð³Ð¾": 6925,
      "ĠÐ»Ð¸Ð½ÐµÐ¹": 6926,
      "ĠÑģÐµÐ¼ÑĮÑı": 6927,
      "ĠÑģÐ¿ÐµÑĨÐ¸": 6928,
      "ĠÐ¿ÐµÑĢÐµÐ¼ÐµÐ½": 6929,
      "ĠÐ±Ð¸Ð½Ð°ÑĢÐ½ÑĭÑħ": 6930,
      "Ð¿ÑĢÐ¾ÑĩÐµÐ¼": 6931,
      "ĠÐ¸Ð·Ð¼ÐµÐ½ÐµÐ½Ð¸Ð¹": 6932,
      "ĠÐ¿ÑĢÐ°Ð²Ð¸Ð»": 6933,
      "2016": 6934,
      "ÑģÑĤÐ¸Ð»": 6935,
      "ĠÑĤÐ°ÐºÑĥÑİ": 6936,
      "ĠÂ": 6937,
      "ĠÑĪÐ°Ñħ": 6938,
      "ĠÐºÐ¾Ð¿": 6939,
      "ĠÑĦÑĢÑĥ": 6940,
      "ĠÐºÐ¾ÑģÐ¼Ð¸": 6941,
      "ĠÐ¾Ð±ÑĥÑĩÐµÐ½Ð¸Ðµ": 6942,
      "Ð¸ÑĤÐµÐ»ÑıÐ¼Ð¸": 6943,
      "ĠÑģÑĥÐ¼Ð¼Ñĭ": 6944,
      "ĠÐ¸Ð½Ð°ÑĩÐµ": 6945,
      "ĠÑģÐ¾Ð¶Ð°Ð»ÐµÐ½Ð¸Ñİ": 6946,
      "ĠÐ´ÐµÐ²ÑĥÑĪÐºÐ¸": 6947,
      "Ð¿Ð¾Ð¼Ð½Ð¸Ð¼": 6948,
      "ĠÑıÐ¹": 6949,
      "ĠÐ·Ð´Ð¾ÑĢÐ¾Ð²ÑĮÐµ": 6950,
      "ĠÐ¼Ð¸Ð½Ð¸Ð¼ÑĥÐ¼": 6951,
      "Ð¾Ð±Ð¾ÑĢÐ¾ÑĤ": 6952,
      "ĠÐ¿ÐµÑĢÐµÐ³Ð¾Ð²": 6953,
      "ĠÐĴÐµÐ½": 6954,
      "ĠÐ·Ð²Ð¾Ð½": 6955,
      "ĠÐºÐ¾Ð½ÑĦÐ¸": 6956,
      "Ð¸Ð·Ð½ÐµÑģ": 6957,
      "ĠÐ½Ð°Ð½ÐµÑģ": 6958,
      "ĠÐ¼ÐµÑĢÑĭ": 6959,
      "Â»:": 6960,
      "ĠÑĦÐ°ÑĢ": 6961,
      "ĠÐ¢Ñĭ": 6962,
      "ÑģÑģÑĥ": 6963,
      "ĠÐ¤Ð°": 6964,
      "ĠÐ±ÑĥÐ´ÐµÑĤÐµ": 6965,
      "ÐŃÑĤÐ¾ÑĤ": 6966,
      "ĠÐ²ÑĭÐ¸Ð³ÑĢÐ°": 6967,
      "ÑģÐ½ÑĭÐµ": 6968,
      "ĠÐ³Ð¾Ð»Ð¾Ð²Ñĥ": 6969,
      "ĠÑĨÐµÐ»ÐµÐ¹": 6970,
      "Ð³ÑĢÐ¸": 6971,
      "Ð»Ð¾Ð³Ð°": 6972,
      "ĠÐ±Ð»Ð¾ÐºÐ¸": 6973,
      "ĠÐ°Ð²Ð°": 6974,
      "ĠÐ³Ð¸Ð¿": 6975,
      "ĠÐºÐ¾ÑĦÐµ": 6976,
      "ĠÐĺÐ½ÑĤÐµÑĢÐ½ÐµÑĤ": 6977,
      "Ð¸Ð±Ð¾Ð»ÑĮ": 6978,
      "Ð½Ð¸Ð²ÐµÑĢ": 6979,
      "ĠÐļÐ°Ð½Ð°": 6980,
      "ange": 6981,
      "ĠÐºÐ¾Ð½ÐºÑĥÑĢÐµÐ½": 6982,
      "72": 6983,
      "ĠÑĥÑĩÐµÑĤÐ¾Ð¼": 6984,
      "ical": 6985,
      "Ġ1999": 6986,
      "ĠÑħÐ¾ÑĩÐµÑĤÑģÑı": 6987,
      "ĠÐ¿ÑĢÐ¸Ð½": 6988,
      "Ð°Ð»ÑĮÐ½ÑĭÐ¼": 6989,
      "ĠAr": 6990,
      "ĠÑģÑĦÐ¾ÑĢÐ¼Ð¸": 6991,
      "ĠÑĪÐ¸ÑĢÐ¾ÐºÐ¸": 6992,
      "ĠÑģÑĭÐ½Ð°": 6993,
      "ogle": 6994,
      "ĠÐ·Ð°Ð²ÐµÐ´": 6995,
      "ĠÑĢÑıÐ´Ð°": 6996,
      "ĠÐ±ÐµÑĢ": 6997,
      "ÑĢÑĥÐ³Ð°": 6998,
      "ĠÐ¾ÑĨÐµÐ½ÐºÐ¸": 6999,
      "Ð¸Ð·Ð¾Ð½": 7000,
      "ĠÐļÐ°Ð¶Ð´ÑĭÐ¹": 7001,
      "ÑīÐ¸Ð½Ð°": 7002,
      "ÑĦÐ¸Ð½Ð°": 7003,
      "ĠÑĥÐ¿ÑĢÐ°Ð¶": 7004,
      "Ð³Ð¸Ð½": 7005,
      "ÐºÐ¾Ð½ÑģÑĤÑĢÑĥ": 7006,
      "ĠÐ¿ÑĢÐ¾Ð¼ÑĭÑĪÐ»ÐµÐ½Ð½Ð¾ÑģÑĤÐ¸": 7007,
      "ĠÐ¿ÐµÑĤ": 7008,
      "ĠÐ¾ÑĤÐ´ÐµÐ»ÑĮÐ½ÑĭÑħ": 7009,
      "ĠÐĿÐ¾ÑĢ": 7010,
      "ĠÐ½Ð°Ð»Ð¾Ð³": 7011,
      "ĠÐ¿ÑĢÐ¸Ð²": 7012,
      "Ð»Ð¾ÑĢÐ¸": 7013,
      "ÑĤÐµÑħÐ½Ð¸": 7014,
      "ĠÑĤÐµÑĢÑı": 7015,
      "ĠÑĢÐµÑĪÐµÐ½Ð¸Ð¹": 7016,
      "ĠÐ¾ÐºÐµ": 7017,
      "Ð²Ð¾ÐºÐ°": 7018,
      "ĠÐľÐ°Ð½": 7019,
      "ĠÑģÐµÑĢÐµÐ´Ð¸Ð½Ðµ": 7020,
      "ĠÐľÐ½Ðµ": 7021,
      "ĠÐ·Ð°ÐºÐ°Ð·Ð°ÑĤÑĮ": 7022,
      "ix": 7023,
      "ĠÑĢÐµÐ±ÑĳÐ½": 7024,
      "ĠÐ¾ÑĤÐ²ÐµÑĤÑģÑĤÐ²ÐµÐ½Ð½Ð¾ÑģÑĤÐ¸": 7025,
      "Ð¾Ð²Ð°ÑĤÑĮÑģÑı": 7026,
      "ĠÐ»Ð¸ÑĤ": 7027,
      "ÐłÐ°Ñģ": 7028,
      "ĠÐ¾ÑĦÐ¾ÑĢÐ¼Ð¸": 7029,
      "ĠÐ¸Ð·Ð±ÐµÐ¶Ð°ÑĤÑĮ": 7030,
      "ĠÐ²ÑĭÑĪÐµÐ»": 7031,
      "ĠÐĿÐµÐºÐ¾ÑĤÐ¾ÑĢÑĭÐµ": 7032,
      "ĠÐ¡Ð²ÑıÑĤ": 7033,
      "ĠÑģÑĤÑĥ": 7034,
      "ica": 7035,
      "ĠÐ¦ÐµÑĢ": 7036,
      "ÑĥÑĩÐ¸ÑĤÑĮ": 7037,
      "ÑĢÐ°Ð±": 7038,
      "Ð¿Ð¸ÑĪÐ¸ÑĤÐµ": 7039,
      "Ð²Ð¾ÑĢÐ°": 7040,
      "Ġ32": 7041,
      "ĠÑģÐ´ÐµÐ»Ð°Ð»": 7042,
      "ĠÐ´ÑĢÑĥÐ·ÐµÐ¹": 7043,
      "ÐµÐ½Ñı": 7044,
      "ĠÑĢÐ°ÑģÑģÑĩÐ¸ÑĤÑĭ": 7045,
      "www": 7046,
      "ĠÐ·Ð°ÑģÐ»Ñĥ": 7047,
      "ĠÐ¿ÑĢÐ¾Ð¹ÑĤÐ¸": 7048,
      "].": 7049,
      "ĠÐ·Ð°ÐºÐ°": 7050,
      "ĠÐĳÐ¾Ð»": 7051,
      "ÑĮÐ¼Ð¸": 7052,
      "Ð¾Ð¶Ð´ÐµÐ½Ð¸Ð¸": 7053,
      "ĠÐ¾Ð±ÐµÐ·": 7054,
      "ĠÐ¾Ð±ÑīÐµÑģÑĤÐ²": 7055,
      "ÐĲÐĹ": 7056,
      "ĠÐļÐŁ": 7057,
      "ĠÐ¾ÑĤÐ»Ð¸ÑĩÐ½Ð¾": 7058,
      "ĠÐ´Ñĭ": 7059,
      "ĠÐ²Ð¾ÑģÐº": 7060,
      "ĠÐ·Ð°ÐºÐ¾Ð½Ð°": 7061,
      "ĠÐºÑĢÐµÐ¼": 7062,
      "Ġad": 7063,
      "Ð¾Ð²Ð°Ð½Ð½ÑĭÑħ": 7064,
      "Ð¿Ð¸Ð¸": 7065,
      "ĠÐ·ÐµÐ¼Ð»Ðµ": 7066,
      "enc": 7067,
      "ĠÑĢÐ°ÑģÑĤÐµÐ½Ð¸Ð¹": 7068,
      ".),": 7069,
      "ĠÑģÑĢÐµÐ´Ð½ÐµÐ¼": 7070,
      "ÐĵÐ£": 7071,
      "ĠÐ²ÑĭÐ·ÑĭÐ²Ð°ÐµÑĤ": 7072,
      "ĠÐºÐ¾Ð½ÑĨÐµÑĢ": 7073,
      "ĠÐ¾ÑģÑĥÑīÐµÑģÑĤÐ²Ð»Ñı": 7074,
      "ĠÐºÐ¾Ð¼Ð¿Ð°Ð½Ð¸ÐµÐ¹": 7075,
      "ĠÐĶÐ°Ð¶Ðµ": 7076,
      "Ġ150": 7077,
      "Ð¾Ð·Ð´Ð°": 7078,
      "ĠÐ¿ÑĢÐ¸Ð»Ð¾Ð¶ÐµÐ½Ð¸Ñı": 7079,
      "ĠÐ¼Ð°Ð»Ñĭ": 7080,
      "ĠÐľÐ¾ÑģÐºÐ¾Ð²ÑģÐºÐ¾Ð¹": 7081,
      "ĠÑĪÐºÐ¾Ð»Ð°": 7082,
      "ÑīÐµÐ½Ð¸Ñİ": 7083,
      "ĠÐ³Ð¾Ð²Ð¾ÑĢÑı": 7084,
      "ÑįÐ»ÑĮ": 7085,
      "ĠÑĨÐµÐ»ÑıÑħ": 7086,
      "ĠÐ¿Ð¾Ð»Ð¾Ð¶ÐµÐ½Ð¸Ñı": 7087,
      "Ð»Ð¾ÑīÐ°": 7088,
      "ĠÐ²ÑħÐ¾Ð´ÑıÑĤ": 7089,
      "ÑģÑĤÑĭÐµ": 7090,
      "ÑĦÐµÑĢÐ°": 7091,
      "ÑĦÑĥ": 7092,
      "ick": 7093,
      "ÐĹÐ½Ð°": 7094,
      "ĠÐºÐ°ÐºÐ¾Ðµ": 7095,
      "ĠÑģÐ²ÑıÑīÐµÐ½": 7096,
      "ĠÐ·Ð°ÐºÐ°Ð½": 7097,
      "ĠÐ¡Ð¿Ðµ": 7098,
      "ĠÑģÐºÐ¾ÑĢÐ¾ÑģÑĤÐ¸": 7099,
      "ĠÐ¼Ð¾Ðµ": 7100,
      "ĠÐ¾ÑĤÐ½Ð¾ÑĪÐµÐ½Ð¸Ðµ": 7101,
      "Ð³Ð¾Ð½Ð°": 7102,
      "ĠÐ¿Ð¸ÑĪÐµÑĤ": 7103,
      "ĠÐĴÑĤÐ¾ÑĢÐ¾Ð¹": 7104,
      "ÐºÐ½Ð¾Ð²": 7105,
      "ĠÐ»Ð¾Ð²": 7106,
      "ĠÐ½ÐµÐ·Ð½Ð°": 7107,
      "ĠÐ²ÑĭÑħÐ¾Ð´Ð°": 7108,
      "ĠÐ³ÑĢÐ¾Ð¼": 7109,
      "ĠÐ³Ð³": 7110,
      "Ð´Ð¾Ð¹": 7111,
      "ĠÐľÐ¸ÑħÐ°Ð¹": 7112,
      "ĠÐ²Ð¸Ð´Ñĥ": 7113,
      "ĠÑģÐ¿Ð¾ÑģÐ¾Ð±Ð¾Ð¼": 7114,
      "ĠÐ¿ÑĢÐ¾Ð²Ð¾Ð´Ð¸ÑĤÑģÑı": 7115,
      "ĠÐŀÐ¿": 7116,
      "ĠÐ³Ð¾ÑĢÐ¾Ð´ÑģÐºÐ¾Ð¹": 7117,
      "ĠÐ±Ð°Ð»Ð°Ð½": 7118,
      "Ð´Ð¸Ð»Ð¸": 7119,
      "ĠÐ³ÑĥÐ±ÐµÑĢÐ½Ð°": 7120,
      "ĠÐ´Ð°Ð»ÑĮÐ½ÐµÐ¹ÑĪÐµÐ¼": 7121,
      "Ð½Ð¾Ð²Ð¸Ð´": 7122,
      "ĠÐ²Ð¾ÑģÐ¿Ð°": 7123,
      "ĠÐĺÐ³Ð¾ÑĢ": 7124,
      "ĠÐ²Ð¾ÐµÐ½Ð½Ð¾": 7125,
      "ĠÑģÐµÑĢÐ´ÑĨÐµ": 7126,
      "ĠAl": 7127,
      "Ð¶Ð°ÑİÑĤ": 7128,
      "ĠÑĤÐµÐ»ÐµÑĦÐ¾Ð½Ñĥ": 7129,
      "ÑĤÐ°ÑĨÐ¸Ñı": 7130,
      "Ð¾Ð¿Ð¾Ð»ÑĮ": 7131,
      "ĠÐ²ÑĭÐ³Ð»ÑıÐ´Ð¸ÑĤ": 7132,
      "ÐĿÐĲ": 7133,
      "ĠÐ¿ÑĢÐ¾Ð³ÑĢÐ°Ð¼Ð¼Ð¸": 7134,
      "ĠÐ»Ð°Ð±Ð¾ÑĢÐ°": 7135,
      "ĠÐ³Ð¾Ð²Ð¾ÑĢÐ¸ÑĤÑģÑı": 7136,
      "ĠÐ¿ÑĢÐ¾ÑĨÐµÐ½ÑĤÐ¾Ð²": 7137,
      "ĠÐ½Ð°ÑģÑĤÐ¾Ð»ÑĮÐºÐ¾": 7138,
      "org": 7139,
      "Ð²Ð»Ð°": 7140,
      "mail": 7141,
      "ĠÐ½ÐµÐ´Ð°Ð²Ð½Ð¾": 7142,
      "con": 7143,
      "ĠÐµÐ·": 7144,
      "ĠÑĢÑĥÑģÑģÐºÐ¾Ð³Ð¾": 7145,
      "ĠÐĵÑĢÐ°": 7146,
      "ĠÑĥÑģÐ¸Ð»Ð¸": 7147,
      "ĠâĢŀ": 7148,
      "ĠÑĢÐ°Ð·Ð¼ÐµÑĢÐµ": 7149,
      "Ð¾Ð»Ð¾Ð³Ð¸ÑĩÐµÑģÐºÐ¸Ðµ": 7150,
      "ĠÐ¿Ð¾ÑĤÐ¾Ð»": 7151,
      "ĠÐ¿ÑĢÐµÐ¿Ð¾Ð´Ð°Ð²Ð°": 7152,
      "ĠÐ¼ÐµÐ½Ñİ": 7153,
      "ĠÐĴÐ¼Ðµ": 7154,
      "ĠÐ·Ð°Ð²Ð¾Ð´Ð°": 7155,
      "Ð´Ð²Ð¸": 7156,
      "ĠÐ±ÑĥÑĢ": 7157,
      "ÐŃÐ¡": 7158,
      "Ð²ÐºÐ¸": 7159,
      "ĠÐĳÐ¾Ð»ÐµÐµ": 7160,
      "ĠÐ´Ð¾ÑĩÑĮ": 7161,
      "ÑĢÐ¸Ñħ": 7162,
      "ĠÐ¡Ð¸Ð¼": 7163,
      "ĠÐ¸Ð½Ð¾ÑģÑĤÑĢÐ°Ð½Ð½ÑĭÑħ": 7164,
      "Ð¾ÑģÐµ": 7165,
      "Ð¾Ð±ÑĢÐ°ÑĤÑĮ": 7166,
      "ĠÐ¸Ð·Ð´ÐµÐ»Ð¸Ð¹": 7167,
      "IN": 7168,
      "ĠÐ¸Ð½ÑĤÐµÐ½": 7169,
      "ĠÑĢÐ°Ð·ÑĢÐ°Ð±Ð¾ÑĤÐºÐ¸": 7170,
      "ĠÐ½Ð°ÐºÐ¾Ð¿": 7171,
      "ĠWhat": 7172,
      "Ð³Ð°Ñħ": 7173,
      "Ð´Ð¸ÐºÐ°": 7174,
      "ĠÑĢÐ°Ð·Ð²Ð¸ÑĤÐ¸Ñİ": 7175,
      "ĠÐ¾Ð´Ð½": 7176,
      "ĠÐļÐ»Ð¸": 7177,
      "ĠÐ¼Ð°Ð¹": 7178,
      "Ð¿ÑĢÐµÐ´": 7179,
      "ÐºÑĤÐ¾ÑĢÐ¾Ð¼": 7180,
      "Ð¾ÐµÐ²": 7181,
      "ĠÐ¼ÑĥÐ·ÐµÐ¹": 7182,
      "ĠÐ±Ð¾Ð»ÑĮÑĪÐ¾Ð³Ð¾": 7183,
      "ĠÐ¿ÑĢÐ¾ÑĦÐ¸Ð»Ð°ÐºÑĤÐ¸": 7184,
      "ĠÑĦÑĥÑĤÐ±Ð¾Ð»Ð¸": 7185,
      "ĠÐ¼Ð¾Ð»Ð¾Ð´Ðµ": 7186,
      "ÑīÐ¸ÐºÐ¸": 7187,
      "ĠÐ¼ÐµÑĤÐ¾Ð´Ð°": 7188,
      "Ð»Ð»Ð°": 7189,
      "ĠÐ°ÐºÐ°Ð´ÐµÐ¼Ð¸Ð¸": 7190,
      "Ġyour": 7191,
      "ĠÐ´ÐµÐ²ÑĥÑĪÐºÐ°": 7192,
      "ĠÐ¾Ð±ÑĬÑıÐ²": 7193,
      "ĠÐ¿ÑĢÐ¸Ð½ÑıÐ»": 7194,
      "ĠÐ¼ÑĥÐ·ÑĭÐºÐ°Ð½": 7195,
      "ĠÐ·Ð°ÑģÐµÐ´Ð°": 7196,
      "ĠÐ¿ÑĢÐµÐ´ÑĥÑģÐ¼Ð¾ÑĤÑĢÐµÐ½": 7197,
      "ĠÐ½Ð°Ð¿Ð¸ÑģÐ°Ð»": 7198,
      "ĠÑĢÐµÐ·ÑĥÐ»ÑĮÑĤÐ°ÑĤÐ¾Ð²": 7199,
      "ĠÐ¿Ð¾ÐºÑĥÐ¿ÐºÐ¸": 7200,
      "ĠÐ¼Ð¾Ð´ÐµÐ»ÐµÐ¹": 7201,
      "ĠPr": 7202,
      "ĠÐ»ÑİÐ±ÑĭÐµ": 7203,
      "Ð¼Ð¸ÑĤ": 7204,
      "Ð¾Ð»Ð¸ÑĩÐµÑģÑĤÐ²Ð¾": 7205,
      "Ð¸ÐºÐ°": 7206,
      "79": 7207,
      "ĠÐ¿ÑĢÐµÐ¼Ð¸": 7208,
      "ÐłÑĥÑģ": 7209,
      "ĠÐ¿Ð¾ÑĤÐµÐ½ÑĨÐ¸Ð°Ð»ÑĮ": 7210,
      "ĠÐ¼Ð¾ÐµÐ¹": 7211,
      "Ð³Ð¾ÑĤÐ°": 7212,
      "ĠÑĤÐ¸Ð¿Ð¾Ð²": 7213,
      "ĠÐ´ÑĭÑħÐ°": 7214,
      "ĠÑĢÑĥÑģÑģÐºÐ¾Ð¹": 7215,
      "Ġ1998": 7216,
      "ĠÐ½ÐµÐ¾Ð´": 7217,
      "Ð¡ÑĤÐ¾": 7218,
      "ÑģÑĤÐ¸ÐºÐ¸": 7219,
      "Ð¼Ð¾ÑĤÑĢÐ°": 7220,
      "ĠÐ±Ð»Ðµ": 7221,
      "ĠÐ½ÐµÐ²": 7222,
      "ĠÐ¿Ð¾ÑıÐ²Ð¸Ð»Ð¸ÑģÑĮ": 7223,
      "Ð¾Ð¼ÐµÑĢ": 7224,
      "ĠÐĴÐ°ÑĢ": 7225,
      "85": 7226,
      "ĠÐ¸Ð¼Ð¼Ñĥ": 7227,
      "ĠÐłÐ¾ÑģÑģÐ¸Ð¹": 7228,
      "ÑģÐ½ÑĭÑħ": 7229,
      "ĠÐ»ÑĥÑĩÑĪÐ¸Ðµ": 7230,
      "ĠÐ´Ð¸ÑģÐ¿": 7231,
      "ĠÐºÐ¾Ð¾ÑĢÐ´Ð¸Ð½Ð°": 7232,
      "ĠÐ³Ð°Ð·Ð°": 7233,
      "ĠÐ¶Ð°": 7234,
      "ĠÐ¶ÐµÐ»Ðµ": 7235,
      "ÑģÑĤÐ½ÑĭÐµ": 7236,
      "Ð¶Ð°Ð»Ð¸": 7237,
      "Ð¡Ðļ": 7238,
      "ĠÐ½Ð¾Ð²ÑĭÐ¼": 7239,
      "Ð»ÑĮÐ½Ð¾ÑģÑĤÑĮ": 7240,
      "ĠÐ²ÐµÐ´Ð¾Ð¼": 7241,
      "ĠÐ´ÑĢÐµ": 7242,
      "ÐµÑĢÐµÐ¶": 7243,
      "ĠÐ¿ÑĢÐ¸Ð¼ÐµÐ½ÐµÐ½Ð¸Ðµ": 7244,
      "ĠÐļÐ¾Ð½ÐµÑĩÐ½Ð¾": 7245,
      "ĠÐºÐ½Ð¸Ð³Ðµ": 7246,
      "ĠÐºÐ¾ÑĢÐ¿ÑĥÑģ": 7247,
      "ĠÐ¿ÑĢÐ¾Ð¿Ð°": 7248,
      "ĠÑĢÐ°Ð·ÑĢÐ°Ð±Ð¾ÑĤÐ°Ð½": 7249,
      "ree": 7250,
      "Ð´ÑĥÐ¼Ñĭ": 7251,
      "ÐµÐ½ÑģÐ°": 7252,
      "ĠÐ¿Ð»Ð¾Ð´": 7253,
      "Ġdo": 7254,
      "Ð³Ð¾ÑĢÐ°": 7255,
      "ĠÐºÐ°ÑĢÑĤÑĥ": 7256,
      "ÑģÑĤÐºÐ¸": 7257,
      "ÑĩÐºÐµ": 7258,
      "ĠÑģÐºÑĥ": 7259,
      "Ġse": 7260,
      "ĠÐ²ÑĭÐ¿": 7261,
      "ÑģÑİ": 7262,
      "Ð²ÐµÑĨ": 7263,
      "ÑĦÐ¸Ð¸": 7264,
      "ĠÐ´Ð¾Ð¿Ð¾Ð»Ð½Ð¸ÑĤÐµÐ»ÑĮÐ½ÑĭÐµ": 7265,
      "(\"": 7266,
      "ĠÑģÑĤÐ¾Ð¹": 7267,
      "Ð½Ð¸Ð»Ð°": 7268,
      "}\\": 7269,
      "Ð¾ÐºÑĢÐ°ÑĤÐ¸": 7270,
      "ĠÐĲÐº": 7271,
      "ĠÑĤÐ¸ÑĤÑĥ": 7272,
      "ĠÐ¼Ð°ÑĤÑĮ": 7273,
      "ĠÐŀÐ´Ð¸Ð½": 7274,
      "ĠÐŁÐ¾Ð¿": 7275,
      "ÐĲÐ´": 7276,
      "ÑĮÐºÐ¾Ð²": 7277,
      "ĠÐ¿Ð¾Ð´ÑĥÐ¼Ð°": 7278,
      "ĠÐĺÐ·ÑĢÐ°": 7279,
      "Ð²Ð°ÑİÑīÐ¸Ðµ": 7280,
      "Ð³Ð¾Ð»": 7281,
      "ĠÐ²ÑĢÐµÐ¼ÐµÐ½Ð°": 7282,
      "ĠÑĢÐ¾Ð´Ð¸Ð»ÑģÑı": 7283,
      "ĠÐ»ÑİÐ±Ð¾Ðµ": 7284,
      "ions": 7285,
      "ĠÐ¼ÑĥÐ¶ÑĩÐ¸Ð½Ñĭ": 7286,
      "ĠÐ´Ð°Ð²Ð°Ð¹ÑĤÐµ": 7287,
      "Ð¸Ð¼Ð¸": 7288,
      "ĠÐ²Ð¸Ð´Ð¸": 7289,
      "ĠÐ½Ð°ÐºÐ°": 7290,
      "old": 7291,
      "ĠÐ¿ÐµÑĢÑģÐ¿ÐµÐºÑĤÐ¸Ð²": 7292,
      "line": 7293,
      "ÐºÑĥÑĤ": 7294,
      "ÐµÑħÐ°ÑĤÑĮ": 7295,
      "ĠÑĤÐ°Ð»Ð°Ð½": 7296,
      "ĠÐ·Ð°ÑıÐ²Ð»ÐµÐ½Ð¸Ðµ": 7297,
      "Ð»Ð°Ð²Ð¸": 7298,
      "ĠÐ·Ð°Ð½ÑıÑĤÐ¸Ñı": 7299,
      "Ð¿Ð¾Ð·Ð¸": 7300,
      "Ð´Ð¸Ð½Ð¾": 7301,
      "ÑĩÐºÐ¾Ð²": 7302,
      "Ð¸ÑĤÐµÐ»ÐµÐ¼": 7303,
      "Ð·Ð°ÑĨÐ¸Ñİ": 7304,
      "ĠÐºÐ¾Ð¼Ð¼ÑĥÐ½Ð¸ÐºÐ°": 7305,
      "ĠÐ½ÑĢÐ°Ð²Ð¸ÑĤÑģÑı": 7306,
      "ÑģÑĤÐ²Ð¸Ð¹": 7307,
      "ĠÑĤÑĢÐ¾": 7308,
      "ĠÑģÑĤÐ¾ÑĢÐ¾Ð½Ðµ": 7309,
      "ĠÐ¸ÑģÐºÐ°": 7310,
      "Ð¾Ð¿ÐµÑĢÐ°": 7311,
      "ÑĩÐ¸Ñħ": 7312,
      "ĠÑįÑĦÐ¸": 7313,
      "ĠDe": 7314,
      "Ð½Ð½ÑĭÑħ": 7315,
      "ĠÑģÑĤÑĢÐ¾Ðº": 7316,
      "ĠÐ¼Ð»Ð°Ð´": 7317,
      "yst": 7318,
      "ÑģÑĤÐ¾ÑĢÐ¾Ð½": 7319,
      "ĠÐ¿ÑĥÑĤ": 7320,
      "cess": 7321,
      "Ð°ÐºÐ¾Ð¼": 7322,
      "ĠÑĥÐ½Ð¸Ð²ÐµÑĢÑģÐ°": 7323,
      "ÑĤÐ°ÑĢÐ¸": 7324,
      "ĠÐĽÐ¾Ð½Ð´": 7325,
      "ĠÐ²ÑģÑĤÑĢÐµÑĩÐ¸": 7326,
      "ĠÑģÐ¸ÑĤÑĥÐ°ÑĨÐ¸Ñİ": 7327,
      "ĠÐ¸Ð·Ð±ÑĢÐ°Ð½": 7328,
      "und": 7329,
      "ÑģÑĤÐ¾Ð»": 7330,
      "ÑģÑĤÑĥÐ¿Ð»ÐµÐ½Ð¸Ðµ": 7331,
      "ĠÑģÐµÑĤÑĮ": 7332,
      "ĠÐłÐ¡": 7333,
      "ĠÑħÐ¾ÑĤÐµÐ»": 7334,
      "ĠÐ¾ÑģÐ½Ð¾Ð²Ð°Ð½Ð¸Ñı": 7335,
      "Ġ1992": 7336,
      "ĠÐ¿ÑĢÐ¾ÑģÑĤÐ¾Ð¹": 7337,
      "Ð»Ð¸Ñİ": 7338,
      "ĠÐ±Ð¾Ð»Ð¸": 7339,
      "ĠÑĪÐµÑģÑĤÐ¸": 7340,
      "ĠÐºÐ¾ÑįÑĦÑĦÐ¸ÑĨÐ¸": 7341,
      "Ð¶ÐºÐ¸": 7342,
      "ĠÐ¿Ð»Ð¸": 7343,
      "ĠÐ¿ÑĢÐ¾Ð´Ð°Ð¶Ð¸": 7344,
      "ÑĢÑĥÑı": 7345,
      "ĠÐ¿Ð¾ÑıÐ²Ð»ÑıÐµÑĤÑģÑı": 7346,
      "ĠÐ½ÐµÑĢÐ²": 7347,
      "Ð±ÑĭÑĩÐ½Ð¾": 7348,
      "ĠÐ¾ÑģÑĤÐ°Ð²Ð»Ñı": 7349,
      "ĠÑĩÑĳÑĢ": 7350,
      "dit": 7351,
      "ĠÑģÐ°ÑħÐ°ÑĢ": 7352,
      "ĠÐ·Ð°ÑĢÑĥÐ±Ðµ": 7353,
      "ĠÐ³Ð»Ð°Ð²Ñĭ": 7354,
      "ĠÐ±ÑĭÑģÑĤÑĢÐµÐµ": 7355,
      "ĠÑĤÐ¾ÑĢÐ³Ð¾Ð²Ð»Ð¸": 7356,
      "ĠÐ¾Ð´ÐµÐ¶Ð´Ñĭ": 7357,
      "ĠÐļÐ°Ð¼": 7358,
      "ĠÐłÐ¸Ð¼": 7359,
      "ĠÐ¸ÑģÐ¿ÑĭÑĤÑĭ": 7360,
      "Ð»ÐµÐ½Ð½Ð°Ñı": 7361,
      "ĠÐ¾ÑĩÐµÐ²Ð¸Ð´": 7362,
      "ĠÐ¾Ð±Ñģ": 7363,
      "ĠÐ¿Ð¾Ð´ÐµÐ»Ð¸": 7364,
      "ĠÐ¸Ð·Ð²ÐµÑģÑĤÐ½ÑĭÑħ": 7365,
      "Ð¾Ð²Ð°Ð½Ð¸ÐµÐ¼": 7366,
      "Ð¾Ð²Ð°Ð½Ð½ÑĭÐµ": 7367,
      "ĠÑģÐµÐ³Ð¾Ð´Ð½ÑıÑĪÐ½Ð¸Ð¹": 7368,
      "ĠÐ¿Ð¾Ð»Ð½ÑĭÐ¹": 7369,
      "Ġ1980": 7370,
      "ĠÐŁÐµÑĤÐµÑĢÐ±ÑĥÑĢ": 7371,
      "ĠÐ½Ð°ÑģÑĭ": 7372,
      "ÑĢÐ¾Ð²Ð°Ð½Ð½Ð¾Ð³Ð¾": 7373,
      "ĠÑĢÑĥÐºÐ¾Ð²Ð¾Ð´ÑģÑĤÐ²Ð¾Ð¼": 7374,
      "erv": 7375,
      "ÑĤÐ½ÑĭÐ¼": 7376,
      "ĠÐ¿ÐµÑĢÐ²Ð¾Ð½Ð°ÑĩÐ°": 7377,
      "ĠÐ¸Ð½Ð½Ð¾Ð²Ð°": 7378,
      "Ð¾ÑģÐ»Ð¾Ð²": 7379,
      "ĠÐ´ÐµÑĤÐ°Ð»Ð¸": 7380,
      "ĠÐ¿ÑĢÐ¸Ð²Ðµ": 7381,
      "ĠÑĤÐµÐºÑģÑĤÐ°": 7382,
      "ĠÑģÐ¿ÐµÐºÑĤ": 7383,
      "Ð¼ÑıÐ½": 7384,
      "Ð¶Ð¸ÑģÑģ": 7385,
      "ĠÐ¿Ð¸ÑģÐ°Ð»": 7386,
      "ÑĩÑĮÑİ": 7387,
      "ÐĽÐ°": 7388,
      "ĠÐ¼Ð¸ÑĢÑĥ": 7389,
      "Ð¡ÐµÑĢ": 7390,
      "Ð»Ð°Ð½Ð´Ð¸Ð¸": 7391,
      "ĠÐ¿ÑĢÐ¸Ð³Ð¾ÑĤÐ¾Ð²Ð»ÐµÐ½Ð¸Ñı": 7392,
      "ÑĢÐ¾Ð´Ð¾Ð»": 7393,
      "ĠÐ½Ð¾Ð²Ð¾": 7394,
      "ĠÐ±ÑĥÐ´ÑĥÑīÐµÐ¼": 7395,
      "ÐŀÐ¿Ð¸ÑģÐ°Ð½Ð¸Ðµ": 7396,
      "ĠÐ²Ð¸ÑĢÑĤÑĥ": 7397,
      "ĠÐ·Ð°Ð²ÑĤÑĢÐ°": 7398,
      "ÑĨÐ¸ÑıÐ¼": 7399,
      "97": 7400,
      "ĠÐ¾ÑĤÐ´ÑĭÑħ": 7401,
      "ĠÑģÑĤÐ¾ÑĢÐ¾Ð½Ð°": 7402,
      "du": 7403,
      "ĠÐ¼ÐµÑĢÐ¾Ð¿ÑĢÐ¸ÑıÑĤÐ¸Ð¹": 7404,
      "ĠÐ±Ð¾Ð»ÑĮÑĪÐ¸Ð½ÑģÑĤÐ²Ðµ": 7405,
      "Ð¡Ð¾Ð³Ð»Ð°ÑģÐ½Ð¾": 7406,
      "ĠÐ¤Ð¸Ð»Ð¸": 7407,
      "ĠÑģÐ¾Ð´ÐµÑĢÐ¶Ð°Ð½Ð¸Ðµ": 7408,
      "ÐŀÑĢ": 7409,
      "ÐµÐ²Ð¾Ð¹": 7410,
      "ĠÐ³Ð»Ð¾Ð±": 7411,
      "ĠÐ¿ÑĢÐµÐ±Ñĭ": 7412,
      "ĠÐ²Ð¸Ð·Ñĥ": 7413,
      "ĠÐ¿Ð¾Ð¸ÑģÐº": 7414,
      "ĠÐºÐ¾Ð½ÑĤÐµÐº": 7415,
      "ÑĤÑĭÐ¼Ð¸": 7416,
      "ĠÐ¿ÑĢÐ¾Ð²ÐµÑĢÐºÐ¸": 7417,
      "ĠÐ²Ð¾Ð¿": 7418,
      "ĠÑģÑĤÐ¾Ð»ÑĮ": 7419,
      "ĠÐ±ÑĢÐ°ÑĤ": 7420,
      "ĠÐ½ÐµÐ±Ð¾Ð»ÑĮÑĪ": 7421,
      "ĠÐļÐ°ÑĢÐ°": 7422,
      "ĠÑĢÐ¾ÑģÑģÐ¸Ð¹ÑģÐºÐ¾Ð³Ð¾": 7423,
      "ĠÐ±Ð¾Ð³Ð°ÑĤ": 7424,
      "Ð´ÐµÐ²": 7425,
      "Ð³Ð°Ð¼": 7426,
      "ĠÐ´Ð¾ÑģÑĤÐ¾Ð¸Ð½": 7427,
      "ĠÐĿÐ¸Ð¶": 7428,
      "Ð´ÐµÐ¾": 7429,
      "ung": 7430,
      "ĠÐ²ÑĭÐ±ÑĢÐ°Ð½": 7431,
      "Ð¾Ð»Ð¾Ð¶": 7432,
      "ĠÐ²Ð¾Ð´Ðµ": 7433,
      "ÑĢÐ¾ÑĤÐ¸": 7434,
      "ĠÐŁÐ¾ÑĩÐµÐ¼Ñĥ": 7435,
      "ĠÐ·Ð°ÐºÐ¾Ð½ÑĩÐ¸": 7436,
      "ĠÐ¿Ð¾Ð²ÐµÑĢÑħÐ½Ð¾ÑģÑĤÑĮ": 7437,
      "Ġ400": 7438,
      "Ð¾Ð²Ð¾Ðµ": 7439,
      "ĠÐ½Ð°ÐºÐ¾Ð½ÐµÑĨ": 7440,
      "ÐºÐ¾Ð½ÑĩÐ°": 7441,
      "choices": 7442,
      "ĠÐłÑĭ": 7443,
      "ĠÑĥÐ¿ÑĢÐ¾": 7444,
      "ĠÑģÐµÑĢÐ´Ðµ": 7445,
      "ĠÐ¿Ð¾Ð´Ð½Ð¸Ð¼Ð°": 7446,
      "ĠÐ¿ÑĢÐµÐ¸Ð¼ÑĥÑīÐµÑģÑĤÐ²Ð°": 7447,
      "ĠÑĦÑĥÑĤÐ±Ð¾Ð»": 7448,
      "ĠÑĢÐ°Ð±Ð¾ÑĤÐ½Ð¸ÐºÐ¾Ð²": 7449,
      "ĠÑģÑĥÑĤÐºÐ¸": 7450,
      "Ð¿Ð°Ð´Ð°": 7451,
      "ĠÐ´Ð¾ÑĢÐ¾Ð³Ð°": 7452,
      "ĠÐ½ÐµÐ¾Ð¶Ð¸Ð´Ð°Ð½": 7453,
      "ÑĢÐ°Ð»ÑĮÐ½ÑĭÐµ": 7454,
      "ÑīÐµÐ½Ð¸ÐµÐ¼": 7455,
      "ÐµÐºÑĤÐµ": 7456,
      "Ġcont": 7457,
      "ÑģÑĤÐ²ÑĥÑİÑīÐ¸Ñħ": 7458,
      "Ð¿Ð¸Ð»": 7459,
      "ĠÐ¿ÑĥÐ½ÐºÑĤ": 7460,
      "86": 7461,
      "ĠÐ³Ð»Ð°Ð²Ðµ": 7462,
      "ĠÐ»ÑİÐ±ÑĭÑħ": 7463,
      "ÐµÐ²Ðµ": 7464,
      "ĠÐ²ÑĭÐ¸Ð³ÑĢÑĭ": 7465,
      "ĠÐ²Ð½ÑĥÑĤÑĢÐµÐ½Ð½Ð¸Ñħ": 7466,
      "ĠÐĶÐ¾Ð½": 7467,
      "ĠÐ¿Ð¾ÑģÐ»ÐµÐ´Ð½ÐµÐµ": 7468,
      "ÑģÑĤÐ½ÑĭÑħ": 7469,
      "ÑĨÐ°Ñħ": 7470,
      "Ð¾Ð°Ð½": 7471,
      "Ð´ÐµÑģ": 7472,
      "ĠÐ§ÐµÑĢÐµÐ·": 7473,
      "ĠÐ½ÐµÐ¿ÑĢÐµ": 7474,
      "ĠÐ¿ÑĢÐ°Ð²Ð¸ÑĤÐµÐ»ÑĮÑģÑĤÐ²Ð¾": 7475,
      "ĠÐĴÐ°ÑģÐ¸Ð»ÑĮ": 7476,
      "ĠÐ´Ð°ÑİÑĤ": 7477,
      "ĠÑģÑĢÐ¾ÐºÐ°": 7478,
      "!Â»": 7479,
      "ĠÐ²Ð½Ð¸Ð·": 7480,
      "ĠÐ½Ð°ÑĪÐµ": 7481,
      "Ð¾Ð²Ð°Ð½Ð°": 7482,
      "ÑĢÐ°Ð»ÑĮÐ½Ð°Ñı": 7483,
      "ĠÑĤÐ¾ÑĢÐ¶Ðµ": 7484,
      "ĠÐ±ÐµÑĢÐµÐ³Ñĥ": 7485,
      "ĠÑģÑĤÑĢÐ°Ð½Ð¸ÑĨÐµ": 7486,
      "ĠÑĢÐ¾Ð²": 7487,
      "ĠÑģÑĩÑĳÑĤ": 7488,
      "Ð»ÐµÐ¶Ð°": 7489,
      "ĠÑģÐµÑĢÐ´ÑĨÐ°": 7490,
      "oll": 7491,
      "ĠÐĽÑĮ": 7492,
      "ĠÐ¿ÑĢÐ¾Ð²ÐµÑĢÐ¸ÑĤÑĮ": 7493,
      "ĠÐ¾ÑĦÐ¾ÑĢÐ¼Ð»ÐµÐ½Ð¸Ñı": 7494,
      "Ð½ÑģÐºÐ¸Ð¹": 7495,
      "ĠÐ»Ð¾": 7496,
      "ĠÐ¾Ð±Ð°": 7497,
      "ĠÑĤÑıÐ¶": 7498,
      "http": 7499,
      "ÑĤÐ¾ÑĢÐµ": 7500,
      "Ð±Ð¸ÑĤÑĮ": 7501,
      "ĠÐ±ÐµÑģÐº": 7502,
      "ĠÐºÐ°Ð¶Ð´Ð¾Ð¼Ñĥ": 7503,
      "ĠÐ³ÑĢÐ°Ð¼Ð¾ÑĤ": 7504,
      "ĠÑĦÐ¸Ð½Ð°Ð½ÑģÐ¸": 7505,
      "ĠÑģÐµÐ»Ð¾": 7506,
      "Ð²Ð¾Ð¾": 7507,
      "ĠÐ²Ð¾ÑģÐ¿Ð¾Ð»ÑĮÐ·Ð¾Ð²Ð°ÑĤÑĮÑģÑı": 7508,
      "ĠÐ¿Ð¾Ð¶Ð°ÑĢ": 7509,
      "Ð¤Ð¾ÑĢ": 7510,
      "ĠÐ¸Ð½ÑĦÑĢÐ°ÑģÑĤÑĢÑĥ": 7511,
      "ÑĨÐ°ÑĢ": 7512,
      "ÑĢÐ¾Ð²Ð°Ð½Ð¸Ñİ": 7513,
      "ÐŀÑģÐ¾Ð±": 7514,
      "ĠÐ³Ð¾ÑģÑĥÐ´Ð°ÑĢÑģÑĤÐ²ÐµÐ½Ð½ÑĭÐ¹": 7515,
      "ÑĩÐ°ÑİÑĤ": 7516,
      "ĠÐ²ÑģÐºÐ¾ÑĢÐµ": 7517,
      "74": 7518,
      "Ð¢Ðĺ": 7519,
      "ĠÐ¸Ð¼ÐµÐ»": 7520,
      "Ð¾Ð·Ðµ": 7521,
      "ĠÐºÐ¾Ð¼Ð¸ÑģÑģÐ¸Ð¸": 7522,
      "ĠÐ±Ð°ÑĢÐ°": 7523,
      "ĠÐ¿Ð¾ÑħÐ¾Ð´": 7524,
      "ĠÐ¾ÐºÐ°Ð·Ð°Ð»ÑģÑı": 7525,
      "ĠÐ´ÑĥÐ¼Ð°Ñİ": 7526,
      "ĠÐ·Ð°ÑĢÐ°Ð½ÐµÐµ": 7527,
      "Ð¼Ð°Ð³Ð°Ð·Ð¸": 7528,
      "ĠÐĺÐ»Ð¸": 7529,
      "ĠÐ³Ð¾ÑģÑĤÐµÐ¹": 7530,
      "ĠÑĥÑĤÐµ": 7531,
      "ĠÑĥÐ³ÑĢÐ¾Ð·": 7532,
      "ÑĤÐ¸Ð²Ð°": 7533,
      "ĠÐ¾Ð¿ÑĢÐµÐ´ÐµÐ»ÐµÐ½Ð¸Ñı": 7534,
      "ĠÑĩÐµÐ¼Ñĥ": 7535,
      "ĠÑĤÐ°ÐºÐ¸Ð¼Ð¸": 7536,
      "ĠÐ°ÑĤÐ¾Ð¼": 7537,
      "ĠÑģÐ¾Ð²Ð¼ÐµÑģÑĤÐ½Ð¾": 7538,
      "ÑĪÐµÐ±": 7539,
      "ĠÐ¾ÑĢÐ³Ð°Ð½Ð¸Ð·Ð¼": 7540,
      "ÐºÑĤÑĥÑĢÐ°": 7541,
      "ĠÐ¾Ð¶Ð¸Ð´Ð°": 7542,
      "Ġ1995": 7543,
      "Ð¿Ð¸ÑĤÐ°Ð½": 7544,
      "ĠÑĩÐµÐ»Ð¾Ð²ÐµÐºÑĥ": 7545,
      "ĠÐ¾Ð±Ñĥ": 7546,
      "ĠÑĤÐ²ÐµÑĢ": 7547,
      "ĠÐ´Ð¾Ð¼Ð¾Ð¹": 7548,
      "ĠÐ´Ð¾Ð»Ð¶Ð½Ð¾ÑģÑĤÑĮ": 7549,
      "ern": 7550,
      "ÑıÐµÑĤÑģÑı": 7551,
      "Ð¾Ð½ÑĮ": 7552,
      "box": 7553,
      "ĠÑģÐ°Ð¼Ð°Ñı": 7554,
      "ĠÐºÐ°ÑĤÐ°Ð»Ð¾Ð³": 7555,
      "ĠÐ¿Ð¾ÑĤÐµÑĢ": 7556,
      "ĠÐ¾ÐºÐ¾Ð½ÑĩÐ°Ð½Ð¸Ñı": 7557,
      "ÑĦÐ¾ÑĢÐ¼Ñĭ": 7558,
      "ĠÐ¶Ð°ÑĢ": 7559,
      "ĠÐ³Ð°ÑĢÐ¼Ð¾": 7560,
      "ÑĢÐ¾Ð²Ð°Ð»Ð°": 7561,
      "ĠÐ½Ð¾Ð²Ð°Ñı": 7562,
      "ĠÐ¿ÑĢÐ¾ÑģÑĮ": 7563,
      "ĠÑĤÐµÐ¼Ðµ": 7564,
      "ĠIV": 7565,
      "Ð²ÐµÑĢÑħ": 7566,
      "Ð°Ð½Ð³": 7567,
      "ĠÑĢÐ°Ð·Ð¼ÐµÑĢÐ°": 7568,
      "ĠÐ²Ð¾Ð»Ð¾ÑģÑĭ": 7569,
      "Ð§Ð°": 7570,
      "ĠÐ½Ð°ÑĪÐ°": 7571,
      "ĠÐ²Ð¿Ð¾ÑģÐ»ÐµÐ´ÑģÑĤÐ²Ð¸Ð¸": 7572,
      "ĠÐ¿ÑĢÐ¾ÑĨÐµÐ´ÑĥÑĢÑĭ": 7573,
      "ĠÐĶÐµÐ½ÑĮ": 7574,
      "ari": 7575,
      "ĠÐ¿Ð¾ÑģÑĤÐ°Ð²Ð»ÐµÐ½": 7576,
      "ĠÐ¸Ð½ÑĤÐµÑĢÐ²ÑĮÑİ": 7577,
      "ĠÑģÑĤÑĢÐµÐ¼": 7578,
      "ĠÐ·Ð°Ñħ": 7579,
      "ĠÐ²ÑĭÑĢÐ¾Ñģ": 7580,
      "ĠSh": 7581,
      "ĠÐ±ÐµÐ½": 7582,
      "ĠÐľÐ°ÑĢÐ¸": 7583,
      "ÑĦÐ¸Ð»ÑĮÐ¼": 7584,
      "ĠÐ°Ð»ÑĦÐ°": 7585,
      "ÐľÐ°ÑĢ": 7586,
      "ĠÐ¾ÑģÐ¾Ð·Ð½Ð°": 7587,
      "Ð»Ð°ÑģÑĤÐ¸": 7588,
      "Ð»Ð»": 7589,
      "Ð°Ð½ÑĤ": 7590,
      "ĠÐ±ÐµÑĤ": 7591,
      "ĠEn": 7592,
      "ĠÐ¿Ð¾ÑıÐ²Ð¸Ð»Ð°ÑģÑĮ": 7593,
      "ĠÑĩÐ°ÑģÑĤÐµÐ¹": 7594,
      "ĠÐ¿ÑĢÐµÐ´ÑģÑĤÐ°Ð²Ð¸ÑĤÐµÐ»ÑĮ": 7595,
      "ĠÐ°ÑĤÐ¼Ð¾ÑģÑĦÐµÑĢ": 7596,
      "ĠÑģÐºÐ°Ð½": 7597,
      "54": 7598,
      "ĠÑĥÐ»Ñĭ": 7599,
      "ĠÐ¶Ð¸ÑĤÐµÐ»Ð¸": 7600,
      "ĠÐ´Ð²ÐµÑĢÐ¸": 7601,
      "ĠÐ·Ð°Ð±Ð¾ÑĤ": 7602,
      "ĠÐ¼Ð¾Ð½Ð¸": 7603,
      "ĠÑģÐ¸Ð»ÑĮ": 7604,
      "ĠÑģÐ¾ÑģÑĤÐ°Ð²Ð°": 7605,
      "ĠÑĦÐ¸ÑĢÐ¼Ñĭ": 7606,
      "ÑīÐ°Ð»": 7607,
      "ĠÐ¿Ð¾ÑģÐ»ÐµÐ´Ð½Ð¸Ñħ": 7608,
      "Ð¾Ð²ÑĭÐ¼": 7609,
      "ĠÐ¶Ð¸ÑĤÐµÐ»ÑĮ": 7610,
      "Ð¼ÑĭÐ¼": 7611,
      "ĠÑĦÑĥÐ½ÐºÑĨÐ¸Ð¾Ð½Ð¸": 7612,
      "Ð¾Ð»Ð³Ð¾": 7613,
      "ĠÐ°ÑĢÐ¼Ð¸": 7614,
      "Ð¾ÑģÐ¾Ð±Ñĭ": 7615,
      "ĠÐ¾ÑģÐ½Ð¾Ð²Ñĭ": 7616,
      "ĠÐ²ÑĢÐ°ÑĩÐ°": 7617,
      "ĠÐ±ÐµÑĢÐµÐ¼ÐµÐ½Ð½Ð¾ÑģÑĤÐ¸": 7618,
      "ĠÑĢÐ°Ð·Ð´ÐµÐ»Ðµ": 7619,
      "ĠÐ¿Ð¾Ð´ÑĢÐ°Ð·Ð´Ðµ": 7620,
      "ĠÐ·Ð°Ð²Ð¾Ðµ": 7621,
      "Ð´ÐµÐ½Ð°": 7622,
      "ĠÑĪÑĤÑĥ": 7623,
      "ÑģÐ¾ÑĢ": 7624,
      "ĠÑĩÐ¸Ð½Ð¾Ð²": 7625,
      "ual": 7626,
      "ÑĢÐµÑĨ": 7627,
      "ĠÐĶÑį": 7628,
      "ÑģÑĤÐ²ÐµÐ½Ð½ÑĭÐ¼Ð¸": 7629,
      "ĠÑģÐµÐ²ÐµÑĢÐ¾": 7630,
      "ĠÐ¯Ð¿Ð¾Ð½Ð¸Ð¸": 7631,
      "ĠÐºÐ°ÐºÐ¾Ð¼": 7632,
      "ÑģÐ¾Ð²ÐµÑĢÑĪÐµÐ½": 7633,
      "ĠÑģÐ¾Ð±ÑģÑĤÐ²ÐµÐ½Ð½Ð¾ÑģÑĤÐ¸": 7634,
      "Ð¾ÑĢÐ³Ð°Ð½Ð¸": 7635,
      "Ð³ÑĢÑĥ": 7636,
      "ĠÐ¾ÑĤÐ²ÐµÑĤÑģÑĤÐ²ÐµÐ½Ð½Ð¾ÑģÑĤÑĮ": 7637,
      "ĠÐ¸Ð´ÐµÐ½": 7638,
      "ĠÐ»Ð¸Ð¼": 7639,
      "ÑĩÐ¸ÑģÐ»Ð¸": 7640,
      "ĠÐ¶ÐµÐ»Ð°Ð½Ð¸Ðµ": 7641,
      "ĠÑģÐ¿ÑĥÑģÑĤÑı": 7642,
      "ĠÐ¼ÑĥÐ»ÑĮÑĤÐ¸": 7643,
      "ĠÑĢÐ¾Ð»": 7644,
      "ĠÐ½ÐµÐ¿ÑĢÐ°Ð²Ð¸": 7645,
      "co": 7646,
      "ÐľÐĲ": 7647,
      "ĠÐ¸Ð½Ð¶ÐµÐ½ÐµÑĢ": 7648,
      "Ð³Ð¾ÑĤÐ°Ð²Ð»Ð¸": 7649,
      "Ð»ÐµÐ½Ð½Ð¾ÑģÑĤÑĮ": 7650,
      "ĠÐ½Ð°ÑĥÑĩÐ½Ð¾": 7651,
      "ĠÐ¿Ð°ÑĤÑĢÐ¸": 7652,
      "ĠÐ»Ð¾Ð´": 7653,
      "ÐļÐ¾Ð¼Ð¿Ð°Ð½Ð¸Ñı": 7654,
      "ĠÐ¾Ð±ÑĥÑĩÐ°": 7655,
      "ÐĽÐĺ": 7656,
      "ĠÐ¿ÑĢÐ¸ÑĩÐ¸Ð½Ð¾Ð¹": 7657,
      "Ð½Ð½ÑĭÐ¹": 7658,
      "ÑĨÐµÑĢÑĤ": 7659,
      "Ð¿Ð¾Ð»ÑĮÐ·Ð¾Ð²Ð°ÑĤÐµÐ»ÑĮ": 7660,
      "Ð¸Ð¼Ð°": 7661,
      "ĠEx": 7662,
      "Ð¾Ð¿ÑĢÐ¸Ð¼ÐµÑĩÐ°": 7663,
      "ÐĻÐ¾ÑĢ": 7664,
      "ĠÑģÐ¿ÑĥÑĤ": 7665,
      "ĠÐ»Ð¾Ðº": 7666,
      "ĠÐ±Ð¾ÑĢÑĮÐ±Ñĭ": 7667,
      "ĠÐºÐ¾ÑĢÐ¸": 7668,
      "ĠÑģÑİÐ¶ÐµÑĤ": 7669,
      "ĠÐ¿Ð¾ÑģÐ°Ð´": 7670,
      "GC": 7671,
      "ĠÐ±Ð»Ð°Ð³Ð¾": 7672,
      "ĠÐŀÑĤÐµÑĩÐµÑģÑĤÐ²ÐµÐ½Ð½Ð¾Ð¹": 7673,
      "ĠÑĢÐµÐ·ÐµÑĢ": 7674,
      "ĠÑģÐµÑĢÑĤÐ¸ÑĦÐ¸ÐºÐ°": 7675,
      "Ġ?": 7676,
      "59": 7677,
      "ĠÑĢÐ¾Ð¼Ð°": 7678,
      "val": 7679,
      "ĠÐ¸ÑģÐ¿Ð°Ð½": 7680,
      "ĠÐ°Ð»ÑĮÑĤÐµÑĢÐ½Ð°": 7681,
      "ĠÐ¸Ð½ÑĤÐµÑĢÑĦÐµÐ¹": 7682,
      "ĠÐ»Ð¸ÑĤÐµÑĢÐ°ÑĤÑĥÑĢÑĭ": 7683,
      "Ð»ÐµÑĢÐ¸Ð¹": 7684,
      "ĠÐ³Ð»Ð°Ð²Ð½ÑĭÑħ": 7685,
      "ĠÐ²Ð°ÑĪÐ¸Ñħ": 7686,
      "Ġ1997": 7687,
      "ÑĳÑĢÐ°": 7688,
      "ÐºÐ¾Ð¼Ð°": 7689,
      "ĠÑĥÑĩÐ°ÑģÑĤÐ¸Ñı": 7690,
      "Ð¼ÑĥÑİ": 7691,
      "ĠÐ¾ÑĤÐºÑĢÑĭÑĤÑĮ": 7692,
      "ĠÑĢÐµÑģÐ¿ÑĥÐ±Ð»Ð¸ÐºÐ¸": 7693,
      "ert": 7694,
      "52": 7695,
      "Ð´Ð¸ÑĤÑĮÑģÑı": 7696,
      "ĠÐºÐ¾Ð½ÑĤÐ°ÐºÑĤ": 7697,
      "ĠÑĢÐµÐ´ÐºÐ¾": 7698,
      "AT": 7699,
      "ÐļÐ¸": 7700,
      "Ð²ÑĪÐ¸ÑħÑģÑı": 7701,
      "ÐºÐ¸Ð½Ð°": 7702,
      "ĠÐ¿ÑĢÐ¾ÑĪÐ»Ð¾Ð³Ð¾": 7703,
      "ÑĢÑĭÐ²Ð°": 7704,
      "ĠÐ¸Ð½ÑĤÐµÑĢÐ½ÐµÑĤÐµ": 7705,
      "ÂŃ": 7706,
      "ĠÐ¹": 7707,
      "ĠÐ³ÑĢÑĥÐ¿Ð¿Ñĥ": 7708,
      "ĠÐľÐµÑĤ": 7709,
      "ĠÐŁÐµÑĢÐµÐ´": 7710,
      "ĠÐ´Ð°ÑĤ": 7711,
      "88": 7712,
      "ĠÑħÐ°ÑĢÐ°ÐºÑĤÐµÑĢÐ¸Ð·": 7713,
      "ĠÐ½Ð°ÑģÐºÐ¾Ð»ÑĮÐºÐ¾": 7714,
      "ÑĳÐ»Ð¾Ðº": 7715,
      "ĠÐ³Ð¾ÑĢÐ¸Ð·Ð¾Ð½": 7716,
      "ÑĥÑģÑĭ": 7717,
      "ĠÐ³ÑĢÐ°ÑĦ": 7718,
      "Â»;": 7719,
      "ĠÐ¿ÑĢÐ°Ð²Ð´Ð°": 7720,
      "ĠÐ²Ð½Ñĥ": 7721,
      "ĠÐ¿ÑĢÐ¸ÑĢÐ¾Ð´Ñĭ": 7722,
      "ĠÐ¿Ð¾Ð½Ð°Ð´Ð¾Ð±": 7723,
      "ĠÐĵÑĢÑĥ": 7724,
      "ĠÐ·Ð¾Ð»": 7725,
      "Ġz": 7726,
      "ĠÐ¿Ð¾Ð»Ð°Ð³Ð°": 7727,
      "ĠÐ¶ÐµÐ»ÑĥÐ´": 7728,
      "ĠÐ¿ÑĢÐ¾Ð±Ð»ÐµÐ¼Ñĥ": 7729,
      "Ġ1993": 7730,
      "ĠÐ¸ÑģÐ¿Ð¾Ð»Ð½Ð¸": 7731,
      "ĠÐ¿ÐµÑĢÐµÑĩÐ¸Ñģ": 7732,
      "Ð¾ÐºÐ¾Ð½": 7733,
      "ÑĩÐ¸Ð²Ð°ÑĤÑĮ": 7734,
      "ĠÑģÑĢÐµÐ´Ð½Ðµ": 7735,
      "ÑĳÐ³": 7736,
      "ĠÑĦÐ¾ÑĢÐ¼": 7737,
      "ĠÐ¿ÑĢÐ¾ÑĨÐµÐ½ÑĤ": 7738,
      "ĠÑģÑĢÐµÐ´Ð½ÐµÐ³Ð¾": 7739,
      "Ð½Ð¸ÑĤÐ°ÑĢ": 7740,
      "Ð¾ÑĢÑıÐ´": 7741,
      "ĠÑĢÐµÐ³ÑĥÐ»ÑıÑĢÐ½Ð¾": 7742,
      "ĠÑģÐ¾ÑĤÑĢÑĥÐ´Ð½Ð¸ÐºÐ¸": 7743,
      "SBN": 7744,
      "ĠÐ¿Ð¾Ð»Ð¸ÑĨÐ¸Ð¸": 7745,
      "ĠÐłÐ°Ð±Ð¾ÑĤÐ°": 7746,
      "Ġte": 7747,
      "ĠÑĢÑĥÑģÑģÐºÐ¸Ñħ": 7748,
      "Ġ1996": 7749,
      "],": 7750,
      "ÑĢÐ½ÑĭÑħ": 7751,
      "ĠÑħÐ¾Ð·ÑıÐ¹ÑģÑĤÐ²Ð°": 7752,
      "ĠÑģÐ¿Ð¾ÑĢÑĤÑģ": 7753,
      "ĠÐ»ÐµÑĤÐ°": 7754,
      "ĠÑįÑĤÐ°Ð¿Ðµ": 7755,
      "ĠÐ»ÑĥÑĩÑĪÐ¸Ð¹": 7756,
      "ÑĩÐµÑģÑĤÐ²Ðµ": 7757,
      "66": 7758,
      "Ð¼ÐµÐ½ÑĤÐµ": 7759,
      "ĠÑģÑĥÑīÐµÑģÑĤÐ²ÐµÐ½Ð½Ð¾": 7760,
      "ĠÐ¾Ð¿ÑĢÐµÐ´ÐµÐ»Ð¸": 7761,
      "ĠÑģÑĩÐ¸ÑĤÐ°ÑĤÑĮ": 7762,
      "Ð¾Ð²Ð°Ð½Ð¸Ð¸": 7763,
      "num": 7764,
      "ÑģÑĤÑĥÐ¿Ð¸ÑĤÑĮ": 7765,
      "Ð²Ð¸Ð»Ð¸": 7766,
      "ĠÐ¾Ð¿ÑıÑĤÑĮ": 7767,
      "ĠÑģÐ»Ð°Ð²": 7768,
      "ĠÑĦÑĥÐ½Ð´Ð°": 7769,
      "ĠÑĤÐµÐ¼Ð°ÑĤÐ¸": 7770,
      "ĠÐ½Ð°Ð¼Ð½Ð¾Ð³Ð¾": 7771,
      "ĠÐ´Ð¾Ð»Ð¸": 7772,
      "ÑĩÐ°ÑģÑĤÑĥÑİ": 7773,
      "ÐĵÐµ": 7774,
      "ĠÐ½Ð°Ðº": 7775,
      "Ġ1994": 7776,
      "ĠÐ¿Ð¾ÐºÐ°Ð·ÑĭÐ²Ð°ÐµÑĤ": 7777,
      "Ġdes": 7778,
      "ĠÑĢÐ°Ð²ÐµÐ½": 7779,
      "ĠÑĢÐµÐ³Ð¸Ð¾Ð½Ðµ": 7780,
      "sp": 7781,
      "ĠÐ¿ÑĢÐ¸Ð½ÑıÐ»Ð¸": 7782,
      "ĠÐ´ÐµÑĢÐµÐ²Ð½Ñı": 7783,
      "ÑĦÑĤ": 7784,
      "ĠÐ½Ð°ÑĢÐºÐ¾ÑĤÐ¸": 7785,
      "=\"": 7786,
      "ĠÐ¿ÑĢÐ¾Ð¸ÑģÑħÐ¾Ð¶Ð´ÐµÐ½Ð¸Ñı": 7787,
      "Ð³ÑĥÑĢ": 7788,
      "ĠÐ°Ð²ÑĤÐ¾ÑĢÐ°": 7789,
      "ĠÐ¿ÑĢÐ¸Ð·Ð²Ð°": 7790,
      "ĠÐ¸Ð·Ð¾Ð±ÑĢÐµ": 7791,
      "LE": 7792,
      "ĠÐ±ÐµÑģ": 7793,
      "ĠÑĦÐ¾Ð½Ðµ": 7794,
      "Ð´Ð»Ñı": 7795,
      "ank": 7796,
      "ĠÐ´ÐµÐ¹ÑģÑĤÐ²ÑĥÐµÑĤ": 7797,
      "ĠÐ¿Ð»": 7798,
      "Ð°Ð½ÐµÐµ": 7799,
      "ĠÐļÐ»Ð°": 7800,
      "ĠÐ°Ð»Ð³Ð¾ÑĢÐ¸ÑĤ": 7801,
      "Ð§Ðµ": 7802,
      "ĠÐĶÐ¾Ð¼": 7803,
      "ĠÐ·Ð½Ð°Ð½Ð¸Ð¹": 7804,
      "ĠÐ¸Ð³ÑĢÐ°ÐµÑĤ": 7805,
      "Ð²ÑĪÐ¸ÐµÑģÑı": 7806,
      "ize": 7807,
      "ĠÐ·Ð¾Ð½Ñĭ": 7808,
      "Ð¾ÑĢÐ¸ÑĤÑĮ": 7809,
      "ĠÐŁÐµÑĢÐ²ÑĭÐ¹": 7810,
      "ĠÐ¿ÑĢÐ¾ÑĤÐ¸Ð²Ð¾": 7811,
      "Ð¼Ð°Ð¹": 7812,
      "ĠÐ¿ÑĢÐ¾Ð¸Ð·Ð²Ð¾Ð´Ð¸ÑĤÑģÑı": 7813,
      "ÐĶÐķ": 7814,
      "ĠÐ»Ð°Ð¼": 7815,
      "ĠÐķÑīÐµ": 7816,
      "ĠÐ±Ð°ÑĤÐ°": 7817,
      "ĠÐ¾ÑĢÐ³Ð°Ð½Ñĭ": 7818,
      "ĠÐ¿Ð¾ÑıÐ²": 7819,
      "ĠÑĤÑĢÐ°Ð½ÑģÐ¿Ð¾ÑĢÑĤÐ°": 7820,
      "ĠÐ¿ÑĢÐ¸ÑĩÐ¸Ð½Ñĭ": 7821,
      "ĠÑģÐ¾Ð¾Ð±ÑīÐµÐ½Ð¸Ðµ": 7822,
      "ĠÐ¾ÑħÐ¾ÑĤ": 7823,
      "Ð¾Ð³ÑĢÐ°Ð¼Ð¼Ð°": 7824,
      "71": 7825,
      "ÑĢÑıÐ´Ð°": 7826,
      "ÑĤÐ½Ð¾Ðµ": 7827,
      "ĠÐ´Ð²Ð¾Ð¹": 7828,
      "53": 7829,
      "ÑĤÐ¸Ð²Ð½ÑĭÐ¼": 7830,
      "ĠÑĪÐµÑģÑĤÑĮ": 7831,
      "ÑĩÐµÐ²": 7832,
      "ĠÑĥÐ²ÐµÑĢÐµÐ½": 7833,
      "ĠÑģÑħÐ¾Ð´": 7834,
      "Ð³ÑĢÐ°Ð½": 7835,
      "ÐĶÐ¾Ð±": 7836,
      "Ð²ÑĭÑĩÐ°Ð¹": 7837,
      "ĠÐ¾Ð±Ð¸ÑĤÐ°": 7838,
      "own": 7839,
      "ĠÐĿÑĥÐ¶Ð½Ð¾": 7840,
      "73": 7841,
      "ĠÐ¿ÑĢÐµÐ´Ð¿Ð¾": 7842,
      "ors": 7843,
      "ĠÐ¾Ð¿ÑĨÐ¸Ð¾Ð½Ð°": 7844,
      "ĠÐºÐ¾Ð¼Ð¿Ð»ÐµÐºÑģÐ°": 7845,
      "ĠÐ»Ð¸ÐºÐ²Ð¸": 7846,
      "ĠÑĪÐ¾Ñĥ": 7847,
      "ÑĦÐ¸ÐºÐ°ÑĨÐ¸Ñı": 7848,
      "ĠÐ¿Ð¸ÑģÑĮÐ¼ÐµÐ½": 7849,
      "ener": 7850,
      "ĠÐ¿ÑĢÐ¸Ð²ÐµÑĤ": 7851,
      "ÐĿÐ«": 7852,
      ".|": 7853,
      "ĠÐ¿Ð¾Ð¶Ð°Ð»ÑĥÐ¹ÑģÑĤÐ°": 7854,
      "ĠÑģÐ»ÑĥÑĩÐ¸": 7855,
      "ÐľÐŀ": 7856,
      "ĠÐĳÐ°Ð»": 7857,
      "ĠÐĴÐ¾ÑĢ": 7858,
      "ĠÐ½Ð°Ð¿ÑĢÐ°Ð²Ð»ÐµÐ½Ð¸Ð¸": 7859,
      "ĠÐ¿Ð¾ÑģÐ»Ñĥ": 7860,
      "ĠÑģÐ¿ÑĢÐ°Ð²": 7861,
      "ĠÑģÐ»Ð¾Ð¶Ð½Ð¾ÑģÑĤÐ¸": 7862,
      "ÑĳÐ½Ð½ÑĭÐ¹": 7863,
      "Ġop": 7864,
      "ĠÐ»Ð¸Ð½Ð¸Ñı": 7865,
      "ĠÐ¸Ð½ÑĤÐµÑĢÐµÑģÐ½Ð¾": 7866,
      "ĠÑįÐ»ÐµÐºÑĤÑĢÐ¾Ð½Ð½Ð¾Ð¹": 7867,
      "ĠÐĲÐºÐ°Ð´ÐµÐ¼Ð¸": 7868,
      "ĠÐ¿Ð¾ÑģÐ¾Ð±": 7869,
      "ĠÐĿÐµÑģÐ¼Ð¾ÑĤÑĢÑı": 7870,
      "ÑħÐ¾Ð·ÑıÐ¹": 7871,
      "ÑīÐ¸ÐµÑģÑı": 7872,
      "Ã³n": 7873,
      "Ð¾ÐºÑĥÐ¿": 7874,
      "ĠÐ¸Ð·Ð²ÐµÑģÑĤÐ½ÑĭÐ¹": 7875,
      "ĠÐ°ÐºÑģÐµ": 7876,
      "ĠÑĢÑĥÐºÐ°Ñħ": 7877,
      "ĠÐ³ÑĢÐ°Ð½": 7878,
      "ĠÐºÐ°Ð¼ÐµÑĢ": 7879,
      "son": 7880,
      "ĠÑĩÐµÐ»Ð¾Ð²ÐµÐºÐ¾Ð¼": 7881,
      "ÑħÑĥÐ´": 7882,
      "Ð·Ð¸Ð²": 7883,
      "ĠÐ½Ð°ÑĪÐ¸Ð¼": 7884,
      "odel": 7885,
      "Ð¾ÑģÐ¸Ð±Ð¸ÑĢ": 7886,
      "ĠÐ¿Ð¾ÑģÑĤÐ°Ð²Ð¸": 7887,
      "ĠÐ´Ð¾ÐºÑĥÐ¼ÐµÐ½ÑĤ": 7888,
      "ĠÑģÑĤÐ¸Ð»ÑĮ": 7889,
      "ĠÐºÐ¾ÑģÐ¼ÐµÑĤÐ¸": 7890,
      "ua": 7891,
      "ĠÐ¼Ð°ÑĢÐºÐµÑĤ": 7892,
      "ÑĨÐµÑģÑģ": 7893,
      "\":": 7894,
      "ĠÐ³Ð¾ÑģÑĥÐ´Ð°ÑĢÑģÑĤÐ²ÐµÐ½Ð½ÑĭÑħ": 7895,
      "ĠÐ½ÐµÐ¿ÑĢÐ¸ÑıÑĤ": 7896,
      "ĠÑģÐ¿ÐµÑĨÐ¸Ð°Ð»ÑĮÐ½ÑĭÐµ": 7897,
      "ÑĩÐ°Ð»": 7898,
      "ĠÐĴÐ¸Ð½": 7899,
      "Ð¿Ð¸ÑģÐ¾Ðº": 7900,
      "Ġpar": 7901,
      "Ġself": 7902,
      "ÑģÐ°Ð¹": 7903,
      "ĠÑģÐ¾Ð²ÑĢÐµÐ¼ÐµÐ½Ð½Ð¾Ð³Ð¾": 7904,
      "2019": 7905,
      "ĠÐ¢ÑĢÐµ": 7906,
      "ÐºÐ°ÐµÑĤ": 7907,
      "ĠÑĨÐµÐ»Ðµ": 7908,
      "ÑģÑĤÐµÐ¼Ð°": 7909,
      "ĠÑĢÐ°Ð·Ð´ÐµÐ»": 7910,
      "ĠÐ¿ÑĢÐ¾ÑģÑĤÑĢÐ°Ð½ÑģÑĤÐ²Ð°": 7911,
      "ĠÑıÐ·ÑĭÐºÐ¾Ð²": 7912,
      "ĠÐ°ÑĢÐ¾Ð¼": 7913,
      "Ġ1970": 7914,
      "ÑģÑĤÑĢÐ¸Ð¸": 7915,
      "ĠÐ¿Ð¾ÑģÐ²ÑıÑīÐµÐ½": 7916,
      "ĠÑģÑĤÐ°Ð½Ð¾Ð²ÑıÑĤÑģÑı": 7917,
      "ĠÑģÐ²ÑıÐ·Ð°Ð½Ð½ÑĭÐµ": 7918,
      "ĠÐ¾Ð±ÑģÑĥÐ¶": 7919,
      "ĠÐ²ÐµÑĤÐµ": 7920,
      "ĠÑģÐ¾ÑħÑĢÐ°Ð½Ð¸ÑĤÑĮ": 7921,
      "ĠÑģÑĭÑĢ": 7922,
      "ÃŃ": 7923,
      "ĠÐ²Ð¾Ð¹Ð½Ðµ": 7924,
      "ĠÐ²ÐµÐ»": 7925,
      "ĠÐºÐ¸ÑĢ": 7926,
      "64": 7927,
      "ĠÑģÑĤÑĥÐ´ÐµÐ½ÑĤÐ¾Ð²": 7928,
      "Ġo": 7929,
      "ĠÐĲÐ¼": 7930,
      "ĠÐ±Ð¾Ð¼": 7931,
      "ĠÐ¿ÑĢÐµÐ´ÐµÐ»Ð°Ñħ": 7932,
      "mer": 7933,
      "Ð²ÐµÑĢÐµ": 7934,
      "ĠÐ´Ð¾ÐºÑĤÐ¾ÑĢ": 7935,
      "ĠÑĢÐ¾ÑģÑģÐ¸Ð¹ÑģÐºÐ¾Ð¹": 7936,
      "ĠÐ¢ÑĢÑĥ": 7937,
      "92": 7938,
      "udi": 7939,
      "ĠÐ²Ð¾Ð¹Ð½Ð°": 7940,
      "Ð¡Ñĥ": 7941,
      "Ð·Ð¸Ð¹": 7942,
      "ĠÐ¿Ð¾ÑĢÑĤ": 7943,
      "ĠÐ¾Ð±ÑīÐµÐµ": 7944,
      "Ð¶Ð½ÑĭÐ¼": 7945,
      "ĠÑĢÐ¾Ð´Ð¸ÑĤÐµÐ»Ð¸": 7946,
      "ĠÐ¸Ð·Ð¼ÐµÐ½Ð¸ÑĤÑĮ": 7947,
      "Ġall": 7948,
      "ĠÐ¿Ð¾Ð»Ð°": 7949,
      "ĠÑĤÐµÑĢÐ¼Ð¸": 7950,
      "Ð¾Ð¿Ð¾": 7951,
      "Ð´Ð²Ð°": 7952,
      "ÑģÑĤÐ°Ð½Ðµ": 7953,
      "Ð²Ð°ÐµÑĤÐµ": 7954,
      "ÑĦÐ¾ÑĢÐ¼Ð°ÑĨÐ¸Ñı": 7955,
      "Ð»ÑĮÐ½Ð¾ÑģÑĤÐ¸": 7956,
      "ĠÐ»ÐµÑĤÐ¾Ð¼": 7957,
      "Ð»ÐµÑĤÐ½Ð¸Ð¹": 7958,
      "Ð¾ÑĩÐºÐ°": 7959,
      "ĠÑĩÐµÑĤÑĭÑĢ": 7960,
      "ÐĵÐ»Ð°Ð²Ð°": 7961,
      "ĠÐºÐ¾Ð´ÐµÐº": 7962,
      "ĠÐ²Ð¾ÐµÐ½Ð½ÑĭÑħ": 7963,
      "ĠÐ´ÐµÑĤÑıÐ¼": 7964,
      "ĠÐ¸Ð·Ð³Ð¾ÑĤÐ¾Ð²Ð»ÐµÐ½Ð¸Ñı": 7965,
      "ĠÐ¿ÑĢÐµÐ·Ð¸Ð´ÐµÐ½": 7966,
      "ÐĴÐĲ": 7967,
      "ĠÐĴÐ¾ÑģÑĤÐ¾Ñĩ": 7968,
      "ĠÑĦÐ°ÐºÑĤÐ¾ÑĢÐ¾Ð²": 7969,
      "ĠÐºÐ°ÑĦÐµ": 7970,
[...]
